<pad>	0
<s>	0
</s>	0
<unk>	0
<|user|>	0
<|assistant|>	0
<|system|>	0
<|json|>	0
<|end|>	0
<0x00>	0
<0x01>	0
<0x02>	0
<0x03>	0
<0x04>	0
<0x05>	0
<0x06>	0
<0x07>	0
<0x08>	0
<0x09>	0
<0x0A>	0
<0x0B>	0
<0x0C>	0
<0x0D>	0
<0x0E>	0
<0x0F>	0
<0x10>	0
<0x11>	0
<0x12>	0
<0x13>	0
<0x14>	0
<0x15>	0
<0x16>	0
<0x17>	0
<0x18>	0
<0x19>	0
<0x1A>	0
<0x1B>	0
<0x1C>	0
<0x1D>	0
<0x1E>	0
<0x1F>	0
<0x20>	0
<0x21>	0
<0x22>	0
<0x23>	0
<0x24>	0
<0x25>	0
<0x26>	0
<0x27>	0
<0x28>	0
<0x29>	0
<0x2A>	0
<0x2B>	0
<0x2C>	0
<0x2D>	0
<0x2E>	0
<0x2F>	0
<0x30>	0
<0x31>	0
<0x32>	0
<0x33>	0
<0x34>	0
<0x35>	0
<0x36>	0
<0x37>	0
<0x38>	0
<0x39>	0
<0x3A>	0
<0x3B>	0
<0x3C>	0
<0x3D>	0
<0x3E>	0
<0x3F>	0
<0x40>	0
<0x41>	0
<0x42>	0
<0x43>	0
<0x44>	0
<0x45>	0
<0x46>	0
<0x47>	0
<0x48>	0
<0x49>	0
<0x4A>	0
<0x4B>	0
<0x4C>	0
<0x4D>	0
<0x4E>	0
<0x4F>	0
<0x50>	0
<0x51>	0
<0x52>	0
<0x53>	0
<0x54>	0
<0x55>	0
<0x56>	0
<0x57>	0
<0x58>	0
<0x59>	0
<0x5A>	0
<0x5B>	0
<0x5C>	0
<0x5D>	0
<0x5E>	0
<0x5F>	0
<0x60>	0
<0x61>	0
<0x62>	0
<0x63>	0
<0x64>	0
<0x65>	0
<0x66>	0
<0x67>	0
<0x68>	0
<0x69>	0
<0x6A>	0
<0x6B>	0
<0x6C>	0
<0x6D>	0
<0x6E>	0
<0x6F>	0
<0x70>	0
<0x71>	0
<0x72>	0
<0x73>	0
<0x74>	0
<0x75>	0
<0x76>	0
<0x77>	0
<0x78>	0
<0x79>	0
<0x7A>	0
<0x7B>	0
<0x7C>	0
<0x7D>	0
<0x7E>	0
<0x7F>	0
<0x80>	0
<0x81>	0
<0x82>	0
<0x83>	0
<0x84>	0
<0x85>	0
<0x86>	0
<0x87>	0
<0x88>	0
<0x89>	0
<0x8A>	0
<0x8B>	0
<0x8C>	0
<0x8D>	0
<0x8E>	0
<0x8F>	0
<0x90>	0
<0x91>	0
<0x92>	0
<0x93>	0
<0x94>	0
<0x95>	0
<0x96>	0
<0x97>	0
<0x98>	0
<0x99>	0
<0x9A>	0
<0x9B>	0
<0x9C>	0
<0x9D>	0
<0x9E>	0
<0x9F>	0
<0xA0>	0
<0xA1>	0
<0xA2>	0
<0xA3>	0
<0xA4>	0
<0xA5>	0
<0xA6>	0
<0xA7>	0
<0xA8>	0
<0xA9>	0
<0xAA>	0
<0xAB>	0
<0xAC>	0
<0xAD>	0
<0xAE>	0
<0xAF>	0
<0xB0>	0
<0xB1>	0
<0xB2>	0
<0xB3>	0
<0xB4>	0
<0xB5>	0
<0xB6>	0
<0xB7>	0
<0xB8>	0
<0xB9>	0
<0xBA>	0
<0xBB>	0
<0xBC>	0
<0xBD>	0
<0xBE>	0
<0xBF>	0
<0xC0>	0
<0xC1>	0
<0xC2>	0
<0xC3>	0
<0xC4>	0
<0xC5>	0
<0xC6>	0
<0xC7>	0
<0xC8>	0
<0xC9>	0
<0xCA>	0
<0xCB>	0
<0xCC>	0
<0xCD>	0
<0xCE>	0
<0xCF>	0
<0xD0>	0
<0xD1>	0
<0xD2>	0
<0xD3>	0
<0xD4>	0
<0xD5>	0
<0xD6>	0
<0xD7>	0
<0xD8>	0
<0xD9>	0
<0xDA>	0
<0xDB>	0
<0xDC>	0
<0xDD>	0
<0xDE>	0
<0xDF>	0
<0xE0>	0
<0xE1>	0
<0xE2>	0
<0xE3>	0
<0xE4>	0
<0xE5>	0
<0xE6>	0
<0xE7>	0
<0xE8>	0
<0xE9>	0
<0xEA>	0
<0xEB>	0
<0xEC>	0
<0xED>	0
<0xEE>	0
<0xEF>	0
<0xF0>	0
<0xF1>	0
<0xF2>	0
<0xF3>	0
<0xF4>	0
<0xF5>	0
<0xF6>	0
<0xF7>	0
<0xF8>	0
<0xF9>	0
<0xFA>	0
<0xFB>	0
<0xFC>	0
<0xFD>	0
<0xFE>	0
<0xFF>	0
▁t	-0
he	-1
▁a	-2
in	-3
▁s	-4
▁the	-5
▁w	-6
▁o	-7
re	-8
nd	-9
▁h	-10
er	-11
ou	-12
▁b	-13
at	-14
ed	-15
it	-16
is	-17
▁m	-18
▁c	-19
▁f	-20
en	-21
ing	-22
on	-23
▁and	-24
▁to	-25
▁of	-26
▁d	-27
▁th	-28
or	-29
es	-30
ar	-31
ll	-32
▁p	-33
as	-34
▁he	-35
▁in	-36
an	-37
▁l	-38
▁n	-39
om	-40
▁I	-41
le	-42
▁ha	-43
▁be	-44
▁â	-45
ow	-46
ot	-47
▁g	-48
ut	-49
▁e	-50
im	-51
ic	-52
	-53
id	-54
ly	-55
	-56
▁that	-57
▁y	-58
st	-59
▁wh	-60
se	-61
ld	-62
▁was	-63
ve	-64
	-65
▁re	-66
ent	-67
gh	-68
▁his	-69
ce	-70
▁on	-71
▁it	-72
ion	-73
ith	-74
et	-75
▁you	-76
▁with	-77
▁u	-78
ay	-79
ver	-80
al	-81
▁T	-82
ir	-83
▁as	-84
▁for	-85
ad	-86
ro	-87
ur	-88
▁st	-89
▁not	-90
ght	-91
▁her	-92
▁had	-93
ch	-94
ct	-95
▁at	-96
ri	-97
▁M	-98
▁we	-99
▁him	-100
her	-101
▁an	-102
▁A	-103
▁sa	-104
oo	-105
ould	-106
ter	-107
▁H	-108
▁me	-109
▁B	-110
▁is	-111
am	-112
▁se	-113
▁S	-114
ain	-115
ess	-116
▁my	-117
if	-118
▁sh	-119
ill	-120
▁P	-121
▁so	-122
ke	-123
red	-124
▁The	-125
▁su	-126
all	-127
ck	-128
ra	-129
▁all	-130
ore	-131
il	-132
pp	-133
rom	-134
▁by	-135
▁de	-136
▁she	-137
▁con	-138
▁but	-139
ich	-140
▁have	-141
ab	-142
	-143
qu	-144
▁W	-145
▁C	-146
▁k	-147
ss	-148
▁said	-149
ard	-150
ome	-151
ge	-152
ight	-153
▁from	-154
pe	-155
and	-156
▁whe	-157
ation	-158
▁or	-159
▁r	-160
th	-161
▁ne	-162
ul	-163
▁up	-164
▁ex	-165
▁were	-166
ant	-167
▁v	-168
ers	-169
▁this	-170
▁which	-171
lf	-172
▁fe	-173
▁do	-174
est	-175
em	-176
very	-177
nt	-178
ous	-179
▁D	-180
▁who	-181
ust	-182
us	-183
li	-184
out	-185
▁ch	-186
▁they	-187
ol	-188
ook	-189
▁man	-190
our	-191
▁kn	-192
ound	-193
ast	-194
▁li	-195
art	-196
▁N	-197
▁al	-198
ong	-199
▁one	-200
▁no	-201
one	-202
▁L	-203
ind	-204
▁com	-205
ate	-206
▁them	-207
▁int	-208
ist	-209
um	-210
self	-211
▁F	-212
ak	-213
ost	-214
▁He	-215
▁out	-216
ap	-217
▁there	-218
▁ab	-219
ood	-220
▁wor	-221
▁would	-222
ect	-223
▁G	-224
▁been	-225
▁le	-226
un	-227
lo	-228
own	-229
▁un	-230
▁ag	-231
▁when	-232
▁E	-233
ry	-234
▁Mr	-235
▁their	-236
ther	-237
▁what	-238
▁are	-239
ell	-240
..	-241
ure	-242
ough	-243
▁j	-244
itt	-245
ig	-246
ity	-247
la	-248
hed	-249
▁your	-250
▁ar	-251
▁any	-252
op	-253
▁could	-254
ort	-255
ive	-256
ide	-257
▁af	-258
ame	-259
▁qu	-260
▁ro	-261
os	-262
au	-263
ven	-264
▁fa	-265
able	-266
▁pre	-267
ved	-268
rin	-269
▁look	-270
▁if	-271
▁R	-272
▁sp	-273
▁O	-274
ag	-275
el	-276
ep	-277
od	-278
▁pro	-279
▁J	-280
▁_	-281
▁am	-282
nder	-283
reat	-284
hing	-285
▁will	-286
▁tim	-287
way	-288
▁go	-289
ance	-290
urn	-291
▁more	-292
cc	-293
▁some	-294
ice	-295
▁did	-296
▁now	-297
hat	-298
ite	-299
▁And	-300
▁other	-301
ie	-302
▁into	-303
ber	-304
▁know	-305
▁im	-306
ine	-307
▁po	-308
▁hand	-309
▁dis	-310
▁ad	-311
fore	-312
▁can	-313
pt	-314
▁very	-315
ble	-316
ought	-317
ving	-318
ass	-319
ress	-320
▁again	-321
ount	-322
ake	-323
ered	-324
ose	-325
▁say	-326
ence	-327
▁off	-328
ked	-329
ish	-330
▁then	-331
▁co	-332
ack	-333
▁time	-334
▁But	-335
▁see	-336
▁like	-337
wn	-338
other	-339
▁over	-340
▁tw	-341
▁en	-342
ire	-343
per	-344
ary	-345
ci	-346
ally	-347
ru	-348
ment	-349
are	-350
end	-351
▁too	-352
ather	-353
▁about	-354
▁than	-355
sh	-356
▁It	-357
▁us	-358
▁only	-359
▁br	-360
ies	-361
ear	-362
▁down	-363
ick	-364
ated	-365
▁should	-366
▁sm	-367
age	-368
ud	-369
▁before	-370
ile	-371
▁lo	-372
▁rem	-373
ff	-374
ren	-375
iss	-376
▁every	-377
ree	-378
ittle	-379
▁how	-380
ier	-381
▁day	-382
▁ey	-383
▁app	-384
ink	-385
You	-386
ull	-387
ac	-388
ness	-389
ings	-390
▁little	-391
▁after	-392
ife	-393
uch	-394
▁bo	-395
▁under	-396
ade	-397
ward	-398
ions	-399
▁per	-400
▁such	-401
▁has	-402
ip	-403
▁comp	-404
right	-405
hen	-406
tain	-407
led	-408
▁long	-409
▁old	-410
ject	-411
ful	-412
▁fir	-413
▁himself	-414
ty	-415
▁part	-416
▁upon	-417
ang	-418
▁must	-419
▁tr	-420
▁bl	-421
oll	-422
▁pe	-423
rew	-424
▁thought	-425
onâ	-426
▁its	-427
ious	-428
▁St	-429
▁rep	-430
▁beg	-431
ried	-432
ft	-433
▁much	-434
▁gr	-435
▁K	-436
▁great	-437
▁way	-438
me	-439
▁She	-440
ach	-441
ning	-442
▁(	-443
ark	-444
▁two	-445
▁never	-446
ale	-447
ily	-448
▁own	-449
ng	-450
▁bec	-451
anc	-452
ady	-453
ave	-454
▁thr	-455
▁our	-456
rince	-457
▁good	-458
▁pl	-459
ves	-460
▁ob	-461
ne	-462
▁ho	-463
▁head	-464
▁seem	-465
▁eyes	-466
ord	-467
▁even	-468
▁think	-469
▁first	-470
▁des	-471
ted	-472
▁sc	-473
▁exp	-474
▁spe	-475
▁imp	-476
▁Th	-477
ond	-478
▁turn	-479
▁cons	-480
▁res	-481
▁att	-482
ise	-483
ue	-484
▁cont	-485
ov	-486
omet	-487
▁might	-488
▁let	-489
ssi	-490
▁back	-491
▁where	-492
▁being	-493
▁came	-494
▁went	-495
▁bet	-496
▁those	-497
▁made	-498
ierre	-499
▁arm	-500
▁pr	-501
▁gl	-502
▁come	-503
▁may	-504
▁Pierre	-505
ign	-506
ause	-507
▁pass	-508
▁these	-509
ath	-510
les	-511
man	-512
ened	-513
▁away	-514
eth	-515
▁ent	-516
pect	-517
▁face	-518
ouse	-519
▁acc	-520
▁without	-521
▁In	-522
▁count	-523
less	-524
ans	-525
ild	-526
ere	-527
cess	-528
▁happ	-529
▁somet	-530
ied	-531
▁work	-532
▁str	-533
▁here	-534
▁pla	-535
▁fl	-536
▁well	-537
--	-538
▁ret	-539
▁word	-540
...	-541
▁men	-542
▁still	-543
▁ind	-544
leas	-545
▁comm	-546
we	-547
▁ra	-548
ER	-549
av	-550
▁most	-551
aking	-552
▁room	-553
thing	-554
▁last	-555
▁mar	-556
ced	-557
▁life	-558
▁looked	-559
air	-560
alk	-561
▁feel	-562
ner	-563
iz	-564
ways	-565
▁same	-566
▁saw	-567
ons	-568
▁mo	-569
▁V	-570
ub	-571
▁fri	-572
▁1	-573
ently	-574
▁You	-575
ting	-576
▁cl	-577
▁op	-578
▁Prince	-579
▁just	-580
▁young	-581
▁dist	-582
▁through	-583
▁pres	-584
igh	-585
lt	-586
▁get	-587
iff	-588
▁Eli	-589
ations	-590
▁friend	-591
▁Wh	-592
ew	-593
oy	-594
ared	-595
ener	-596
▁ke	-597
▁night	-598
▁though	-599
▁Eliz	-600
hes	-601
ory	-602
▁father	-603
here	-604
▁nothing	-605
HA	-606
abeth	-607
te	-608
▁wr	-609
row	-610
oe	-611
▁ever	-612
▁Elizabeth	-613
▁always	-614
▁wat	-615
▁seemed	-616
▁call	-617
ling	-618
▁rec	-619
orm	-620
ors	-621
▁left	-622
▁inc	-623
uck	-624
▁another	-625
▁house	-626
ank	-627
▁make	-628
iv	-629
atter	-630
ition	-631
▁ev	-632
cy	-633
ens	-634
PT	-635
▁new	-636
ction	-637
ished	-638
▁pleas	-639
▁round	-640
▁Pro	-641
▁yet	-642
▁ser	-643
oment	-644
ces	-645
▁heard	-646
▁sat	-647
▁tell	-648
▁Miss	-649
▁moment	-650
▁CHA	-651
oth	-652
▁want	-653
▁ac	-654
PTER	-655
▁CHAPTER	-656
▁end	-657
int	-658
▁right	-659
▁put	-660
▁something	-661
iness	-662
▁shall	-663
▁felt	-664
▁began	-665
▁hands	-666
nâ	-667
ase	-668
ever	-669
▁asked	-670
ged	-671
▁They	-672
▁took	-673
▁vo	-674
owed	-675
▁car	-676
sha	-677
▁reg	-678
atÃ	-679
▁found	-680
▁while	-681
uten	-682
lie	-683
.)	-684
ister	-685
ears	-686
▁soon	-687
ange	-688
pped	-689
arm	-690
▁inf	-691
ron	-692
▁add	-693
▁dear	-694
▁form	-695
berg	-696
rench	-697
den	-698
ody	-699
▁supp	-700
ople	-701
▁love	-702
▁wa	-703
	-704
▁sl	-705
ertain	-706
▁ear	-707
▁em	-708
og	-709
▁ass	-710
▁What	-711
▁inst	-712
▁wom	-713
▁many	-714
▁return	-715
▁aff	-716
utenberg	-717
ict	-718
▁sec	-719
▁door	-720
▁donâ	-721
▁place	-722
▁Ch	-723
ower	-724
sw	-725
wards	-726
▁French	-727
Yes	-728
▁take	-729
▁ref	-730
aw	-731
▁occ	-732
ret	-733
ited	-734
▁sub	-735
▁because	-736
▁ord	-737
▁cour	-738
▁There	-739
▁once	-740
▁light	-741
▁people	-742
▁NatÃ	-743
▁pers	-744
The	-745
ined	-746
▁gener	-747
▁side	-748
▁mind	-749
▁Iâ	-750
▁sw	-751
▁set	-752
▁whole	-753
aught	-754
ched	-755
rib	-756
▁fell	-757
att	-758
arge	-759
▁conf	-760
▁going	-761
icul	-762
▁myself	-763
▁underst	-764
▁_(	-765
▁Andrew	-766
▁answ	-767
lic	-768
▁mor	-769
▁seen	-770
▁having	-771
na	-772
▁knew	-773
▁heart	-774
act	-775
cept	-776
▁sur	-777
▁wind	-778
▁done	-779
▁sil	-780
▁ter	-781
▁Mrs	-782
ense	-783
.)_	-784
amp	-785
ove	-786
▁clo	-787
▁cor	-788
▁Gutenberg	-789
ole	-790
▁When	-791
▁dra	-792
▁whom	-793
▁Rost	-794
▁express	-795
ised	-796
▁gent	-797
▁quite	-798
▁herself	-799
ention	-800
▁diff	-801
▁foll	-802
▁turned	-803
not	-804
▁beh	-805
▁told	-806
ars	-807
ix	-808
▁cap	-809
▁three	-810
ither	-811
▁sister	-812
cei	-813
vers	-814
▁rest	-815
get	-816
ows	-817
▁whale	-818
▁Joe	-819
▁fam	-820
▁got	-821
▁hor	-822
▁As	-823
ating	-824
▁disc	-825
▁Project	-826
ained	-827
ane	-828
ial	-829
▁che	-830
ual	-831
▁Dar	-832
▁thing	-833
enn	-834
▁His	-835
▁give	-836
▁kind	-837
ins	-838
▁voice	-839
▁An	-840
▁offic	-841
▁looking	-842
loom	-843
▁read	-844
▁belie	-845
ery	-846
ering	-847
ross	-848
▁gi	-849
▁This	-850
up	-851
so	-852
ten	-853
ph	-854
the	-855
▁child	-856
oke	-857
und	-858
most	-859
reet	-860
ail	-861
▁U	-862
▁pur	-863
▁near	-864
▁gentle	-865
owing	-866
unt	-867
▁boy	-868
▁against	-869
aken	-870
read	-871
ully	-872
ley	-873
sel	-874
▁RostÃ	-875
▁cle	-876
▁far	-877
▁world	-878
ps	-879
▁words	-880
▁If	-881
ents	-882
▁hear	-883
ween	-884
rincess	-885
▁gu	-886
oub	-887
▁adv	-888
▁both	-889
old	-890
ason	-891
▁letter	-892
▁On	-893
▁hard	-894
▁certain	-895
▁That	-896
▁talk	-897
▁inter	-898
▁half	-899
▁te	-900
▁few	-901
ace	-902
ef	-903
ired	-904
aps	-905
ured	-906
▁nat	-907
▁ins	-908
▁between	-909
ev	-910
▁act	-911
lect	-912
▁morning	-913
lied	-914
▁find	-915
What	-916
▁We	-917
▁gra	-918
its	-919
ical	-920
ible	-921
▁vis	-922
▁conc	-923
▁gave	-924
▁anything	-925
aid	-926
ock	-927
▁quest	-928
▁Tom	-929
▁dec	-930
ute	-931
▁name	-932
▁Her	-933
▁cur	-934
▁better	-935
▁hope	-936
▁mother	-937
▁sin	-938
ssible	-939
lp	-940
dden	-941
▁home	-942
▁present	-943
xt	-944
▁Mary	-945
ates	-946
▁Darcy	-947
men	-948
▁cried	-949
▁Ru	-950
▁stood	-951
oud	-952
▁cr	-953
ian	-954
▁things	-955
▁general	-956
gg	-957
▁among	-958
▁hum	-959
ued	-960
▁At	-961
▁el	-962
▁dark	-963
And	-964
▁does	-965
▁stand	-966
▁For	-967
▁contin	-968
lack	-969
ection	-970
It	-971
▁bus	-972
▁sle	-973
▁mis	-974
oot	-975
▁inv	-976
▁sudden	-977
ying	-978
▁understand	-979
▁Be	-980
▁X	-981
▁also	-982
▁My	-983
ks	-984
▁aw	-985
ts	-986
▁hour	-987
ia	-988
▁cannot	-989
ls	-990
▁woman	-991
body	-992
▁matter	-993
king	-994
iet	-995
▁sir	-996
ately	-997
▁passed	-998
▁mean	-999
ern	-1000
▁God	-1001
▁mon	-1002
▁fore	-1003
ceived	-1004
▁Benn	-1005
iting	-1006
▁Mos	-1007
irc	-1008
kh	-1009
▁exc	-1010
▁Em	-1011
▁high	-1012
▁air	-1013
fully	-1014
aut	-1015
▁Russi	-1016
▁ste	-1017
ures	-1018
▁So	-1019
uring	-1020
▁says	-1021
▁fire	-1022
▁small	-1023
▁called	-1024
▁years	-1025
▁hold	-1026
▁open	-1027
ably	-1028
ison	-1029
▁list	-1030
ield	-1031
▁nor	-1032
▁wife	-1033
▁sold	-1034
▁keep	-1035
▁brought	-1036
hy	-1037
ser	-1038
▁gir	-1039
▁unc	-1040
med	-1041
▁No	-1042
land	-1043
▁days	-1044
▁min	-1045
▁bro	-1046
▁others	-1047
▁bre	-1048
▁behind	-1049
ility	-1050
day	-1051
▁Y	-1052
▁white	-1053
▁dire	-1054
▁best	-1055
ances	-1056
▁All	-1057
▁person	-1058
▁ext	-1059
▁each	-1060
Well	-1061
▁army	-1062
▁till	-1063
▁course	-1064
▁towards	-1065
az	-1066
selves	-1067
II	-1068
ides	-1069
▁enough	-1070
▁bed	-1071
▁det	-1072
▁lay	-1073
▁full	-1074
▁almost	-1075
▁Al	-1076
that	-1077
ief	-1078
fort	-1079
▁Mosc	-1080
▁care	-1081
▁gone	-1082
▁sent	-1083
He	-1084
▁circ	-1085
▁remem	-1086
▁inde	-1087
▁expect	-1088
▁command	-1089
▁often	-1090
▁along	-1091
ching	-1092
▁less	-1093
▁sk	-1094
▁Moscow	-1095
▁poor	-1096
pr	-1097
▁Bennet	-1098
▁rel	-1099
Ão	-1100
▁How	-1101
ult	-1102
aster	-1103
▁since	-1104
▁speak	-1105
▁taken	-1106
▁replied	-1107
▁ship	-1108
▁sea	-1109
▁tra	-1110
light	-1111
▁fre	-1112
▁help	-1113
▁death	-1114
ny	-1115
haps	-1116
▁dro	-1117
▁consid	-1118
▁family	-1119
iled	-1120
ool	-1121
used	-1122
▁wish	-1123
▁Do	-1124
ham	-1125
oun	-1126
sk	-1127
▁reason	-1128
▁sure	-1129
▁street	-1130
▁sound	-1131
▁Bloom	-1132
▁black	-1133
ple	-1134
ash	-1135
imes	-1136
▁adm	-1137
▁lau	-1138
▁Then	-1139
▁perf	-1140
itting	-1141
erest	-1142
▁however	-1143
▁Emper	-1144
uc	-1145
app	-1146
▁disp	-1147
ung	-1148
ee	-1149
aring	-1150
ressed	-1151
▁everything	-1152
▁hon	-1153
▁cond	-1154
res	-1155
▁opp	-1156
cious	-1157
▁eff	-1158
▁fin	-1159
ready	-1160
aughter	-1161
hab	-1162
alked	-1163
▁suff	-1164
▁sou	-1165
ided	-1166
▁sun	-1167
),	-1168
ream	-1169
▁def	-1170
ached	-1171
▁doub	-1172
▁compan	-1173
ude	-1174
ments	-1175
ib	-1176
rying	-1177
▁cop	-1178
▁already	-1179
▁use	-1180
onder	-1181
Oh	-1182
▁alone	-1183
olas	-1184
▁dep	-1185
▁whether	-1186
ants	-1187
▁suddenly	-1188
ott	-1189
▁coming	-1190
But	-1191
▁why	-1192
icholas	-1193
No	-1194
▁power	-1195
▁question	-1196
ken	-1197
▁Emperor	-1198
▁sim	-1199
gether	-1200
▁believe	-1201
▁together	-1202
▁char	-1203
ats	-1204
riage	-1205
▁table	-1206
▁tre	-1207
▁es	-1208
▁rather	-1209
ingley	-1210
▁To	-1211
▁Nap	-1212
▁run	-1213
▁evid	-1214
▁red	-1215
▁play	-1216
▁water	-1217
▁next	-1218
▁Bingley	-1219
ms	-1220
▁times	-1221
▁country	-1222
▁war	-1223
▁fellow	-1224
oney	-1225
orry	-1226
▁tru	-1227
▁Jane	-1228
▁Nicholas	-1229
osition	-1230
▁business	-1231
uff	-1232
eared	-1233
mb	-1234
uth	-1235
aint	-1236
▁draw	-1237
▁prom	-1238
▁ir	-1239
▁itâ	-1240
▁leave	-1241
als	-1242
▁order	-1243
▁ill	-1244
▁interest	-1245
▁ide	-1246
▁unt	-1247
anger	-1248
▁smile	-1249
▁manner	-1250
▁law	-1251
ingly	-1252
ught	-1253
▁walk	-1254
fter	-1255
osed	-1256
ually	-1257
▁evening	-1258
wh	-1259
idd	-1260
▁dead	-1261
▁yes	-1262
▁case	-1263
▁brother	-1264
omp	-1265
▁leg	-1266
▁four	-1267
▁hair	-1268
▁short	-1269
▁point	-1270
▁quick	-1271
▁batt	-1272
▁Napole	-1273
▁sn	-1274
▁really	-1275
▁returned	-1276
▁deep	-1277
arly	-1278
iment	-1279
ene	-1280
▁whose	-1281
▁eye	-1282
▁fall	-1283
gth	-1284
airs	-1285
▁strong	-1286
ceed	-1287
▁hur	-1288
ousand	-1289
▁feeling	-1290
▁beaut	-1291
▁Princess	-1292
▁appear	-1293
▁subject	-1294
▁particul	-1295
ati	-1296
▁abs	-1297
▁obser	-1298
arp	-1299
▁happy	-1300
▁prince	-1301
▁else	-1302
▁sing	-1303
▁received	-1304
erent	-1305
▁thousand	-1306
▁lad	-1307
▁large	-1308
▁sign	-1309
iers	-1310
▁eas	-1311
ement	-1312
▁acqu	-1313
▁hist	-1314
▁within	-1315
▁step	-1316
▁appro	-1317
by	-1318
▁jo	-1319
▁lost	-1320
▁indeed	-1321
ific	-1322
▁son	-1323
▁serv	-1324
▁themselves	-1325
head	-1326
ended	-1327
▁free	-1328
▁spir	-1329
▁town	-1330
▁state	-1331
▁fort	-1332
▁pap	-1333
▁need	-1334
▁given	-1335
ec	-1336
▁dev	-1337
▁fear	-1338
▁creat	-1339
isf	-1340
▁consider	-1341
ract	-1342
akes	-1343
▁par	-1344
ug	-1345
ned	-1346
▁ang	-1347
▁Q	-1348
▁hus	-1349
▁dest	-1350
▁live	-1351
▁meet	-1352
ney	-1353
▁foot	-1354
▁stru	-1355
▁shout	-1356
▁necess	-1357
sâ	-1358
umb	-1359
▁With	-1360
▁repe	-1361
▁strange	-1362
▁[	-1363
▁added	-1364
▁prison	-1365
mm	-1366
outh	-1367
Ãoz	-1368
▁ri	-1369
aving	-1370
ages	-1371
▁money	-1372
ird	-1373
agg	-1374
iling	-1375
▁arri	-1376
▁object	-1377
▁Kut	-1378
▁sto	-1379
ising	-1380
orrow	-1381
Ãozov	-1382
▁mil	-1383
▁*	-1384
▁eng	-1385
illed	-1386
ushed	-1387
▁land	-1388
▁answer	-1389
▁ask	-1390
▁conv	-1391
▁fact	-1392
▁KutÃozov	-1393
▁tou	-1394
▁surpr	-1395
▁either	-1396
▁saying	-1397
▁became	-1398
▁wonder	-1399
iew	-1400
▁bes	-1401
band	-1402
▁mer	-1403
ities	-1404
▁known	-1405
anced	-1406
▁daughter	-1407
ains	-1408
▁cal	-1409
▁second	-1410
empt	-1411
▁lady	-1412
▁Now	-1413
▁1.	-1414
▁prov	-1415
mes	-1416
pend	-1417
▁bar	-1418
itted	-1419
▁visit	-1420
▁answered	-1421
de	-1422
ards	-1423
▁sort	-1424
▁perhaps	-1425
▁met	-1426
▁stra	-1427
▁direct	-1428
▁gentleman	-1429
enty	-1430
▁prev	-1431
but	-1432
antly	-1433
▁road	-1434
▁feet	-1435
▁entered	-1436
▁Ar	-1437
▁real	-1438
ets	-1439
ater	-1440
▁Ahab	-1441
▁pret	-1442
HE	-1443
▁crow	-1444
▁yourself	-1445
ected	-1446
ump	-1447
▁fur	-1448
iously	-1449
▁horse	-1450
▁sleep	-1451
▁bit	-1452
▁blood	-1453
▁possible	-1454
orn	-1455
rence	-1456
▁taking	-1457
yd	-1458
▁After	-1459
▁least	-1460
▁start	-1461
▁cold	-1462
▁officer	-1463
▁col	-1464
▁dri	-1465
▁itself	-1466
ront	-1467
▁din	-1468
ephen	-1469
▁sever	-1470
du	-1471
▁arms	-1472
▁bur	-1473
▁book	-1474
▁convers	-1475
equ	-1476
pping	-1477
lock	-1478
▁bad	-1479
▁ran	-1480
ops	-1481
▁forward	-1482
▁mur	-1483
▁prof	-1484
ime	-1485
ution	-1486
▁close	-1487
▁works	-1488
▁Napoleon	-1489
use	-1490
ctor	-1491
▁Not	-1492
▁doubt	-1493
▁husband	-1494
▁est	-1495
anged	-1496
▁girl	-1497
ounded	-1498
▁human	-1499
▁hat	-1500
▁chief	-1501
▁spoke	-1502
ration	-1503
▁quiet	-1504
to	-1505
ler	-1506
▁ye	-1507
medi	-1508
ening	-1509
▁Stephen	-1510
▁held	-1511
▁account	-1512
▁gre	-1513
▁respect	-1514
be	-1515
▁tri	-1516
▁expl	-1517
▁used	-1518
▁front	-1519
khov	-1520
itude	-1521
▁youâ	-1522
peri	-1523
▁imag	-1524
▁past	-1525
▁until	-1526
▁pleasure	-1527
▁pol	-1528
▁Hol	-1529
▁prop	-1530
▁appeared	-1531
▁soldiers	-1532
▁expression	-1533
erm	-1534
▁dress	-1535
▁move	-1536
▁enem	-1537
▁low	-1538
▁cross	-1539
▁sight	-1540
▁around	-1541
▁window	-1542
▁PÃ	-1543
ized	-1544
asion	-1545
▁mist	-1546
▁charact	-1547
▁therefore	-1548
▁art	-1549
▁pri	-1550
▁true	-1551
▁Russian	-1552
▁crowd	-1553
▁during	-1554
▁continued	-1555
▁dr	-1556
▁sometimes	-1557
like	-1558
ring	-1559
where	-1560
▁means	-1561
val	-1562
oura	-1563
▁idea	-1564
▁soul	-1565
▁several	-1566
▁Holmes	-1567
no	-1568
That	-1569
▁whis	-1570
nya	-1571
▁delight	-1572
▁battle	-1573
laim	-1574
cul	-1575
ety	-1576
une	-1577
undred	-1578
bour	-1579
▁different	-1580
_.	-1581
▁bel	-1582
▁vill	-1583
▁ground	-1584
▁friends	-1585
▁feelings	-1586
ales	-1587
ural	-1588
▁Den	-1589
▁followed	-1590
▁sy	-1591
aged	-1592
▁Eng	-1593
▁wood	-1594
▁elect	-1595
▁ought	-1596
ror	-1597
ubb	-1598
....	-1599
▁prep	-1600
▁above	-1601
▁immedi	-1602
sov	-1603
ased	-1604
ident	-1605
▁mere	-1606
▁rose	-1607
▁joy	-1608
▁sitting	-1609
▁ut	-1610
▁begin	-1611
▁resol	-1612
▁SÃ	-1613
ches	-1614
▁equ	-1615
▁mus	-1616
▁incl	-1617
nsk	-1618
▁body	-1619
gin	-1620
irt	-1621
▁circum	-1622
gr	-1623
▁ve	-1624
▁kept	-1625
▁laugh	-1626
▁satisf	-1627
▁attention	-1628
ster	-1629
▁One	-1630
▁seeing	-1631
uss	-1632
▁fav	-1633
▁Coll	-1634
▁fing	-1635
sed	-1636
▁boat	-1637
iding	-1638
Th	-1639
ont	-1640
▁pain	-1641
bert	-1642
▁ten	-1643
▁inqu	-1644
▁lear	-1645
aven	-1646
▁squ	-1647
ssess	-1648
▁coll	-1649
▁stopped	-1650
ek	-1651
▁fr	-1652
▁post	-1653
▁mouth	-1654
der	-1655
ton	-1656
ative	-1657
▁tried	-1658
bo	-1659
room	-1660
▁copy	-1661
▁remained	-1662
ah	-1663
ey	-1664
▁hundred	-1665
ots	-1666
atch	-1667
▁Bor	-1668
▁DenÃ	-1669
▁cause	-1670
▁difficul	-1671
ination	-1672
ices	-1673
▁moved	-1674
▁comple	-1675
▁character	-1676
ship	-1677
▁sit	-1678
▁Alice	-1679
▁wanted	-1680
lay	-1681
▁remember	-1682
LO	-1683
vo	-1684
for	-1685
▁canâ	-1686
▁Count	-1687
▁mention	-1688
▁var	-1689
▁ready	-1690
▁walked	-1691
▁standing	-1692
▁ph	-1693
▁flo	-1694
▁swe	-1695
▁desp	-1696
▁five	-1697
▁forg	-1698
▁longer	-1699
iter	-1700
▁view	-1701
▁making	-1702
ote	-1703
▁stud	-1704
▁conversation	-1705
▁opin	-1706
▁turning	-1707
▁position	-1708
▁happiness	-1709
▁ed	-1710
ronic	-1711
▁gall	-1712
▁const	-1713
▁talking	-1714
eg	-1715
lish	-1716
ape	-1717
ickham	-1718
▁heav	-1719
▁Fr	-1720
lled	-1721
▁Lady	-1722
utes	-1723
▁sens	-1724
▁slow	-1725
▁master	-1726
▁regard	-1727
▁occasion	-1728
inted	-1729
▁ball	-1730
▁breat	-1731
▁women	-1732
▁Collins	-1733
ines	-1734
▁proper	-1735
▁possess	-1736
▁THE	-1737
▁able	-1738
▁news	-1739
▁import	-1740
▁happened	-1741
▁bring	-1742
▁terms	-1743
▁evidently	-1744
you	-1745
raid	-1746
▁tro	-1747
▁line	-1748
▁year	-1749
oh	-1750
▁enemy	-1751
▁bright	-1752
▁former	-1753
▁Wickham	-1754
iar	-1755
iced	-1756
▁six	-1757
▁lips	-1758
erence	-1759
of	-1760
▁2	-1761
Why	-1762
▁lif	-1763
▁glad	-1764
bed	-1765
▁Un	-1766
itation	-1767
My	-1768
▁impo	-1769
▁wished	-1770
▁circumst	-1771
bur	-1772
rink	-1773
▁Pip	-1774
▁sus	-1775
▁self	-1776
▁hardly	-1777
▁silent	-1778
▁trans	-1779
iam	-1780
ixed	-1781
orses	-1782
▁fine	-1783
▁prin	-1784
▁requ	-1785
▁contr	-1786
▁suppose	-1787
_,	-1788
▁18	-1789
▁Que	-1790
▁wall	-1791
ancing	-1792
tern	-1793
▁mad	-1794
▁earth	-1795
▁occup	-1796
▁inform	-1797
▁repeated	-1798
erâ	-1799
▁tor	-1800
▁ap	-1801
▁ca	-1802
▁Why	-1803
▁stay	-1804
iful	-1805
▁fig	-1806
ented	-1807
▁across	-1808
▁electronic	-1809
How	-1810
▁Mar	-1811
▁nature	-1812
ush	-1813
ters	-1814
▁wis	-1815
ublic	-1816
inâ	-1817
▁thus	-1818
▁change	-1819
br	-1820
▁Pet	-1821
▁doing	-1822
._	-1823
rible	-1824
▁thatâ	-1825
▁affection	-1826
▁gaz	-1827
oured	-1828
ously	-1829
▁sett	-1830
▁countess	-1831
▁Sh	-1832
▁show	-1833
▁month	-1834
▁remark	-1835
▁bu	-1836
▁afraid	-1837
▁dinner	-1838
ead	-1839
umber	-1840
▁kiss	-1841
▁Lorry	-1842
▁horses	-1843
▁thoughts	-1844
▁necessary	-1845
▁break	-1846
▁dread	-1847
▁opened	-1848
▁children	-1849
alth	-1850
rupt	-1851
▁emb	-1852
▁soci	-1853
▁silence	-1854
ony	-1855
▁purs	-1856
side	-1857
ydia	-1858
▁Mad	-1859
▁quar	-1860
▁corner	-1861
co	-1862
▁agre	-1863
▁Lydia	-1864
▁ele	-1865
▁soft	-1866
▁stri	-1867
▁cut	-1868
▁purp	-1869
▁drawing	-1870
ex	-1871
▁sad	-1872
ils	-1873
lov	-1874
▁agree	-1875
▁cra	-1876
▁remain	-1877
ustration	-1878
▁ben	-1879
tered	-1880
▁lead	-1881
▁sense	-1882
▁impossible	-1883
▁pay	-1884
eness	-1885
▁Char	-1886
▁desc	-1887
ission	-1888
▁princess	-1889
▁ce	-1890
▁wonâ	-1891
▁danger	-1892
▁secret	-1893
▁enc	-1894
ouble	-1895
▁usual	-1896
▁certainly	-1897
▁By	-1898
ccess	-1899
otion	-1900
▁hast	-1901
▁thou	-1902
▁warm	-1903
▁slight	-1904
▁drew	-1905
▁late	-1906
▁occur	-1907
▁anyone	-1908
Ill	-1909
ular	-1910
yond	-1911
▁scar	-1912
itions	-1913
▁clear	-1914
▁heâ	-1915
▁hours	-1916
Illustration	-1917
uct	-1918
▁Let	-1919
▁hop	-1920
▁become	-1921
▁immediately	-1922
yed	-1923
▁opinion	-1924
▁ru	-1925
cell	-1926
▁prot	-1927
▁except	-1928
vern	-1929
erable	-1930
▁plain	-1931
▁tears	-1932
▁ladies	-1933
▁struck	-1934
▁officers	-1935
rÃ	-1936
▁DÃ	-1937
urch	-1938
ceive	-1939
▁From	-1940
▁summ	-1941
ledge	-1942
▁anim	-1943
▁prob	-1944
pid	-1945
There	-1946
▁Will	-1947
cially	-1948
ones	-1949
night	-1950
ze	-1951
kÃ	-1952
omm	-1953
▁sol	-1954
aff	-1955
▁company	-1956
▁perfect	-1957
If	-1958
▁Man	-1959
▁len	-1960
ically	-1961
▁peace	-1962
▁disapp	-1963
oose	-1964
▁mod	-1965
▁wild	-1966
▁forth	-1967
▁press	-1968
▁Fl	-1969
usion	-1970
▁married	-1971
OM	-1972
▁ago	-1973
▁mem	-1974
lokhov	-1975
bs	-1976
▁Ger	-1977
▁div	-1978
▁regiment	-1979
ancy	-1980
avish	-1981
▁carriage	-1982
ager	-1983
ames	-1984
▁twenty	-1985
▁village	-1986
wise	-1987
▁pat	-1988
▁mine	-1989
uted	-1990
▁Lond	-1991
▁mount	-1992
▁beyond	-1993
aj	-1994
erg	-1995
▁Def	-1996
ining	-1997
isted	-1998
ert	-1999
▁gri	-2000
▁tem	-2001
▁pock	-2002
▁tone	-2003
▁Whale	-2004
▁distrib	-2005
▁minutes	-2006
ask	-2007
▁anx	-2008
▁bra	-2009
▁lim	-2010
ality	-2011
ified	-2012
▁paper	-2013
avisham	-2014
▁accomp	-2015
▁instant	-2016
▁quickly	-2017
ped	-2018
▁ast	-2019
▁Found	-2020
▁pray	-2021
▁seems	-2022
▁living	-2023
▁Havisham	-2024
▁speaking	-2025
▁understood	-2026
▁cry	-2027
▁blue	-2028
▁London	-2029
▁spo	-2030
idered	-2031
though	-2032
▁faces	-2033
▁entire	-2034
▁comfort	-2035
▁Oh	-2036
▁dut	-2037
▁med	-2038
▁gold	-2039
cend	-2040
▁led	-2041
ively	-2042
▁length	-2043
aded	-2044
apter	-2045
▁sole	-2046
▁Foundation	-2047
ging	-2048
ners	-2049
▁Luc	-2050
arent	-2051
itten	-2052
▁laid	-2053
▁reply	-2054
▁truth	-2055
▁success	-2056
oes	-2057
cing	-2058
overed	-2059
▁field	-2060
▁stren	-2061
▁action	-2062
sequ	-2063
anging	-2064
▁destro	-2065
pecially	-2066
▁natural	-2067
▁jud	-2068
▁Every	-2069
▁Herbert	-2070
▁thinking	-2071
cher	-2072
▁common	-2073
▁effect	-2074
ici	-2075
▁vi	-2076
▁und	-2077
▁chair	-2078
▁dream	-2079
▁glass	-2080
▁worth	-2081
▁reached	-2082
dd	-2083
cip	-2084
par	-2085
▁cre	-2086
▁obli	-2087
▁court	-2088
▁watch	-2089
▁shouted	-2090
Iâ	-2091
idge	-2092
▁conn	-2093
▁rapid	-2094
EN	-2095
ency	-2096
▁Yes	-2097
▁aunt	-2098
▁fright	-2099
▁toward	-2100
over	-2101
▁Well	-2102
▁bott	-2103
▁Or	-2104
kn	-2105
ogn	-2106
ohn	-2107
▁Is	-2108
▁Defarge	-2109
▁purpose	-2110
onel	-2111
raph	-2112
▁dog	-2113
▁carried	-2114
▁̈	-2115
ella	-2116
▁emp	-2117
▁val	-2118
▁fixed	-2119
▁accord	-2120
▁pretty	-2121
els	-2122
▁getting	-2123
iece	-2124
▁esc	-2125
▁neigh	-2126
▁steps	-2127
▁forget	-2128
▁commander	-2129
hood	-2130
ssib	-2131
▁calm	-2132
▁beside	-2133
▁trying	-2134
▁dem	-2135
lovna	-2136
▁Anna	-2137
▁burn	-2138
▁none	-2139
▁determ	-2140
▁considered	-2141
wo	-2142
▁mut	-2143
inary	-2144
▁fair	-2145
▁weak	-2146
retched	-2147
▁excell	-2148
▁marriage	-2149
Wh	-2150
,--	-2151
ether	-2152
▁manâ	-2153
▁concl	-2154
▁straight	-2155
lu	-2156
ray	-2157
▁sail	-2158
▁produ	-2159
▁story	-2160
atherine	-2161
▁Here	-2162
▁desire	-2163
ize	-2164
burg	-2165
ustom	-2166
▁BorÃ	-2167
ob	-2168
lex	-2169
cked	-2170
idence	-2171
▁experi	-2172
▁spirit	-2173
▁waiting	-2174
ilt	-2175
▁De	-2176
nski	-2177
▁Catherine	-2178
joy	-2179
vere	-2180
▁pull	-2181
▁address	-2182
arb	-2183
emm	-2184
▁XX	-2185
▁Just	-2186
emmick	-2187
▁bound	-2188
▁sweet	-2189
▁especially	-2190
fe	-2191
yâ	-2192
▁Co	-2193
uded	-2194
▁fresh	-2195
▁histor	-2196
▁noticed	-2197
cks	-2198
ford	-2199
▁loved	-2200
▁accept	-2201
▁attack	-2202
▁afterwards	-2203
eks	-2204
▁Br	-2205
arer	-2206
▁fat	-2207
itary	-2208
▁merely	-2209
▁public	-2210
▁raised	-2211
mn	-2212
LOOM	-2213
▁try	-2214
aptain	-2215
▁BLOOM	-2216
▁knows	-2217
▁meant	-2218
▁society	-2219
inct	-2220
▁Lord	-2221
▁Wemmick	-2222
vered	-2223
▁camp	-2224
atever	-2225
▁comes	-2226
▁report	-2227
▁reflect	-2228
io	-2229
▁slowly	-2230
▁following	-2231
▁figure	-2232
▁orders	-2233
▁neither	-2234
lÃ	-2235
arr	-2236
▁adj	-2237
▁King	-2238
▁party	-2239
▁giving	-2240
▁expected	-2241
▁beautiful	-2242
▁fif	-2243
▁imm	-2244
▁died	-2245
▁harp	-2246
▁Chapter	-2247
rif	-2248
ians	-2249
▁lean	-2250
▁Gutenbergâ	-2251
ger	-2252
▁port	-2253
▁recogn	-2254
▁appearance	-2255
We	-2256
pl	-2257
fast	-2258
▁gun	-2259
▁third	-2260
▁write	-2261
▁Peters	-2262
▁troops	-2263
▁history	-2264
▁gentlemen	-2265
Now	-2266
bit	-2267
ues	-2268
▁John	-2269
▁number	-2270
▁listened	-2271
tya	-2272
▁win	-2273
▁complete	-2274
aling	-2275
▁fast	-2276
▁loud	-2277
▁wine	-2278
stella	-2279
tering	-2280
zy	-2281
▁laws	-2282
▁send	-2283
▁surprise	-2284
oned	-2285
▁Who	-2286
▁arr	-2287
▁wit	-2288
▁trad	-2289
▁effort	-2290
▁heaven	-2291
▁notice	-2292
▁showed	-2293
▁running	-2294
how	-2295
▁Ge	-2296
▁Par	-2297
▁Huck	-2298
▁Long	-2299
▁exist	-2300
▁favour	-2301
▁particular	-2302
ax	-2303
mp	-2304
cely	-2305
rist	-2306
▁deg	-2307
▁don	-2308
Ah	-2309
ye	-2310
ises	-2311
▁intell	-2312
asÃ	-2313
▁jour	-2314
▁enjoy	-2315
▁fatherâ	-2316
▁acquaint	-2317
▁distance	-2318
▁observed	-2319
vÃ	-2320
ander	-2321
ortun	-2322
▁Aust	-2323
▁easy	-2324
▁Stubb	-2325
▁eager	-2326
▁heavy	-2327
▁depart	-2328
▁captain	-2329
▁perform	-2330
Do	-2331
▁di	-2332
▁Itâ	-2333
▁fro	-2334
▁mag	-2335
▁gard	-2336
▁hung	-2337
▁plan	-2338
▁terrible	-2339
▁expressed	-2340
▁fut	-2341
▁sch	-2342
▁Some	-2343
▁bear	-2344
▁cast	-2345
▁viol	-2346
morrow	-2347
▁possib	-2348
▁further	-2349
eav	-2350
▁mid	-2351
olunt	-2352
▁incre	-2353
▁chance	-2354
▁written	-2355
▁strength	-2356
In	-2357
▁Am	-2358
cial	-2359
▁hot	-2360
▁firm	-2361
▁paid	-2362
▁smiled	-2363
▁various	-2364
amm	-2365
let	-2366
pic	-2367
▁pa	-2368
anks	-2369
▁lived	-2370
▁wrong	-2371
▁endeav	-2372
▁everybody	-2373
▁circumstances	-2374
RE	-2375
what	-2376
▁hig	-2377
▁Geor	-2378
▁VasÃ	-2379
▁miss	-2380
▁grave	-2381
▁Estella	-2382
▁handsome	-2383
iddle	-2384
▁clot	-2385
▁shad	-2386
▁didnâ	-2387
▁sides	-2388
▁English	-2389
▁arrived	-2390
▁pleasant	-2391
chÃ	-2392
▁beauty	-2393
equeg	-2394
▁pict	-2395
aching	-2396
aggers	-2397
▁exact	-2398
▁placed	-2399
▁opportun	-2400
▁difficult	-2401
She	-2402
▁civ	-2403
▁Alex	-2404
▁hill	-2405
▁wait	-2406
ON	-2407
wor	-2408
▁Petersburg	-2409
mÃ	-2410
ric	-2411
▁cand	-2412
▁main	-2413
▁peas	-2414
▁Doctor	-2415
▁church	-2416
▁Captain	-2417
▁passing	-2418
▁creature	-2419
▁beginning	-2420
▁knowledge	-2421
angu	-2422
iddy	-2423
ested	-2424
pered	-2425
▁mark	-2426
▁rode	-2427
laimed	-2428
ries	-2429
▁cru	-2430
▁force	-2431
▁please	-2432
▁proceed	-2433
▁avo	-2434
▁fun	-2435
lling	-2436
▁latter	-2437
▁holding	-2438
oly	-2439
▁lie	-2440
▁por	-2441
▁charm	-2442
▁harpo	-2443
▁die	-2444
▁sal	-2445
▁priv	-2446
▁river	-2447
▁glanced	-2448
▁oâ	-2449
▁coat	-2450
▁pale	-2451
ending	-2452
▁fight	-2453
▁guard	-2454
▁wrote	-2455
▁engaged	-2456
ald	-2457
▁Con	-2458
▁rev	-2459
ardin	-2460
bered	-2461
▁auth	-2462
▁sake	-2463
▁vict	-2464
ishing	-2465
▁eight	-2466
▁green	-2467
▁smoke	-2468
▁nearly	-2469
▁smiling	-2470
▁soldier	-2471
icked	-2472
▁perm	-2473
▁broken	-2474
▁future	-2475
▁inquir	-2476
IN	-2477
▁ann	-2478
▁bell	-2479
▁dare	-2480
ourage	-2481
▁whales	-2482
▁greater	-2483
▁service	-2484
▁wounded	-2485
▁big	-2486
▁grand	-2487
▁trave	-2488
▁uncle	-2489
▁closed	-2490
▁settled	-2491
▁agreement	-2492
ys	-2493
lin	-2494
she	-2495
▁Le	-2496
Book	-2497
ember	-2498
▁coach	-2499
▁event	-2500
▁easily	-2501
▁talked	-2502
itz	-2503
▁Sp	-2504
▁forgot	-2505
▁knowing	-2506
▁presence	-2507
▁interrupt	-2508
▁pi	-2509
gged	-2510
▁thy	-2511
▁boys	-2512
▁grew	-2513
▁separ	-2514
▁depend	-2515
▁Jaggers	-2516
▁journey	-2517
▁pleased	-2518
▁spirits	-2519
bb	-2520
ghed	-2521
itiz	-2522
▁cous	-2523
▁week	-2524
▁scene	-2525
▁breath	-2526
▁pocket	-2527
▁profess	-2528
ases	-2529
ette	-2530
pper	-2531
▁age	-2532
known	-2533
osing	-2534
▁deli	-2535
▁changed	-2536
▁movement	-2537
▁Z	-2538
Not	-2539
▁cent	-2540
▁exam	-2541
▁copyright	-2542
▁important	-2543
ka	-2544
arily	-2545
arked	-2546
▁bless	-2547
ception	-2548
▁advant	-2549
▁govern	-2550
▁Queequeg	-2551
▁scarcely	-2552
umm	-2553
will	-2554
tained	-2555
▁Where	-2556
▁single	-2557
▁fingers	-2558
Is	-2559
Itâ	-2560
iety	-2561
▁cat	-2562
▁deal	-2563
pected	-2564
▁conce	-2565
field	-2566
▁coun	-2567
▁neck	-2568
▁early	-2569
▁youth	-2570
▁hurried	-2571
▁meaning	-2572
▁entirely	-2573
▁greatest	-2574
▁conscious	-2575
▁particularly	-2576
AR	-2577
kes	-2578
ping	-2579
ision	-2580
▁cloud	-2581
00	-2582
ges	-2583
come	-2584
▁legs	-2585
▁compl	-2586
▁girls	-2587
▁events	-2588
▁Yet	-2589
▁bri	-2590
▁duty	-2591
▁nose	-2592
▁Thatâ	-2593
▁lower	-2594
▁walking	-2595
▁everyone	-2596
▁surprised	-2597
IT	-2598
ker	-2599
▁Your	-2600
▁iron	-2601
▁shut	-2602
▁middle	-2603
▁months	-2604
▁trouble	-2605
af	-2606
now	-2607
▁city	-2608
▁thee	-2609
▁enter	-2610
▁sharp	-2611
▁spent	-2612
▁belong	-2613
ume	-2614
osity	-2615
▁emplo	-2616
▁looks	-2617
▁health	-2618
▁whatever	-2619
erv	-2620
ift	-2621
lot	-2622
▁Bol	-2623
▁Nor	-2624
▁pun	-2625
▁Sper	-2626
▁cheer	-2627
▁sorry	-2628
▁study	-2629
ability	-2630
▁author	-2631
▁letters	-2632
irty	-2633
well	-2634
atole	-2635
▁assist	-2636
▁affairs	-2637
▁stranger	-2638
¢	-2639
▁spot	-2640
▁eBook	-2641
▁extre	-2642
▁pecul	-2643
▁leaving	-2644
▁reading	-2645
sc	-2646
ital	-2647
▁blind	-2648
▁caught	-2649
▁killed	-2650
▁Anatole	-2651
▁counten	-2652
▁laughing	-2653
▁opportunity	-2654
▁Gu	-2655
arch	-2656
olly	-2657
▁rid	-2658
ature	-2659
▁gate	-2660
▁king	-2661
▁famil	-2662
▁influ	-2663
▁honour	-2664
▁fortune	-2665
▁eld	-2666
▁lab	-2667
▁consequ	-2668
▁breakfast	-2669
▁neighbour	-2670
▁Cr	-2671
elle	-2672
▁cab	-2673
▁tea	-2674
▁Arch	-2675
▁mass	-2676
▁persu	-2677
▁shook	-2678
▁threw	-2679
▁Gardin	-2680
▁companion	-2681
lan	-2682
urs	-2683
▁MÃ	-2684
nest	-2685
semb	-2686
ounds	-2687
action	-2688
▁admir	-2689
▁broad	-2690
▁attempt	-2691
cent	-2692
enced	-2693
▁convin	-2694
▁remembered	-2695
ha	-2696
▁Col	-2697
▁dim	-2698
▁ori	-2699
owers	-2700
▁wide	-2701
▁gloom	-2702
▁garden	-2703
go	-2704
aled	-2705
umed	-2706
▁simp	-2707
cience	-2708
▁floor	-2709
▁commun	-2710
▁solemn	-2711
▁dropped	-2712
▁laughed	-2713
▁resolved	-2714
▁pen	-2715
▁van	-2716
which	-2717
▁dism	-2718
▁mort	-2719
▁aston	-2720
▁heads	-2721
▁charge	-2722
▁describ	-2723
acy	-2724
ury	-2725
▁OF	-2726
▁eat	-2727
▁sky	-2728
▁smo	-2729
usted	-2730
▁honor	-2731
▁relie	-2732
▁formed	-2733
▁voices	-2734
▁started	-2735
▁direction	-2736
▁miserable	-2737
ivid	-2738
▁Bar	-2739
▁cho	-2740
▁top	-2741
▁ver	-2742
▁tall	-2743
erning	-2744
▁later	-2745
▁States	-2746
▁bridge	-2747
▁instead	-2748
▁probably	-2749
▁remarked	-2750
▁shoulder	-2751
▁perfectly	-2752
▁3	-2753
amb	-2754
▁peri	-2755
▁pity	-2756
▁thin	-2757
▁Biddy	-2758
▁Christ	-2759
▁Father	-2760
▁impress	-2761
▁believed	-2762
▁occupied	-2763
▁shoulders	-2764
▁Dr	-2765
▁Per	-2766
▁bow	-2767
▁inj	-2768
▁neg	-2769
▁unf	-2770
ajest	-2771
▁marry	-2772
▁United	-2773
▁decided	-2774
▁exclaimed	-2775
ius	-2776
ois	-2777
amed	-2778
clock	-2779
▁grow	-2780
▁ring	-2781
▁demand	-2782
▁clothes	-2783
▁pal	-2784
▁sli	-2785
▁super	-2786
▁thank	-2787
▁minute	-2788
▁acquaintance	-2789
▁den	-2790
▁fly	-2791
ashed	-2792
▁lying	-2793
▁moving	-2794
▁rising	-2795
▁tender	-2796
AN	-2797
tle	-2798
▁cou	-2799
▁sac	-2800
inite	-2801
▁exec	-2802
▁sugg	-2803
▁allow	-2804
▁angry	-2805
▁citiz	-2806
▁deser	-2807
▁impro	-2808
▁miles	-2809
▁follow	-2810
▁concern	-2811
▁conduct	-2812
▁meeting	-2813
aâ	-2814
III	-2815
This	-2816
look	-2817
▁fal	-2818
shire	-2819
▁bent	-2820
▁moon	-2821
▁yell	-2822
▁below	-2823
▁George	-2824
▁breast	-2825
▁period	-2826
cle	-2827
tic	-2828
teen	-2829
▁dam	-2830
▁ign	-2831
▁hunt	-2832
▁path	-2833
icense	-2834
ushing	-2835
▁thereâ	-2836
▁William	-2837
▁mentioned	-2838
arest	-2839
under	-2840
▁fool	-2841
▁situ	-2842
▁surr	-2843
▁virt	-2844
▁fancy	-2845
▁questions	-2846
zz	-2847
▁Of	-2848
irst	-2849
ouses	-2850
▁bare	-2851
▁hall	-2852
▁While	-2853
▁devil	-2854
▁drink	-2855
▁langu	-2856
▁worse	-2857
▁someone	-2858
ES	-2859
line	-2860
oved	-2861
chief	-2862
osite	-2863
umble	-2864
▁capt	-2865
▁disg	-2866
▁harm	-2867
▁sick	-2868
arbuck	-2869
▁noble	-2870
▁German	-2871
▁attent	-2872
▁outside	-2873
▁ali	-2874
▁fee	-2875
ences	-2876
▁coff	-2877
▁grat	-2878
▁burst	-2879
▁thick	-2880
▁filled	-2881
my	-2882
▁4	-2883
awn	-2884
rud	-2885
athe	-2886
hens	-2887
olute	-2888
▁cott	-2889
▁adjut	-2890
▁treat	-2891
jo	-2892
ips	-2893
izzy	-2894
lace	-2895
▁ainâ	-2896
▁horror	-2897
▁unable	-2898
▁contrary	-2899
▁countenance	-2900
ech	-2901
nat	-2902
▁Oâ	-2903
They	-2904
▁gro	-2905
cient	-2906
▁Cast	-2907
▁Only	-2908
▁fish	-2909
inting	-2910
▁stone	-2911
▁spoken	-2912
▁information	-2913
▁delic	-2914
▁spite	-2915
▁gallop	-2916
▁sorrow	-2917
uke	-2918
vel	-2919
atic	-2920
▁gen	-2921
▁rain	-2922
▁These	-2923
▁alarm	-2924
▁origin	-2925
▁dressed	-2926
▁hearing	-2927
▁streets	-2928
To	-2929
ism	-2930
itty	-2931
leep	-2932
orted	-2933
▁Good	-2934
▁huss	-2935
fortun	-2936
itable	-2937
iterary	-2938
▁confess	-2939
▁retreat	-2940
▁prisoner	-2941
ache	-2942
▁dom	-2943
imate	-2944
uding	-2945
▁vain	-2946
itated	-2947
attered	-2948
▁glance	-2949
▁likely	-2950
▁wouldnâ	-2951
▁Starbuck	-2952
▁accompan	-2953
▁concerning	-2954
dy	-2955
oor	-2956
org	-2957
osp	-2958
aked	-2959
ored	-2960
▁drawn	-2961
▁extra	-2962
▁liked	-2963
▁makes	-2964
ishment	-2965
▁seized	-2966
▁whispered	-2967
unk	-2968
_	-2969
▁asking	-2970
anâ	-2971
ium	-2972
oint	-2973
uous	-2974
Thatâ	-2975
▁deck	-2976
▁pract	-2977
▁recall	-2978
▁allowed	-2979
▁imagine	-2980
▁writing	-2981
▁although	-2982
▁occurred	-2983
▁opposite	-2984
erry	-2985
ruct	-2986
▁har	-2987
arted	-2988
iform	-2989
▁save	-2990
▁boots	-2991
▁pride	-2992
▁Though	-2993
▁cousin	-2994
▁doctor	-2995
▁kissed	-2996
▁recoll	-2997
▁finished	-2998
ours	-2999
▁inno	-3000
▁murd	-3001
▁apart	-3002
▁frequ	-3003
▁teeth	-3004
▁access	-3005
▁exactly	-3006
▁property	-3007
oc	-3008
lli	-3009
▁pit	-3010
▁pros	-3011
▁rich	-3012
▁tail	-3013
▁BolkÃ	-3014
▁drove	-3015
▁recei	-3016
▁putting	-3017
▁peculiar	-3018
▁advantage	-3019
▁Ag	-3020
!...	-3021
Then	-3022
ript	-3023
▁snow	-3024
▁bread	-3025
▁clean	-3026
▁touch	-3027
▁England	-3028
▁anybody	-3029
▁explain	-3030
▁ordered	-3031
▁touched	-3032
▁darkness	-3033
▁frightened	-3034
▁er	-3035
alus	-3036
▁unp	-3037
onsie	-3038
▁Tell	-3039
iction	-3040
▁faith	-3041
▁stern	-3042
▁degree	-3043
▁listen	-3044
oci	-3045
str	-3046
illy	-3047
race	-3048
▁Two	-3049
▁que	-3050
▁unh	-3051
▁Look	-3052
▁curi	-3053
▁symp	-3054
rehens	-3055
▁parag	-3056
▁utter	-3057
▁Having	-3058
▁despair	-3059
▁uniform	-3060
▁presented	-3061
▁determined	-3062
▁pet	-3063
▁maid	-3064
ashion	-3065
▁intro	-3066
▁music	-3067
onsieur	-3068
▁extreme	-3069
▁paragraph	-3070
por	-3071
▁Pe	-3072
ives	-3073
olog	-3074
house	-3075
uting	-3076
▁Donâ	-3077
▁cost	-3078
▁note	-3079
▁unex	-3080
▁aband	-3081
▁repro	-3082
▁school	-3083
▁learned	-3084
▁quietly	-3085
▁receive	-3086
▁serious	-3087
▁unknown	-3088
▁otherwise	-3089
cies	-3090
▁fle	-3091
▁meas	-3092
▁stat	-3093
▁proud	-3094
▁associ	-3095
▁memory	-3096
▁covered	-3097
▁passion	-3098
▁dreadful	-3099
hil	-3100
ding	-3101
wing	-3102
equod	-3103
iable	-3104
▁fart	-3105
▁aside	-3106
▁misery	-3107
▁simple	-3108
▁passage	-3109
▁supposed	-3110
▁convinced	-3111
agr	-3112
anqu	-3113
▁Pequod	-3114
▁motion	-3115
▁witness	-3116
aves	-3117
▁aim	-3118
▁hes	-3119
antry	-3120
bourn	-3121
▁ears	-3122
▁grou	-3123
▁stop	-3124
▁indiff	-3125
▁summer	-3126
▁rapidly	-3127
▁Longbourn	-3128
▁condition	-3129
IS	-3130
hys	-3131
zen	-3132
▁Se	-3133
aped	-3134
▁Ded	-3135
▁loc	-3136
lotte	-3137
using	-3138
▁Mull	-3139
▁beat	-3140
▁nice	-3141
eneath	-3142
▁seven	-3143
▁stick	-3144
▁twice	-3145
▁France	-3146
▁papers	-3147
▁manners	-3148
▁communic	-3149
▁Charlotte	-3150
▁instantly	-3151
ait	-3152
uit	-3153
erer	-3154
▁alt	-3155
▁fla	-3156
▁kne	-3157
emark	-3158
▁wond	-3159
ainted	-3160
▁Madame	-3161
▁repres	-3162
▁spring	-3163
▁promise	-3164
▁satisfied	-3165
▁Li	-3166
hest	-3167
▁glo	-3168
ocket	-3169
▁Come	-3170
▁goes	-3171
eneral	-3172
▁broke	-3173
▁liber	-3174
▁asleep	-3175
▁finger	-3176
▁Pierreâ	-3177
▁sisters	-3178
▁wretched	-3179
▁curiosity	-3180
TE	-3181
set	-3182
cast	-3183
▁box	-3184
▁spr	-3185
▁wid	-3186
ivity	-3187
▁magn	-3188
▁places	-3189
▁strugg	-3190
▁Dedalus	-3191
▁Gardiner	-3192
▁Alexander	-3193
▁Sc	-3194
Come	-3195
ator	-3196
iles	-3197
▁crew	-3198
▁kill	-3199
▁vent	-3200
lished	-3201
▁false	-3202
▁freed	-3203
▁frown	-3204
▁exceed	-3205
▁nearer	-3206
▁Archive	-3207
▁whisper	-3208
▁agreeable	-3209
Mr	-3210
hew	-3211
▁bird	-3212
▁ones	-3213
▁trees	-3214
▁speech	-3215
▁Go	-3216
▁XV	-3217
cise	-3218
ists	-3219
▁ble	-3220
▁uns	-3221
▁̈ne	-3222
izing	-3223
▁cart	-3224
▁loss	-3225
▁safe	-3226
▁tast	-3227
▁simply	-3228
▁display	-3229
▁Literary	-3230
LL	-3231
reen	-3232
▁Tur	-3233
▁der	-3234
erred	-3235
▁evil	-3236
icient	-3237
terday	-3238
▁design	-3239
▁happen	-3240
▁prepared	-3241
▁influence	-3242
ki	-3243
▁id	-3244
oman	-3245
▁bab	-3246
chook	-3247
ssack	-3248
▁empt	-3249
▁Their	-3250
▁carry	-3251
▁smell	-3252
▁tremb	-3253
▁lovely	-3254
▁beneath	-3255
▁earnest	-3256
▁telling	-3257
Who	-3258
que	-3259
umn	-3260
ingu	-3261
ucket	-3262
▁lamp	-3263
ruction	-3264
▁affair	-3265
▁result	-3266
▁rushed	-3267
▁unless	-3268
▁Cossack	-3269
▁listening	-3270
▁somewhere	-3271
▁discovered	-3272
gl	-3273
aly	-3274
ays	-3275
dom	-3276
uge	-3277
▁Fe	-3278
oted	-3279
▁Old	-3280
asons	-3281
▁hero	-3282
▁joined	-3283
▁spread	-3284
▁arrival	-3285
▁windows	-3286
umblechook	-3287
▁addressed	-3288
com	-3289
▁HÃ	-3290
▁Sm	-3291
▁luck	-3292
▁Lizzy	-3293
▁board	-3294
▁habit	-3295
▁impati	-3296
▁crossed	-3297
▁difficulty	-3298
▁Ne	-3299
▁TÃ	-3300
ories	-3301
▁born	-3302
▁cred	-3303
▁lord	-3304
▁pipe	-3305
▁stir	-3306
▁vast	-3307
▁Russia	-3308
▁bitter	-3309
▁sounds	-3310
▁Manette	-3311
▁Pumblechook	-3312
).	-3313
IV	-3314
ND	-3315
cl	-3316
lig	-3317
▁arg	-3318
▁Pross	-3319
▁avoid	-3320
▁ignor	-3321
▁attend	-3322
▁supper	-3323
▁temper	-3324
▁besides	-3325
▁discuss	-3326
▁pointed	-3327
▁quarter	-3328
▁absolute	-3329
▁promised	-3330
▁prisoners	-3331
▁Can	-3332
▁Ind	-3333
▁Our	-3334
▁hid	-3335
board	-3336
▁ways	-3337
ndered	-3338
▁benef	-3339
▁boats	-3340
▁seated	-3341
▁thrown	-3342
▁Colonel	-3343
▁private	-3344
▁removed	-3345
▁distingu	-3346
▁according	-3347
▁relations	-3348
asy	-3349
▁gh	-3350
▁voy	-3351
▁furn	-3352
▁seat	-3353
ointed	-3354
▁Somet	-3355
▁decla	-3356
▁simil	-3357
▁spect	-3358
ational	-3359
▁office	-3360
▁farther	-3361
▁adjutant	-3362
So	-3363
_	-3364
Good	-3365
rect	-3366
antic	-3367
▁cann	-3368
stairs	-3369
▁staff	-3370
▁Mullig	-3371
▁attract	-3372
yal	-3373
coat	-3374
▁See	-3375
▁Kitty	-3376
▁Paris	-3377
▁alive	-3378
▁indic	-3379
▁lifted	-3380
▁sympath	-3381
▁intellig	-3382
aul	-3383
nay	-3384
ades	-3385
ails	-3386
▁Sir	-3387
▁une	-3388
ading	-3389
▁host	-3390
unning	-3391
▁rooms	-3392
taining	-3393
▁suffer	-3394
▁anxious	-3395
▁descend	-3396
▁matters	-3397
▁princip	-3398
▁generally	-3399
▁trademark	-3400
▁PR	-3401
atiÃ	-3402
▁Bagr	-3403
▁Cart	-3404
▁food	-3405
▁stro	-3406
▁tong	-3407
▁hopes	-3408
▁knock	-3409
▁troub	-3410
▁BagratiÃ	-3411
▁pointing	-3412
▁donations	-3413
▁forgotten	-3414
▁interrupted	-3415
isc	-3416
min	-3417
ses	-3418
ills	-3419
▁Bes	-3420
▁gazed	-3421
▁guest	-3422
▁today	-3423
▁comply	-3424
▁waited	-3425
▁curious	-3426
▁keeping	-3427
▁distinct	-3428
▁familiar	-3429
▁situation	-3430
▁yesterday	-3431
▁approached	-3432
OR	-3433
St	-3434
ior	-3435
▁Mi	-3436
uses	-3437
▁ice	-3438
▁lod	-3439
▁rul	-3440
▁wel	-3441
ument	-3442
▁dust	-3443
▁reck	-3444
iments	-3445
▁Still	-3446
▁equal	-3447
▁lines	-3448
▁offer	-3449
▁weeks	-3450
▁absence	-3451
▁obliged	-3452
▁understanding	-3453
cil	-3454
ify	-3455
▁Me	-3456
▁Qu	-3457
▁fo	-3458
aced	-3459
irth	-3460
▁bold	-3461
▁blame	-3462
▁grown	-3463
▁caused	-3464
▁engage	-3465
▁murder	-3466
▁excited	-3467
▁possessed	-3468
yn	-3469
lly	-3470
osh	-3471
rand	-3472
velo	-3473
▁Did	-3474
▁suc	-3475
▁band	-3476
▁diss	-3477
▁hide	-3478
vlovna	-3479
▁dying	-3480
▁imper	-3481
▁trust	-3482
▁interv	-3483
▁superi	-3484
▁suspic	-3485
▁introdu	-3486
▁moments	-3487
leg	-3488
ires	-3489
rent	-3490
▁Hen	-3491
▁weâ	-3492
gging	-3493
▁fond	-3494
▁pack	-3495
▁reve	-3496
▁thro	-3497
▁dance	-3498
▁paused	-3499
▁courage	-3500
▁succeed	-3501
▁forehead	-3502
▁destroyed	-3503
▁continually	-3504
ky	-3505
imm	-3506
▁bank	-3507
▁mess	-3508
▁pati	-3509
▁phys	-3510
▁Street	-3511
▁fallen	-3512
▁houses	-3513
▁Charles	-3514
▁weather	-3515
▁glancing	-3516
▁watching	-3517
▁Mo	-3518
arks	-3519
▁Bal	-3520
▁inn	-3521
▁shri	-3522
▁cruel	-3523
▁polit	-3524
▁shown	-3525
▁Pocket	-3526
▁wishes	-3527
▁pressed	-3528
▁watched	-3529
CH	-3530
eal	-3531
edy	-3532
mon	-3533
enth	-3534
▁ves	-3535
▁amid	-3536
▁nodd	-3537
▁wore	-3538
▁storm	-3539
▁Darnay	-3540
▁yellow	-3541
▁compass	-3542
▁fashion	-3543
▁Russians	-3544
ww	-3545
ann	-3546
gar	-3547
▁resp	-3548
ounced	-3549
▁civil	-3550
▁Nether	-3551
▁regret	-3552
▁shadow	-3553
▁clearly	-3554
▁freedom	-3555
▁individ	-3556
▁Mulligan	-3557
▁cheerful	-3558
▁produced	-3559
khÃ	-3560
arse	-3561
aval	-3562
long	-3563
▁dull	-3564
▁fate	-3565
▁grey	-3566
▁shot	-3567
▁examp	-3568
▁grief	-3569
▁yield	-3570
▁Carton	-3571
▁support	-3572
▁Monsieur	-3573
▁excellent	-3574
▁existence	-3575
▁Netherfield	-3576
▁satisfaction	-3577
ics	-3578
law	-3579
rop	-3580
▁Bou	-3581
▁wet	-3582
▁Such	-3583
▁Sund	-3584
▁fold	-3585
▁lives	-3586
▁bottom	-3587
▁custom	-3588
▁explan	-3589
▁height	-3590
▁highly	-3591
▁waters	-3592
▁contempt	-3593
▁directly	-3594
▁unexpected	-3595
When	-3596
Your	-3597
ccio	-3598
rope	-3599
▁Heâ	-3600
▁fan	-3601
▁mot	-3602
emois	-3603
inded	-3604
▁wand	-3605
▁becom	-3606
▁fifty	-3607
▁piece	-3608
emoiselle	-3609
▁confidence	-3610
▁Ex	-3611
▁av	-3612
ague	-3613
ores	-3614
rish	-3615
with	-3616
▁deb	-3617
▁sla	-3618
▁comb	-3619
▁mast	-3620
▁rejo	-3621
vering	-3622
▁Henry	-3623
▁Lucas	-3624
▁Sperm	-3625
▁estab	-3626
▁forced	-3627
▁special	-3628
▁interesting	-3629
OU	-3630
All	-3631
elt	-3632
▁Ah	-3633
▁Mon	-3634
▁jaw	-3635
▁sav	-3636
▁pick	-3637
ashing	-3638
▁begun	-3639
▁books	-3640
▁learn	-3641
▁parts	-3642
▁motherâ	-3643
▁dressing	-3644
▁kindness	-3645
▁5	-3646
iny	-3647
reg	-3648
rel	-3649
▁Ab	-3650
imon	-3651
▁theyâ	-3652
▁secure	-3653
▁threat	-3654
▁tranqu	-3655
▁vessel	-3656
▁burning	-3657
▁citizen	-3658
▁offered	-3659
▁superior	-3660
▁ourselves	-3661
▁individual	-3662
▁Mademoiselle	-3663
wed	-3664
ites	-3665
▁Alp	-3666
▁nar	-3667
isher	-3668
nding	-3669
▁entr	-3670
▁jump	-3671
▁pill	-3672
ruccio	-3673
▁Never	-3674
▁match	-3675
▁higher	-3676
▁marked	-3677
▁unhapp	-3678
▁younger	-3679
▁peasants	-3680
▁intention	-3681
▁Castruccio	-3682
form	-3683
tych	-3684
▁sple	-3685
▁subm	-3686
ternal	-3687
▁loose	-3688
▁entreat	-3689
▁signific	-3690
▁permission	-3691
CT	-3692
ED	-3693
che	-3694
olÃ	-3695
amma	-3696
keep	-3697
rien	-3698
rily	-3699
umph	-3700
▁cup	-3701
▁fit	-3702
▁kit	-3703
▁pra	-3704
ament	-3705
▁blow	-3706
lessly	-3707
vation	-3708
▁chest	-3709
▁group	-3710
▁ceased	-3711
▁escape	-3712
▁forces	-3713
▁apparent	-3714
▁considerable	-3715
On	-3716
avi	-3717
nov	-3718
?...	-3719
enge	-3720
▁Had	-3721
▁bod	-3722
asing	-3723
▁join	-3724
▁prog	-3725
ignity	-3726
▁awful	-3727
▁pause	-3728
▁candle	-3729
▁hanging	-3730
▁station	-3731
▁extraord	-3732
▁touching	-3733
▁importance	-3734
▁mal	-3735
Where	-3736
▁mill	-3737
▁tear	-3738
inking	-3739
▁grate	-3740
▁confir	-3741
▁credit	-3742
▁similar	-3743
▁activity	-3744
▁intended	-3745
▁personal	-3746
▁including	-3747
raw	-3748
rest	-3749
▁Dub	-3750
ailed	-3751
chant	-3752
lease	-3753
▁AlpÃ	-3754
▁chap	-3755
▁game	-3756
▁lose	-3757
▁nine	-3758
▁rock	-3759
▁White	-3760
▁inhab	-3761
▁deeply	-3762
▁distur	-3763
▁terror	-3764
kerchief	-3765
▁opening	-3766
▁military	-3767
▁presently	-3768
▁returning	-3769
yr	-3770
acc	-3771
aker	-3772
▁New	-3773
▁uni	-3774
▁vic	-3775
▁bore	-3776
▁phil	-3777
▁seek	-3778
▁MikhÃ	-3779
▁Austri	-3780
▁assure	-3781
aughters	-3782
▁advance	-3783
▁calling	-3784
▁whenever	-3785
▁ur	-3786
▁nur	-3787
amber	-3788
▁cook	-3789
▁meth	-3790
▁song	-3791
aviour	-3792
▁Irish	-3793
▁drive	-3794
▁names	-3795
▁restr	-3796
▁swift	-3797
▁circle	-3798
▁fortun	-3799
▁winter	-3800
▁arrange	-3801
▁assured	-3802
▁distant	-3803
▁relation	-3804
▁considering	-3805
▁experienced	-3806
chen	-3807
orse	-3808
quis	-3809
ourse	-3810
there	-3811
▁hamm	-3812
▁jack	-3813
▁pair	-3814
aining	-3815
ajesty	-3816
▁Flore	-3817
▁build	-3818
▁throw	-3819
▁ancient	-3820
▁dancing	-3821
▁servant	-3822
▁suffered	-3823
▁daughters	-3824
▁wonderful	-3825
▁experience	-3826
bl	-3827
eed	-3828
Donâ	-3829
hand	-3830
▁lar	-3831
▁pop	-3832
apart	-3833
▁myst	-3834
▁sigh	-3835
ylovna	-3836
▁caval	-3837
▁hoped	-3838
▁stock	-3839
▁yours	-3840
▁stream	-3841
▁amiable	-3842
▁leaning	-3843
▁directed	-3844
▁Bo	-3845
elve	-3846
lies	-3847
noon	-3848
osop	-3849
▁DmÃ	-3850
▁aud	-3851
▁dry	-3852
▁due	-3853
▁Even	-3854
▁grad	-3855
▁inev	-3856
▁mild	-3857
▁pref	-3858
▁star	-3859
rienne	-3860
▁grass	-3861
onapart	-3862
▁rolled	-3863
▁splend	-3864
▁License	-3865
▁couldnâ	-3866
▁growing	-3867
gutenberg	-3868
▁harpoone	-3869
▁laughter	-3870
▁Bourienne	-3871
▁acquainted	-3872
▁VÃ	-3873
aily	-3874
held	-3875
▁Ant	-3876
▁May	-3877
▁tow	-3878
▁Have	-3879
▁seas	-3880
▁Queen	-3881
▁hurry	-3882
ections	-3883
onsense	-3884
▁consol	-3885
▁forest	-3886
▁Besides	-3887
▁General	-3888
▁destroy	-3889
▁triumph	-3890
▁visible	-3891
▁surrounded	-3892
.,	-3893
▁6	-3894
ael	-3895
ino	-3896
uce	-3897
erve	-3898
rehe	-3899
road	-3900
▁wed	-3901
stand	-3902
▁Phil	-3903
▁fail	-3904
▁oneâ	-3905
▁empty	-3906
▁royal	-3907
ogether	-3908
▁sought	-3909
▁voyage	-3910
▁falling	-3911
▁language	-3912
▁impression	-3913
ina	-3914
ral	-3915
ibly	-3916
uing	-3917
▁mud	-3918
ighed	-3919
opchÃ	-3920
▁exer	-3921
▁murm	-3922
▁shock	-3923
▁wants	-3924
▁actions	-3925
▁desired	-3926
▁kitchen	-3927
▁picture	-3928
▁advanced	-3929
▁previous	-3930
▁suffering	-3931
▁extraordinary	-3932
sy	-3933
▁Eu	-3934
▁Re	-3935
rors	-3936
▁bul	-3937
▁fet	-3938
▁oce	-3939
▁tax	-3940
ieces	-3941
▁bull	-3942
▁mour	-3943
▁suit	-3944
▁weep	-3945
▁takes	-3946
▁waves	-3947
▁method	-3948
▁proved	-3949
▁appears	-3950
▁possibly	-3951
▁servants	-3952
▁RostopchÃ	-3953
▁excellency	-3954
shaâ	-3955
▁mir	-3956
ables	-3957
▁Youâ	-3958
▁gest	-3959
▁ruin	-3960
▁wear	-3961
▁Lucie	-3962
▁Three	-3963
▁space	-3964
▁sperm	-3965
▁handed	-3966
▁official	-3967
▁tomorrow	-3968
▁delighted	-3969
fs	-3970
rid	-3971
▁Ad	-3972
upid	-3973
▁ack	-3974
▁lot	-3975
▁pot	-3976
gment	-3977
hamed	-3978
ience	-3979
overy	-3980
▁Cler	-3981
▁Crun	-3982
▁campa	-3983
▁ghost	-3984
▁using	-3985
▁whist	-3986
ustomed	-3987
▁acknow	-3988
▁bloody	-3989
▁estate	-3990
▁gained	-3991
▁nobody	-3992
▁weight	-3993
antucket	-3994
onaparte	-3995
▁ashamed	-3996
▁evident	-3997
▁finally	-3998
▁Countess	-3999
▁shouting	-4000
▁silently	-4001
▁admiration	-4002
gs	-4003
thy	-4004
was	-4005
ergy	-4006
ince	-4007
lesh	-4008
manâ	-4009
neur	-4010
▁awa	-4011
▁mat	-4012
▁Mich	-4013
▁Thus	-4014
▁comr	-4015
▁ease	-4016
▁rust	-4017
inging	-4018
urally	-4019
▁forty	-4020
▁Sunday	-4021
▁virtue	-4022
▁However	-4023
▁reasons	-4024
▁discover	-4025
▁infantry	-4026
▁regarded	-4027
oluntarily	-4028
key	-4029
who	-4030
▁15	-4031
iath	-4032
▁cro	-4033
▁sof	-4034
▁educ	-4035
▁rise	-4036
▁sand	-4037
▁yard	-4038
▁elder	-4039
theless	-4040
▁cannon	-4041
▁colour	-4042
▁parent	-4043
▁tongue	-4044
▁Cruncher	-4045
▁carefully	-4046
▁possession	-4047
tri	-4048
▁Cl	-4049
▁Sw	-4050
▁Sat	-4051
▁bor	-4052
▁jew	-4053
▁ris	-4054
choly	-4055
verse	-4056
▁More	-4057
▁hate	-4058
▁shame	-4059
▁waist	-4060
▁bottle	-4061
▁contem	-4062
▁leaves	-4063
▁priest	-4064
▁stairs	-4065
▁finding	-4066
▁monster	-4067
▁campaign	-4068
▁innocent	-4069
▁philosop	-4070
▁Nantucket	-4071
▁increased	-4072
▁receiving	-4073
▁government	-4074
▁historians	-4075
rat	-4076
osom	-4077
▁god	-4078
▁oil	-4079
aming	-4080
eding	-4081
oused	-4082
▁lies	-4083
rehend	-4084
▁birth	-4085
▁ideas	-4086
▁noise	-4087
▁mighty	-4088
▁played	-4089
▁suggest	-4090
▁wishing	-4091
▁addition	-4092
▁unfortun	-4093
▁necessity	-4094
▁completely	-4095
sp	-4096
hib	-4097
ste	-4098
uel	-4099
hold	-4100
sing	-4101
▁elb	-4102
▁rub	-4103
▁spl	-4104
opsle	-4105
▁forb	-4106
▁guns	-4107
▁knees	-4108
▁melan	-4109
▁Wopsle	-4110
▁afford	-4111
▁pushed	-4112
▁example	-4113
▁greatly	-4114
▁justice	-4115
▁pursued	-4116
▁shaking	-4117
▁accepted	-4118
▁afternoon	-4119
▁approaching	-4120
▁explanation	-4121
do	-4122
any	-4123
asm	-4124
con	-4125
ept	-4126
igs	-4127
ient	-4128
omen	-4129
▁lit	-4130
▁Like	-4131
▁arch	-4132
▁prove	-4133
▁advice	-4134
▁agreed	-4135
▁brilli	-4136
▁genius	-4137
▁twelve	-4138
▁Clerval	-4139
▁cavalry	-4140
▁playing	-4141
▁possibility	-4142
AT	-4143
asp	-4144
gel	-4145
▁BE	-4146
▁Ro	-4147
▁Up	-4148
▁la	-4149
acle	-4150
eric	-4151
rose	-4152
▁Ben	-4153
▁Com	-4154
▁env	-4155
▁www	-4156
icing	-4157
▁amaz	-4158
▁card	-4159
▁shed	-4160
▁shop	-4161
▁gives	-4162
looking	-4163
▁During	-4164
▁feared	-4165
▁inside	-4166
▁scream	-4167
▁softly	-4168
▁Nothing	-4169
▁cottage	-4170
▁stepped	-4171
▁attended	-4172
▁entertain	-4173
▁associated	-4174
▁melancholy	-4175
ipp	-4176
evna	-4177
iest	-4178
uced	-4179
vert	-4180
▁Cor	-4181
▁rum	-4182
▁toss	-4183
▁unre	-4184
igneur	-4185
▁brown	-4186
▁dared	-4187
▁flank	-4188
▁judge	-4189
ourable	-4190
▁Dublin	-4191
▁Europe	-4192
▁thirty	-4193
▁capable	-4194
▁prevent	-4195
▁sisterâ	-4196
▁attached	-4197
▁prospect	-4198
▁behaviour	-4199
▁departure	-4200
▁endeavour	-4201
▁perceived	-4202
▁accustomed	-4203
▁altogether	-4204
▁connection	-4205
▁exceedingly	-4206
As	-4207
fl	-4208
box	-4209
ulf	-4210
Very	-4211
With	-4212
case	-4213
▁ess	-4214
while	-4215
▁Jack	-4216
▁Mart	-4217
▁baby	-4218
▁cord	-4219
atures	-4220
▁bosom	-4221
▁cabin	-4222
▁reach	-4223
▁share	-4224
▁solic	-4225
▁wound	-4226
rinking	-4227
▁narrow	-4228
▁pulled	-4229
▁sacrif	-4230
▁showing	-4231
▁muttered	-4232
▁represent	-4233
▁handkerchief	-4234
!_	-4235
eem	-4236
nce	-4237
orâ	-4238
rya	-4239
ashÃ	-4240
enny	-4241
mond	-4242
▁fem	-4243
eless	-4244
▁Mery	-4245
▁carp	-4246
▁mood	-4247
▁delay	-4248
▁faint	-4249
▁timid	-4250
▁Thereâ	-4251
ointment	-4252
seigneur	-4253
▁Meryton	-4254
▁colonel	-4255
▁plainly	-4256
▁provide	-4257
▁science	-4258
ification	-4259
▁creatures	-4260
iend	-4261
omin	-4262
rate	-4263
▁pin	-4264
▁vex	-4265
ental	-4266
igned	-4267
▁sank	-4268
▁sheâ	-4269
▁trem	-4270
▁embra	-4271
▁stair	-4272
▁Before	-4273
engeance	-4274
onscious	-4275
▁equally	-4276
▁highest	-4277
▁immense	-4278
▁whaling	-4279
▁explained	-4280
▁accompanied	-4281
▁imagination	-4282
AL	-4283
imp	-4284
lix	-4285
eral	-4286
▁Pat	-4287
▁obv	-4288
▁rib	-4289
▁rob	-4290
venge	-4291
▁Buck	-4292
▁sofa	-4293
▁glory	-4294
▁shore	-4295
▁subst	-4296
achment	-4297
utation	-4298
▁double	-4299
▁recomm	-4300
▁square	-4301
▁undert	-4302
▁BalashÃ	-4303
▁regular	-4304
▁request	-4305
▁unhappy	-4306
▁Emperorâ	-4307
▁bringing	-4308
▁charming	-4309
▁confused	-4310
▁visitors	-4311
▁authority	-4312
han	-4313
▁LI	-4314
▁Ros	-4315
▁High	-4316
▁drop	-4317
▁guess	-4318
▁shoes	-4319
▁taste	-4320
▁whatâ	-4321
▁withd	-4322
lection	-4323
▁pounds	-4324
▁relief	-4325
▁stupid	-4326
▁anxiety	-4327
▁remains	-4328
▁victory	-4329
▁instruct	-4330
▁slightly	-4331
▁mountains	-4332
▁frequently	-4333
▁consequence	-4334
▁astonishment	-4335
▁circumstance	-4336
Let	-4337
inÃ	-4338
lyÃ	-4339
Here	-4340
grat	-4341
zing	-4342
▁amb	-4343
▁gay	-4344
acity	-4345
ardon	-4346
atory	-4347
▁Pres	-4348
▁caut	-4349
▁poet	-4350
▁worn	-4351
▁bowed	-4352
▁saved	-4353
▁Pember	-4354
▁defect	-4355
▁island	-4356
▁kindly	-4357
▁transp	-4358
▁wholly	-4359
▁eagerly	-4360
▁progress	-4361
▁reproach	-4362
▁Pemberley	-4363
▁concluded	-4364
▁sufficient	-4365
CE	-4366
SE	-4367
his	-4368
oon	-4369
▁Dan	-4370
▁vol	-4371
aches	-4372
retch	-4373
▁Tomâ	-4374
▁rank	-4375
▁tree	-4376
▁wise	-4377
▁cases	-4378
▁catch	-4379
▁ships	-4380
athered	-4381
▁assemb	-4382
▁desper	-4383
▁employ	-4384
▁myster	-4385
▁states	-4386
▁worked	-4387
▁Majesty	-4388
▁inhabit	-4389
▁singing	-4390
▁torment	-4391
▁accident	-4392
▁entering	-4393
▁splendid	-4394
▁sympathy	-4395
▁Frenchman	-4396
ti	-4397
arÃ	-4398
bly	-4399
vis	-4400
▁Bl	-4401
aunt	-4402
imin	-4403
▁Dav	-4404
▁sum	-4405
odinÃ	-4406
ryver	-4407
▁Berg	-4408
▁heat	-4409
▁hosp	-4410
▁musk	-4411
▁proc	-4412
▁shape	-4413
alities	-4414
▁applic	-4415
▁column	-4416
▁freely	-4417
▁gazing	-4418
▁Stryver	-4419
▁somebody	-4420
ux	-4421
Are	-4422
asc	-4423
opy	-4424
inks	-4425
rees	-4426
atisf	-4427
attle	-4428
erved	-4429
iring	-4430
▁Beck	-4431
▁hint	-4432
▁tale	-4433
▁claim	-4434
▁cloak	-4435
▁speed	-4436
▁Martin	-4437
▁compar	-4438
▁refund	-4439
▁Andrewâ	-4440
▁hastily	-4441
▁visitor	-4442
▁evidence	-4443
▁Sometimes	-4444
▁absolutely	-4445
▁remarkable	-4446
▁destruction	-4447
AG	-4448
▁]	-4449
isp	-4450
▁Jul	-4451
▁iss	-4452
▁libr	-4453
▁milk	-4454
▁race	-4455
▁Flask	-4456
▁Those	-4457
▁shirt	-4458
▁straw	-4459
▁aspect	-4460
▁beheld	-4461
▁honest	-4462
▁Justine	-4463
▁BorodinÃ	-4464
▁carrying	-4465
▁nonsense	-4466
▁connected	-4467
▁intellect	-4468
▁difference	-4469
Un	-4470
For	-4471
pes	-4472
▁ty	-4473
phew	-4474
▁Hur	-4475
▁fra	-4476
▁gar	-4477
▁key	-4478
Whatâ	-4479
ially	-4480
ounce	-4481
▁Godâ	-4482
▁fier	-4483
▁himâ	-4484
▁holl	-4485
▁huge	-4486
▁hurt	-4487
▁check	-4488
▁conqu	-4489
▁crown	-4490
▁fault	-4491
▁fully	-4492
▁nurse	-4493
▁stout	-4494
trievna	-4495
▁excuse	-4496
▁flight	-4497
▁points	-4498
▁severe	-4499
▁efforts	-4500
▁hussars	-4501
▁retired	-4502
▁provided	-4503
▁dangerous	-4504
▁gratitude	-4505
▁neighbourhood	-4506
vâ	-4507
dle	-4508
ese	-4509
upp	-4510
ajor	-4511
resp	-4512
rous	-4513
▁hal	-4514
▁org	-4515
▁Sher	-4516
▁deed	-4517
▁excl	-4518
▁nerv	-4519
▁page	-4520
▁rate	-4521
▁rubb	-4522
▁sche	-4523
ulated	-4524
urance	-4525
▁class	-4526
▁doors	-4527
▁ident	-4528
▁marsh	-4529
▁swell	-4530
▁tempt	-4531
▁turns	-4532
▁Americ	-4533
▁firing	-4534
▁gently	-4535
▁nephew	-4536
▁silver	-4537
▁angrily	-4538
▁counter	-4539
▁leading	-4540
▁infinite	-4541
▁mistaken	-4542
▁Napoleonâ	-4543
▁confusion	-4544
▁compassion	-4545
▁consciousness	-4546
ims	-4547
onn	-4548
ope	-4549
this	-4550
▁aid	-4551
▁phr	-4552
kward	-4553
olent	-4554
▁flew	-4555
▁roof	-4556
ensive	-4557
orough	-4558
▁Jerry	-4559
▁anger	-4560
▁aware	-4561
▁sword	-4562
▁needed	-4563
▁nodded	-4564
▁obtain	-4565
▁police	-4566
▁sooner	-4567
▁throat	-4568
▁process	-4569
▁univers	-4570
▁approach	-4571
▁rendered	-4572
▁unfortunate	-4573
Go	-4574
Sh	-4575
vs	-4576
ucc	-4577
▁Pl	-4578
acqu	-4579
uish	-4580
▁Are	-4581
▁Pol	-4582
▁pac	-4583
itive	-4584
stone	-4585
▁Dick	-4586
▁Lene	-4587
▁bree	-4588
▁hell	-4589
▁skin	-4590
▁test	-4591
▁SmolÃ	-4592
▁fever	-4593
▁knife	-4594
▁ocean	-4595
▁porch	-4596
▁spout	-4597
▁walls	-4598
▁worst	-4599
▁powers	-4600
▁proble	-4601
▁Perhaps	-4602
▁persons	-4603
▁unpleas	-4604
▁wearing	-4605
▁animated	-4606
▁informed	-4607
▁striking	-4608
▁gradually	-4609
▁disappeared	-4610
▁consideration	-4611
kin	-4612
zes	-4613
▁(_	-4614
▁OR	-4615
face	-4616
rier	-4617
sonâ	-4618
▁bag	-4619
▁Fitz	-4620
▁busy	-4621
▁sour	-4622
▁tick	-4623
leness	-4624
▁Saint	-4625
▁conve	-4626
▁spare	-4627
▁related	-4628
▁sincere	-4629
▁anywhere	-4630
▁distress	-4631
▁features	-4632
▁galloped	-4633
▁generals	-4634
▁described	-4635
▁reflected	-4636
▁addressing	-4637
▁unconscious	-4638
po	-4639
▁9	-4640
Did	-4641
zed	-4642
ille	-4643
rene	-4644
▁Boy	-4645
▁Ire	-4646
▁vac	-4647
anted	-4648
loved	-4649
ulous	-4650
▁knee	-4651
▁slee	-4652
▁sway	-4653
▁Simon	-4654
▁arose	-4655
▁enorm	-4656
▁march	-4657
▁mater	-4658
▁stars	-4659
▁toler	-4660
▁upper	-4661
fulness	-4662
ription	-4663
▁coffin	-4664
▁fisher	-4665
▁sovere	-4666
▁awkward	-4667
▁foreign	-4668
▁lighted	-4669
▁peasant	-4670
▁Sherlock	-4671
▁strongly	-4672
▁agitation	-4673
▁immediate	-4674
▁proceeded	-4675
off	-4676
olf	-4677
▁Im	-4678
Look	-4679
step	-4680
▁189	-4681
▁non	-4682
▁bill	-4683
▁cler	-4684
▁dogs	-4685
▁pure	-4686
▁trif	-4687
attery	-4688
iathan	-4689
uments	-4690
Ãokhov	-4691
▁cards	-4692
▁flesh	-4693
▁spend	-4694
▁tight	-4695
▁animal	-4696
▁cheeks	-4697
▁choose	-4698
▁copies	-4699
▁driven	-4700
▁gloomy	-4701
▁intent	-4702
▁leaned	-4703
▁reckon	-4704
▁congrat	-4705
▁dignity	-4706
▁happens	-4707
▁painful	-4708
▁gathered	-4709
▁instance	-4710
▁engagement	-4711
▁disposition	-4712
▁indifferent	-4713
3.	-4714
sm	-4715
hum	-4716
usi	-4717
▁Mur	-4718
▁ard	-4719
▁vig	-4720
▁keen	-4721
▁beast	-4722
▁crime	-4723
▁weary	-4724
▁flying	-4725
▁golden	-4726
▁native	-4727
▁search	-4728
▁sprang	-4729
▁thrust	-4730
lessness	-4731
▁Ireland	-4732
▁Rosings	-4733
▁capital	-4734
▁chiefly	-4735
▁heavily	-4736
▁uttered	-4737
▁wedding	-4738
▁contempl	-4739
▁friendly	-4740
▁profound	-4741
▁sensible	-4742
▁favourite	-4743
▁sovereign	-4744
▁comprehend	-4745
▁distributing	-4746
gy	-4747
oms	-4748
oul	-4749
uzz	-4750
▁Ev	-4751
achi	-4752
itor	-4753
kind	-4754
▁Car	-4755
▁bal	-4756
▁cla	-4757
▁rapt	-4758
▁Again	-4759
▁artic	-4760
▁plans	-4761
▁swall	-4762
zÃokhov	-4763
▁calcul	-4764
▁causes	-4765
▁clever	-4766
▁finish	-4767
▁Lenehan	-4768
▁bearing	-4769
▁dearest	-4770
▁fellows	-4771
▁pursuit	-4772
▁conception	-4773
▁interested	-4774
▁reflection	-4775
▁resolution	-4776
▁occasionally	-4777
1⁄	-4778
book	-4779
resh	-4780
▁Bec	-4781
▁Har	-4782
▁Red	-4783
▁sev	-4784
ommon	-4785
▁pron	-4786
▁tumb	-4787
▁First	-4788
▁fiend	-4789
▁instr	-4790
▁trous	-4791
▁Heaven	-4792
▁resemb	-4793
▁riding	-4794
▁steady	-4795
▁thanks	-4796
opyright	-4797
▁mistake	-4798
▁usually	-4799
▁Bingleyâ	-4800
▁required	-4801
▁sentence	-4802
▁stronger	-4803
▁subjects	-4804
▁abandoned	-4805
▁discovery	-4806
▁conviction	-4807
lor	-4808
rows	-4809
work	-4810
▁cow	-4811
▁odd	-4812
▁wra	-4813
istol	-4814
▁chim	-4815
▁dish	-4816
▁rene	-4817
▁roll	-4818
arling	-4819
▁final	-4820
▁queer	-4821
ibility	-4822
▁absent	-4823
▁choice	-4824
▁couple	-4825
▁famous	-4826
▁prepar	-4827
▁utmost	-4828
▁wealth	-4829
▁wooden	-4830
▁Section	-4831
▁located	-4832
▁working	-4833
▁declared	-4834
▁original	-4835
▁somewhat	-4836
▁BezÃokhov	-4837
▁concerned	-4838
▁friendship	-4839
▁Monseigneur	-4840
lm	-4841
ilty	-4842
ldom	-4843
ture	-4844
▁irr	-4845
asted	-4846
inger	-4847
▁cool	-4848
▁exch	-4849
▁fulf	-4850
▁narr	-4851
▁rare	-4852
ential	-4853
headed	-4854
▁grace	-4855
▁shill	-4856
▁Darcyâ	-4857
▁advent	-4858
▁clouds	-4859
▁parted	-4860
▁stands	-4861
▁strike	-4862
▁worthy	-4863
ositions	-4864
▁forgive	-4865
▁protect	-4866
▁require	-4867
▁constant	-4868
▁delicate	-4869
▁murderer	-4870
▁acknowled	-4871
▁recovered	-4872
▁remaining	-4873
▁compliment	-4874
▁profession	-4875
▁affectionate	-4876
hor	-4877
they	-4878
tski	-4879
▁XXX	-4880
acles	-4881
▁Joeâ	-4882
▁Rich	-4883
▁brow	-4884
▁decl	-4885
▁exha	-4886
▁soot	-4887
▁wake	-4888
▁Felix	-4889
▁cheek	-4890
▁drown	-4891
▁relig	-4892
▁stead	-4893
▁tired	-4894
▁vague	-4895
▁value	-4896
▁hearts	-4897
▁record	-4898
▁breaking	-4899
▁goodness	-4900
▁precious	-4901
▁recalled	-4902
▁throwing	-4903
▁upstairs	-4904
▁trembling	-4905
▁apparently	-4906
▁assistance	-4907
▁invitation	-4908
▁previously	-4909
▁intelligence	-4910
HEN	-4911
ING	-4912
One	-4913
ode	-4914
ule	-4915
uns	-4916
▁et	-4917
▁hy	-4918
ived	-4919
▁Was	-4920
▁lin	-4921
▁saf	-4922
asped	-4923
assed	-4924
orous	-4925
thatâ	-4926
▁Bour	-4927
▁Hand	-4928
▁edge	-4929
▁enth	-4930
▁lock	-4931
▁oper	-4932
▁moral	-4933
▁woods	-4934
▁wrink	-4935
fortune	-4936
natural	-4937
ulation	-4938
▁ascend	-4939
▁seldom	-4940
▁Because	-4941
▁Michael	-4942
▁collect	-4943
▁consent	-4944
▁shining	-4945
▁thunder	-4946
▁solitary	-4947
▁brilliant	-4948
▁fortnight	-4949
▁naturally	-4950
▁conclusion	-4951
▁distinguished	-4952
▁involuntarily	-4953
At	-4954
OO	-4955
tÃ	-4956
alf	-4957
bre	-4958
kov	-4959
pre	-4960
uls	-4961
Have	-4962
▁181	-4963
▁Ara	-4964
▁Bet	-4965
▁ash	-4966
▁ded	-4967
▁ens	-4968
▁lat	-4969
aries	-4970
enger	-4971
oseph	-4972
rated	-4973
▁rage	-4974
▁task	-4975
castle	-4976
▁agony	-4977
▁merry	-4978
▁proof	-4979
▁revol	-4980
▁rough	-4981
▁stiff	-4982
▁stuff	-4983
itating	-4984
▁Guards	-4985
▁admire	-4986
▁eBooks	-4987
▁propos	-4988
▁savage	-4989
▁volunt	-4990
▁blessed	-4991
▁content	-4992
▁neglect	-4993
▁revenge	-4994
▁violent	-4995
▁welcome	-4996
▁horrible	-4997
▁midnight	-4998
▁quarters	-4999
▁Bonaparte	-5000
▁stretched	-5001
▁suspicion	-5002
▁delightful	-5003
▁endeavoured	-5004
UT	-5005
TEP	-5006
rah	-5007
▁En	-5008
▁ic	-5009
unch	-5010
▁Don	-5011
▁Rep	-5012
▁cas	-5013
cence	-5014
liest	-5015
udden	-5016
▁STEP	-5017
▁cher	-5018
▁fill	-5019
▁holy	-5020
▁west	-5021
ifying	-5022
▁Becky	-5023
▁admit	-5024
▁aloud	-5025
▁distr	-5026
▁drunk	-5027
▁midst	-5028
▁shipâ	-5029
▁slept	-5030
▁loudly	-5031
▁polite	-5032
▁stared	-5033
▁STEPHEN	-5034
▁created	-5035
▁flushed	-5036
▁observe	-5037
▁prepare	-5038
▁project	-5039
▁raising	-5040
▁somehow	-5041
▁staring	-5042
▁useless	-5043
▁arranged	-5044
▁civility	-5045
▁drinking	-5046
▁employed	-5047
▁ignorant	-5048
▁inquired	-5049
▁intimate	-5050
▁weakness	-5051
▁appointed	-5052
▁expecting	-5053
▁Elizabethâ	-5054
▁conditions	-5055
▁misfortune	-5056
1.	-5057
Of	-5058
ien	-5059
see	-5060
udd	-5061
whe	-5062
▁Jon	-5063
▁hut	-5064
aping	-5065
▁coin	-5066
▁date	-5067
▁mult	-5068
ograph	-5069
▁Drumm	-5070
▁Great	-5071
▁ahead	-5072
▁amuse	-5073
▁carts	-5074
▁roads	-5075
▁serge	-5076
▁serve	-5077
▁signs	-5078
▁female	-5079
▁lively	-5080
▁render	-5081
▁sailor	-5082
▁womanâ	-5083
▁Another	-5084
▁library	-5085
▁consolation	-5086
▁Ã	-5087
bar	-5088
sec	-5089
aved	-5090
itch	-5091
oked	-5092
then	-5093
▁Gen	-5094
▁hoo	-5095
rived	-5096
urday	-5097
▁Poor	-5098
▁obst	-5099
▁ride	-5100
▁unus	-5101
keeper	-5102
licity	-5103
utions	-5104
▁Frank	-5105
▁House	-5106
▁facts	-5107
▁frost	-5108
▁landl	-5109
▁belief	-5110
▁encoun	-5111
▁helped	-5112
▁refuse	-5113
▁whaleâ	-5114
▁Drummle	-5115
▁beloved	-5116
▁chamber	-5117
▁actually	-5118
▁entrance	-5119
▁marrying	-5120
▁mountain	-5121
▁thorough	-5122
▁hurriedly	-5123
▁succeeded	-5124
3,	-5125
Pro	-5126
▁XI	-5127
▁eh	-5128
Youâ	-5129
osen	-5130
seen	-5131
ults	-5132
▁Mor	-5133
▁buy	-5134
▁row	-5135
iture	-5136
ugust	-5137
▁chin	-5138
▁gaze	-5139
▁stoo	-5140
▁tide	-5141
ecause	-5142
rences	-5143
▁Green	-5144
▁disag	-5145
▁drank	-5146
▁ranks	-5147
▁yards	-5148
itement	-5149
▁hollow	-5150
▁modern	-5151
▁patron	-5152
▁pieces	-5153
▁preced	-5154
▁settle	-5155
▁enthusi	-5156
▁measure	-5157
▁objects	-5158
▁enormous	-5159
▁independ	-5160
▁troubled	-5161
▁committed	-5162
▁conscience	-5163
jun	-5164
▁dâ	-5165
iven	-5166
yard	-5167
▁elo	-5168
▁ere	-5169
▁Give	-5170
▁Next	-5171
▁gown	-5172
▁gray	-5173
▁rope	-5174
▁train	-5175
respond	-5176
▁excess	-5177
▁loving	-5178
▁strang	-5179
▁thinks	-5180
▁darling	-5181
▁driving	-5182
▁willing	-5183
▁Saturday	-5184
▁material	-5185
▁pictures	-5186
▁powerful	-5187
▁inhabitants	-5188
▁reflections	-5189
cer	-5190
▁Er	-5191
▁VI	-5192
▁dig	-5193
ipped	-5194
▁Brit	-5195
▁bows	-5196
▁oars	-5197
liance	-5198
racted	-5199
▁Jonah	-5200
▁alter	-5201
▁crack	-5202
▁greet	-5203
▁horiz	-5204
▁patri	-5205
▁shade	-5206
▁shone	-5207
▁treas	-5208
▁trial	-5209
▁widow	-5210
uddenly	-5211
▁apolog	-5212
▁behold	-5213
▁coffee	-5214
▁envelo	-5215
▁paying	-5216
▁pistol	-5217
▁sighed	-5218
▁remembr	-5219
fordshire	-5220
▁Tellsonâ	-5221
▁affected	-5222
▁agitated	-5223
▁crossing	-5224
▁demanded	-5225
▁gracious	-5226
▁grateful	-5227
▁humanity	-5228
zh	-5229
ilÃ	-5230
pro	-5231
umer	-5232
▁nob	-5233
▁slo	-5234
astic	-5235
osure	-5236
▁whir	-5237
acious	-5238
▁Italy	-5239
▁Right	-5240
▁cries	-5241
▁indul	-5242
▁owner	-5243
▁purch	-5244
▁swear	-5245
▁domest	-5246
▁embarr	-5247
▁extent	-5248
▁folded	-5249
▁hither	-5250
▁interf	-5251
▁picked	-5252
▁terrif	-5253
▁correct	-5254
▁devoted	-5255
▁figures	-5256
▁readily	-5257
▁Ladyship	-5258
▁imagined	-5259
▁reception	-5260
▁suggested	-5261
▁thousands	-5262
▁observation	-5263
LE	-5264
aper	-5265
plex	-5266
your	-5267
▁IvÃ	-5268
▁Jud	-5269
▁Ste	-5270
alled	-5271
▁Hert	-5272
▁Ital	-5273
▁Must	-5274
▁insp	-5275
▁lane	-5276
▁mate	-5277
▁sang	-5278
▁silk	-5279
▁tend	-5280
▁torn	-5281
▁vers	-5282
isting	-5283
riages	-5284
▁Ahabâ	-5285
▁dirty	-5286
▁intim	-5287
▁endure	-5288
▁failed	-5289
▁guests	-5290
▁hussar	-5291
▁jumped	-5292
▁manage	-5293
▁mortal	-5294
▁phrase	-5295
▁ruined	-5296
▁wicked	-5297
▁conceal	-5298
▁contrad	-5299
▁nervous	-5300
▁surface	-5301
▁examined	-5302
▁inquiries	-5303
▁intervals	-5304
▁excitement	-5305
▁sensations	-5306
▁distribution	-5307
**	-5308
Be	-5309
ns	-5310
ENT	-5311
▁Tr	-5312
when	-5313
▁Any	-5314
▁ate	-5315
▁dip	-5316
▁ing	-5317
arded	-5318
otter	-5319
▁Span	-5320
▁Wats	-5321
▁obey	-5322
▁rule	-5323
▁seam	-5324
asting	-5325
▁birds	-5326
▁bones	-5327
▁chase	-5328
▁north	-5329
▁shake	-5330
▁smart	-5331
▁stuck	-5332
▁Bourgh	-5333
▁Joseph	-5334
▁active	-5335
▁chosen	-5336
▁condem	-5337
▁doesnâ	-5338
▁fields	-5339
▁guilty	-5340
▁abandon	-5341
▁rolling	-5342
▁KutÃozovâ	-5343
▁extremely	-5344
▁staircase	-5345
▁correspond	-5346
▁unpleasant	-5347
▁Hertfordshire	-5348
▁8	-5349
yer	-5350
▁Ts	-5351
▁Sid	-5352
▁YOU	-5353
▁ban	-5354
▁fru	-5355
▁wag	-5356
place	-5357
▁cell	-5358
▁cere	-5359
▁corp	-5360
▁eleg	-5361
▁hind	-5362
▁lone	-5363
▁quit	-5364
anting	-5365
▁dwell	-5366
▁fatig	-5367
▁forms	-5368
▁mercy	-5369
▁snuff	-5370
▁trick	-5371
▁truly	-5372
▁Lydiaâ	-5373
▁burned	-5374
▁medium	-5375
▁served	-5376
▁useful	-5377
▁assumed	-5378
▁convict	-5379
▁mystery	-5380
▁remarks	-5381
▁Cossacks	-5382
▁judgment	-5383
▁overcome	-5384
▁separate	-5385
▁sergeant	-5386
▁persuaded	-5387
▁professor	-5388
▁Everything	-5389
RS	-5390
yÃ	-5391
ara	-5392
boy	-5393
isk	-5394
urd	-5395
vsâ	-5396
▁Te	-5397
▁Tw	-5398
mber	-5399
▁bew	-5400
▁del	-5401
▁fix	-5402
▁gle	-5403
▁job	-5404
alley	-5405
▁Moby	-5406
▁hers	-5407
▁jeal	-5408
▁vice	-5409
omfort	-5410
▁Other	-5411
▁Power	-5412
▁avail	-5413
▁favor	-5414
▁fears	-5415
▁views	-5416
▁Watson	-5417
▁butter	-5418
▁eldest	-5419
▁esteem	-5420
▁indign	-5421
▁inevit	-5422
▁smiles	-5423
▁stones	-5424
▁details	-5425
▁parties	-5426
▁perplex	-5427
▁smoking	-5428
▁describe	-5429
▁inclined	-5430
▁ordinary	-5431
▁trousers	-5432
▁apprehens	-5433
▁companions	-5434
▁mysterious	-5435
▁reasonable	-5436
ARR	-5437
God	-5438
OOK	-5439
▁II	-5440
▁NO	-5441
iday	-5442
khon	-5443
ouis	-5444
▁Lev	-5445
▁Tem	-5446
▁jer	-5447
▁ple	-5448
▁tot	-5449
acher	-5450
ignam	-5451
igsen	-5452
istic	-5453
itate	-5454
onday	-5455
opold	-5456
ydney	-5457
▁Duke	-5458
▁duke	-5459
▁gain	-5460
▁grim	-5461
▁puff	-5462
▁scra	-5463
▁wolf	-5464
orious	-5465
▁Mamma	-5466
▁Would	-5467
▁absor	-5468
▁bench	-5469
▁frame	-5470
▁major	-5471
▁minds	-5472
▁skill	-5473
▁squad	-5474
▁wifeâ	-5475
▁crying	-5476
▁disord	-5477
▁lights	-5478
▁smooth	-5479
▁Florent	-5480
▁bedroom	-5481
▁deliber	-5482
▁flowers	-5483
▁precise	-5484
▁problem	-5485
▁sailors	-5486
▁visited	-5487
▁domestic	-5488
▁formerly	-5489
▁included	-5490
▁persuade	-5491
▁breathing	-5492
▁congratul	-5493
▁collection	-5494
OE	-5495
▁Pr	-5496
▁TH	-5497
eers	-5498
illa	-5499
ribe	-5500
udes	-5501
▁rad	-5502
▁sty	-5503
▁Gree	-5504
▁lift	-5505
▁memb	-5506
▁obsc	-5507
▁pace	-5508
▁SperÃ	-5509
▁brain	-5510
▁depth	-5511
▁notes	-5512
▁suite	-5513
▁firmly	-5514
▁hidden	-5515
▁locked	-5516
▁season	-5517
▁series	-5518
▁taught	-5519
▁Forster	-5520
▁battery	-5521
▁harpoon	-5522
▁invited	-5523
▁letting	-5524
▁obvious	-5525
▁partner	-5526
▁seeking	-5527
▁setting	-5528
▁Suddenly	-5529
▁Bennigsen	-5530
▁prevented	-5531
▁protected	-5532
▁attentions	-5533
▁everywhere	-5534
rs	-5535
eva	-5536
urÃ	-5537
geon	-5538
lier	-5539
vant	-5540
▁180	-5541
▁III	-5542
▁Mac	-5543
▁Roy	-5544
▁ZOE	-5545
▁cig	-5546
▁unw	-5547
ildad	-5548
otted	-5549
▁Vict	-5550
▁east	-5551
▁meat	-5552
▁abhor	-5553
▁exert	-5554
▁incon	-5555
▁raise	-5556
▁Dignam	-5557
▁begged	-5558
▁betray	-5559
▁dining	-5560
▁pardon	-5561
▁Marquis	-5562
▁conject	-5563
▁cutting	-5564
▁fifteen	-5565
▁improve	-5566
▁jealous	-5567
▁continue	-5568
▁struggle	-5569
▁household	-5570
▁sacrifice	-5571
▁comfortable	-5572
▁indifference	-5573
9.	-5574
Qu	-5575
000	-5576
bor	-5577
fty	-5578
ili	-5579
Will	-5580
chan	-5581
just	-5582
oses	-5583
stem	-5584
▁Ill	-5585
▁Kar	-5586
▁Mag	-5587
▁Whe	-5588
▁cli	-5589
▁ech	-5590
▁hom	-5591
▁pan	-5592
▁pow	-5593
Thank	-5594
chair	-5595
uable	-5596
▁damp	-5597
▁grie	-5598
▁hang	-5599
▁rear	-5600
illery	-5601
leased	-5602
ularly	-5603
▁About	-5604
▁brave	-5605
▁inner	-5606
▁sport	-5607
▁Monday	-5608
▁Sydney	-5609
▁abroad	-5610
▁arrest	-5611
▁bought	-5612
▁jacket	-5613
▁lately	-5614
▁praise	-5615
▁surely	-5616
▁transf	-5617
▁Cunning	-5618
▁crowded	-5619
▁illness	-5620
▁inquiry	-5621
▁liberty	-5622
▁pockets	-5623
▁produce	-5624
▁quitted	-5625
▁Austrian	-5626
▁instinct	-5627
▁resolute	-5628
▁confident	-5629
▁seriously	-5630
▁particulars	-5631
▁recollection	-5632
nÃ	-5633
itâ	-5634
rem	-5635
ums	-5636
iant	-5637
shop	-5638
▁Der	-5639
▁Mil	-5640
▁Tra	-5641
▁hab	-5642
iving	-5643
▁1894	-5644
▁Bald	-5645
▁crit	-5646
▁elev	-5647
▁flat	-5648
▁inex	-5649
▁mile	-5650
▁pier	-5651
asions	-5652
uously	-5653
▁Sever	-5654
▁acted	-5655
▁antic	-5656
▁block	-5657
▁elbow	-5658
▁exhib	-5659
▁manif	-5660
▁quant	-5661
▁stage	-5662
ressing	-5663
▁August	-5664
▁Bildad	-5665
▁coarse	-5666
▁divine	-5667
▁hatred	-5668
▁poured	-5669
▁propri	-5670
▁stayed	-5671
▁careful	-5672
▁follows	-5673
▁gesture	-5674
▁nearest	-5675
▁brothers	-5676
▁exercise	-5677
▁fighting	-5678
▁footstep	-5679
▁guardian	-5680
▁physical	-5681
▁uncommon	-5682
▁vanished	-5683
▁Havishamâ	-5684
▁disturbed	-5685
▁Cunningham	-5686
col	-5687
ids	-5688
oft	-5689
▁10	-5690
▁ge	-5691
▁iv	-5692
▁ta	-5693
fall	-5694
ilst	-5695
ulse	-5696
▁Fin	-5697
▁Mal	-5698
▁Nes	-5699
▁pil	-5700
▁tur	-5701
Uncle	-5702
hered	-5703
inent	-5704
press	-5705
▁eyeb	-5706
▁glit	-5707
▁grav	-5708
▁lake	-5709
▁nois	-5710
▁rang	-5711
▁shru	-5712
▁tied	-5713
▁wept	-5714
acques	-5715
father	-5716
isions	-5717
liness	-5718
▁Hills	-5719
▁Peter	-5720
▁TÃosh	-5721
▁armed	-5722
▁brief	-5723
▁desir	-5724
▁dozen	-5725
▁overt	-5726
▁urged	-5727
ilities	-5728
▁battal	-5729
▁duties	-5730
▁nights	-5731
▁unlike	-5732
▁Leopold	-5733
▁emotion	-5734
▁enemies	-5735
▁foolish	-5736
▁parents	-5737
▁pulling	-5738
▁reality	-5739
▁respons	-5740
▁treated	-5741
▁attitude	-5742
▁belonged	-5743
▁departed	-5744
▁disagree	-5745
▁sleeping	-5746
▁stopping	-5747
▁Therefore	-5748
▁execution	-5749
▁performed	-5750
▁sensation	-5751
▁uncertain	-5752
▁attachment	-5753
▁reputation	-5754
▁expectation	-5755
▁accomplished	-5756
▁nevertheless	-5757
8.	-5758
ari	-5759
gue	-5760
mas	-5761
▁Mâ	-5762
bell	-5763
▁Bog	-5764
▁CON	-5765
▁tit	-5766
▁vir	-5767
▁won	-5768
▁wre	-5769
iance	-5770
rough	-5771
urity	-5772
▁IlyÃ	-5773
▁Most	-5774
▁hole	-5775
▁irre	-5776
▁merc	-5777
▁peep	-5778
▁prec	-5779
▁sear	-5780
pelled	-5781
▁Allen	-5782
▁Louis	-5783
▁clock	-5784
▁rules	-5785
▁souls	-5786
▁wheel	-5787
hearted	-5788
▁Indian	-5789
▁conven	-5790
▁eating	-5791
▁flower	-5792
▁prayer	-5793
▁remind	-5794
▁reward	-5795
attering	-5796
▁chimney	-5797
▁cleared	-5798
▁complex	-5799
▁escaped	-5800
▁lightly	-5801
▁admitted	-5802
▁obtained	-5803
rehensible	-5804
▁carriages	-5805
▁recognized	-5806
▁significance	-5807
Heâ	-5808
irm	-5809
mee	-5810
▁ga	-5811
enes	-5812
pers	-5813
rant	-5814
some	-5815
▁Alf	-5816
▁coo	-5817
agger	-5818
faced	-5819
oting	-5820
▁KurÃ	-5821
▁Once	-5822
▁Soon	-5823
▁Very	-5824
▁dawn	-5825
▁ming	-5826
▁neat	-5827
▁rush	-5828
master	-5829
▁James	-5830
▁Peleg	-5831
▁badly	-5832
▁clerk	-5833
▁hated	-5834
▁hereâ	-5835
▁niece	-5836
▁south	-5837
▁tramp	-5838
▁uneas	-5839
henomen	-5840
william	-5841
▁Little	-5842
▁gather	-5843
▁resent	-5844
▁Italian	-5845
▁anticip	-5846
▁becomes	-5847
▁closely	-5848
▁funeral	-5849
▁license	-5850
▁members	-5851
▁refused	-5852
▁captured	-5853
▁disgrace	-5854
▁murdered	-5855
▁noticing	-5856
▁proposed	-5857
▁artillery	-5858
▁fortunate	-5859
▁objection	-5860
▁repeating	-5861
▁uncomfort	-5862
▁vengeance	-5863
▁harpooneer	-5864
▁Fitzwilliam	-5865
TR	-5866
▁7	-5867
▁Â	-5868
een	-5869
▁Gl	-5870
outs	-5871
umin	-5872
▁AND	-5873
▁bay	-5874
▁wip	-5875
▁clim	-5876
▁mach	-5877
▁prem	-5878
▁sust	-5879
▁weap	-5880
atched	-5881
minded	-5882
▁Julie	-5883
▁Whatâ	-5884
▁awoke	-5885
▁calls	-5886
▁organ	-5887
natured	-5888
ounding	-5889
▁Conmee	-5890
▁countâ	-5891
▁posted	-5892
▁rubles	-5893
▁theory	-5894
▁wheels	-5895
▁admired	-5896
▁constit	-5897
▁inspect	-5898
formation	-5899
▁building	-5900
▁creation	-5901
▁landlord	-5902
▁likewise	-5903
▁pressing	-5904
▁restored	-5905
▁revealed	-5906
▁singular	-5907
▁wandered	-5908
▁enjoyment	-5909
▁exhausted	-5910
▁movements	-5911
▁increasing	-5912
▁distributed	-5913
▁established	-5914
▁remembrance	-5915
▁unexpectedly	-5916
,_	-5917
AM	-5918
NY	-5919
]]	-5920
za	-5921
het	-5922
jud	-5923
pet	-5924
pit	-5925
▁[_	-5926
back	-5927
reci	-5928
rels	-5929
▁hed	-5930
▁hit	-5931
▁shi	-5932
isure	-5933
stein	-5934
▁Mess	-5935
▁Wait	-5936
▁ling	-5937
▁onto	-5938
▁spec	-5939
▁surv	-5940
▁Could	-5941
▁NesvÃ	-5942
▁apply	-5943
▁gover	-5944
▁plump	-5945
▁spark	-5946
Nothing	-5947
▁Temple	-5948
▁arrive	-5949
▁beings	-5950
▁corpor	-5951
▁enemyâ	-5952
▁energy	-5953
▁madame	-5954
▁wretch	-5955
▁Jacques	-5956
▁contain	-5957
▁dragged	-5958
▁encoura	-5959
▁glasses	-5960
▁mounted	-5961
▁shadows	-5962
▁thanked	-5963
Copyright	-5964
▁becoming	-5965
▁commence	-5966
▁disposed	-5967
▁frowning	-5968
▁reminded	-5969
▁whalemen	-5970
▁directions	-5971
▁communication	-5972
aÃ	-5973
ds	-5974
gu	-5975
ok	-5976
Ind	-5977
uly	-5978
▁RE	-5979
arts	-5980
time	-5981
▁PRO	-5982
▁lan	-5983
▁log	-5984
▁ske	-5985
▁spy	-5986
smith	-5987
▁Rome	-5988
▁Take	-5989
▁fled	-5990
▁male	-5991
▁shel	-5992
▁size	-5993
iality	-5994
isible	-5995
ortion	-5996
▁Injun	-5997
▁Roman	-5998
▁arise	-5999
▁benev	-6000
▁blank	-6001
▁fatal	-6002
▁flour	-6003
▁fount	-6004
▁gates	-6005
▁irres	-6006
▁lofty	-6007
▁shoot	-6008
▁steel	-6009
▁Provis	-6010
▁attrib	-6011
▁buried	-6012
▁crimin	-6013
▁danced	-6014
▁mechan	-6015
▁mirror	-6016
▁modest	-6017
▁partly	-6018
▁resist	-6019
▁scheme	-6020
▁anguish	-6021
▁despite	-6022
▁heavens	-6023
▁kingdom	-6024
▁leisure	-6025
▁lifting	-6026
▁mankind	-6027
▁remorse	-6028
▁division	-6029
▁probable	-6030
▁quantity	-6031
▁reaching	-6032
▁Presently	-6033
▁supposing	-6034
▁astonished	-6035
▁displaying	-6036
▁historical	-6037
▁instrument	-6038
▁tenderness	-6039
▁disappointment	-6040
ams	-6041
oom	-6042
._]]	-6043
Dear	-6044
camp	-6045
oles	-6046
reem	-6047
ties	-6048
▁Bur	-6049
▁Ned	-6050
▁Say	-6051
▁bas	-6052
▁egg	-6053
▁unb	-6054
oever	-6055
uries	-6056
▁Aunt	-6057
▁BilÃ	-6058
▁boot	-6059
▁park	-6060
ighted	-6061
imming	-6062
istrib	-6063
ouring	-6064
▁Hurst	-6065
▁South	-6066
▁Under	-6067
▁balls	-6068
▁brand	-6069
▁corps	-6070
▁craft	-6071
▁lover	-6072
▁skull	-6073
▁Geneva	-6074
▁bodies	-6075
▁incomp	-6076
▁longed	-6077
▁roused	-6078
▁united	-6079
▁victim	-6080
▁warmth	-6081
▁Without	-6082
▁applied	-6083
▁degrees	-6084
▁eternal	-6085
▁princes	-6086
▁composed	-6087
▁embraced	-6088
▁offended	-6089
▁collected	-6090
▁education	-6091
▁encourage	-6092
▁establish	-6093
▁preparing	-6094
▁unnatural	-6095
▁distribute	-6096
▁uncomfortable	-6097
2.	-6098
va	-6099
aks	-6100
eng	-6101
him	-6102
lls	-6103
lom	-6104
▁od	-6105
umpt	-6106
▁loo	-6107
▁unl	-6108
agers	-6109
aines	-6110
inity	-6111
▁Both	-6112
▁Turk	-6113
▁Upon	-6114
▁jury	-6115
▁lest	-6116
umbers	-6117
verted	-6118
▁March	-6119
▁exped	-6120
▁feels	-6121
▁wasnâ	-6122
raction	-6123
▁Master	-6124
▁Victor	-6125
▁closer	-6126
▁courty	-6127
▁darted	-6128
▁dreams	-6129
▁fought	-6130
▁laying	-6131
▁rested	-6132
▁current	-6133
▁managed	-6134
▁sending	-6135
▁definite	-6136
▁executed	-6137
▁reported	-6138
▁sideways	-6139
▁wondered	-6140
▁attracted	-6141
▁descended	-6142
▁separated	-6143
▁tranquill	-6144
▁politeness	-6145
▁instructions	-6146
5.	-6147
By	-6148
ma	-6149
▁-	-6150
ANT	-6151
IES	-6152
eep	-6153
omb	-6154
rey	-6155
▁17	-6156
boat	-6157
ools	-6158
▁Dol	-6159
▁Gar	-6160
▁Rem	-6161
▁unm	-6162
bbing	-6163
▁bone	-6164
▁clut	-6165
▁farm	-6166
▁joke	-6167
▁mock	-6168
▁sunk	-6169
▁Death	-6170
▁Molly	-6171
▁daily	-6172
▁pains	-6173
▁screw	-6174
▁sheet	-6175
Project	-6176
iveness	-6177
▁armies	-6178
▁select	-6179
▁concent	-6180
▁divided	-6181
▁endured	-6182
▁mission	-6183
▁replace	-6184
▁reports	-6185
▁species	-6186
▁variety	-6187
▁minister	-6188
▁phenomen	-6189
▁solitude	-6190
▁concealed	-6191
▁delivered	-6192
▁furniture	-6193
▁interests	-6194
▁strangely	-6195
▁additional	-6196
▁commission	-6197
▁distinctly	-6198
▁intellectual	-6199
6.	-6200
BER	-6201
HER	-6202
ads	-6203
can	-6204
ded	-6205
esp	-6206
ols	-6207
ski	-6208
two	-6209
alls	-6210
ello	-6211
▁Dou	-6212
▁Pre	-6213
▁Sec	-6214
▁Vir	-6215
▁aut	-6216
aning	-6217
ucked	-6218
uming	-6219
▁Bank	-6220
▁Many	-6221
▁Scot	-6222
▁Turn	-6223
▁adop	-6224
▁flow	-6225
▁pred	-6226
▁rude	-6227
▁Black	-6228
▁borne	-6229
▁bride	-6230
▁built	-6231
▁cease	-6232
▁chain	-6233
▁chose	-6234
▁ended	-6235
▁forge	-6236
▁guilt	-6237
▁ivory	-6238
▁madam	-6239
▁milit	-6240
▁naked	-6241
▁stret	-6242
▁collar	-6243
▁condes	-6244
▁deeper	-6245
▁defend	-6246
▁halted	-6247
▁incred	-6248
▁larger	-6249
▁nation	-6250
▁safety	-6251
▁shouts	-6252
▁strict	-6253
▁tossed	-6254
▁whilst	-6255
▁blushed	-6256
▁shortly	-6257
▁slipped	-6258
▁wrapped	-6259
▁Stephenâ	-6260
▁bestowed	-6261
▁coachman	-6262
▁husbandâ	-6263
▁trembled	-6264
▁Leviathan	-6265
▁assembled	-6266
▁commanded	-6267
▁confirmed	-6268
▁courtyard	-6269
▁desperate	-6270
▁dissatisf	-6271
▁happening	-6272
▁lightning	-6273
▁qualities	-6274
▁inclination	-6275
▁disagreeable	-6276
▁z	-6277
bin	-6278
bye	-6279
eds	-6280
ugg	-6281
uts	-6282
▁14	-6283
ints	-6284
ourt	-6285
umps	-6286
▁Him	-6287
▁Out	-6288
▁dil	-6289
▁lip	-6290
▁rom	-6291
▁Cont	-6292
▁brid	-6293
▁cock	-6294
▁corn	-6295
▁doct	-6296
▁kick	-6297
▁noon	-6298
▁prod	-6299
▁prud	-6300
▁rail	-6301
▁sees	-6302
▁sink	-6303
▁tore	-6304
▁wing	-6305
Indeed	-6306
oubted	-6307
▁North	-6308
▁Young	-6309
▁flung	-6310
▁hadnâ	-6311
▁legal	-6312
▁peril	-6313
▁recon	-6314
▁serfs	-6315
▁steam	-6316
▁style	-6317
achiave	-6318
umbling	-6319
▁Boylan	-6320
▁Haines	-6321
▁contro	-6322
▁diplom	-6323
▁eleven	-6324
▁hiding	-6325
▁lasted	-6326
▁lonely	-6327
▁notion	-6328
▁unwill	-6329
▁vanity	-6330
▁Bennetâ	-6331
▁altered	-6332
▁candles	-6333
▁patriot	-6334
▁printed	-6335
▁steward	-6336
▁travell	-6337
▁utterly	-6338
▁Wickhamâ	-6339
▁acquired	-6340
▁contrast	-6341
▁deceived	-6342
▁hundreds	-6343
▁interval	-6344
▁perceive	-6345
▁treasure	-6346
▁violence	-6347
▁Christian	-6348
▁answering	-6349
▁misfortun	-6350
▁shillings	-6351
▁tormented	-6352
▁waistcoat	-6353
▁sufferings	-6354
▁difficulties	-6355
Ex	-6356
IL	-6357
1⁄4	-6358
:--	-6359
His	-6360
Tom	-6361
nes	-6362
pri	-6363
rim	-6364
▁Ed	-6365
▁ec	-6366
Miss	-6367
chie	-6368
lick	-6369
▁asc	-6370
▁gig	-6371
▁lur	-6372
▁pir	-6373
aging	-6374
anges	-6375
urned	-6376
▁Love	-6377
▁base	-6378
▁buck	-6379
▁dine	-6380
▁ends	-6381
▁flag	-6382
▁lack	-6383
▁menâ	-6384
▁rout	-6385
▁vale	-6386
▁whit	-6387
▁Which	-6388
▁blows	-6389
▁frank	-6390
▁heels	-6391
▁invol	-6392
▁needs	-6393
▁oblig	-6394
▁steep	-6395
▁thumb	-6396
▁trace	-6397
▁KaratÃ	-6398
▁centre	-6399
▁invest	-6400
▁pursue	-6401
▁system	-6402
ertainly	-6403
▁Several	-6404
▁confirm	-6405
▁enjoyed	-6406
▁leather	-6407
▁recover	-6408
▁resumed	-6409
▁satisfy	-6410
▁attacked	-6411
▁comrades	-6412
▁frequent	-6413
▁generous	-6414
▁millions	-6415
achiavelli	-6416
▁earnestly	-6417
▁encounter	-6418
▁meanwhile	-6419
▁occasions	-6420
▁permitted	-6421
▁providing	-6422
▁reference	-6423
▁scattered	-6424
▁impatience	-6425
▁spectacles	-6426
▁attentively	-6427
▁description	-6428
▁misfortunes	-6429
▁respectable	-6430
cr	-6431
nn	-6432
iel	-6433
olic	-6434
quar	-6435
umes	-6436
wood	-6437
▁***	-6438
▁sho	-6439
▁wax	-6440
erves	-6441
evich	-6442
▁phot	-6443
▁sons	-6444
▁vest	-6445
▁Maryâ	-6446
▁accur	-6447
▁aloft	-6448
▁angel	-6449
▁awake	-6450
▁beard	-6451
▁branc	-6452
▁fanci	-6453
▁grasp	-6454
▁haste	-6455
▁trade	-6456
▁absurd	-6457
▁holder	-6458
▁hungry	-6459
▁scenes	-6460
▁uneasy	-6461
▁valley	-6462
▁feather	-6463
▁argument	-6464
▁awaiting	-6465
▁benefact	-6466
▁faithful	-6467
▁merchant	-6468
▁patience	-6469
▁pleasing	-6470
▁squadron	-6471
▁announced	-6472
▁substance	-6473
▁suspected	-6474
▁containing	-6475
ITY	-6476
▁11	-6477
▁Gr	-6478
▁Ven	-6479
▁Wal	-6480
▁gla	-6481
ashes	-6482
venue	-6483
▁Aged	-6484
▁dang	-6485
▁dayâ	-6486
▁dece	-6487
▁grin	-6488
▁nigh	-6489
▁puzz	-6490
▁salt	-6491
▁tack	-6492
pended	-6493
▁Among	-6494
▁brisk	-6495
▁cloth	-6496
▁desol	-6497
▁erect	-6498
▁limbs	-6499
▁marks	-6500
▁purse	-6501
▁vivid	-6502
amation	-6503
enstein	-6504
▁Wonder	-6505
▁amount	-6506
▁gloves	-6507
▁joyful	-6508
▁portra	-6509
▁prayed	-6510
▁relate	-6511
▁reluct	-6512
▁tempor	-6513
▁beating	-6514
▁bending	-6515
▁cunning	-6516
▁dislike	-6517
▁fearful	-6518
▁sounded	-6519
▁unusual	-6520
▁eyebrows	-6521
▁knitting	-6522
▁opinions	-6523
▁valuable	-6524
▁wondrous	-6525
▁advancing	-6526
▁assurance	-6527
▁observing	-6528
▁principal	-6529
▁glittering	-6530
▁introduced	-6531
▁motionless	-6532
▁Florentines	-6533
▁Machiavelli	-6534
▁application	-6535
ECT	-6536
LOR	-6537
Per	-6538
nal	-6539
rue	-6540
▁oh	-6541
ayed	-6542
ider	-6543
peak	-6544
sovâ	-6545
▁pos	-6546
▁ren	-6547
▁sne	-6548
Never	-6549
eling	-6550
▁Ciss	-6551
▁June	-6552
▁Mill	-6553
▁file	-6554
▁flut	-6555
idents	-6556
▁Uncle	-6557
▁bloom	-6558
▁cover	-6559
▁haven	-6560
▁owing	-6561
▁sweep	-6562
▁union	-6563
▁Austen	-6564
▁Bloomâ	-6565
▁Church	-6566
▁button	-6567
▁develo	-6568
▁fourth	-6569
▁habits	-6570
▁hoarse	-6571
▁mental	-6572
▁social	-6573
▁source	-6574
standing	-6575
▁alarmed	-6576
▁comrade	-6577
▁copying	-6578
▁enchant	-6579
▁expense	-6580
▁frowned	-6581
▁knocked	-6582
▁patient	-6583
▁prosper	-6584
▁Republic	-6585
▁fountain	-6586
▁heartily	-6587
▁ignorance	-6588
▁interview	-6589
▁invisible	-6590
▁violently	-6591
▁commanders	-6592
▁comparison	-6593
▁constantly	-6594
▁occupation	-6595
▁philosophy	-6596
!)	-6597
Aye	-6598
May	-6599
aud	-6600
noe	-6601
pir	-6602
▁IN	-6603
▁IV	-6604
▁La	-6605
From	-6606
Tell	-6607
aret	-6608
▁Ber	-6609
▁Sch	-6610
▁blo	-6611
▁fol	-6612
▁scr	-6613
▁shr	-6614
▁shy	-6615
ators	-6616
lance	-6617
▁Comp	-6618
▁Lucc	-6619
▁Mock	-6620
▁Pray	-6621
▁Tash	-6622
▁defe	-6623
Thereâ	-6624
ension	-6625
jected	-6626
ulting	-6627
▁Gerty	-6628
▁Grand	-6629
▁equip	-6630
▁fetch	-6631
▁level	-6632
▁mixed	-6633
▁older	-6634
▁outer	-6635
▁penet	-6636
▁Turtle	-6637
▁corpse	-6638
▁fitted	-6639
▁hunger	-6640
▁musket	-6641
▁repeat	-6642
▁fancied	-6643
▁friendâ	-6644
▁prolong	-6645
▁staying	-6646
▁swiftly	-6647
▁absorbed	-6648
▁branches	-6649
▁delicacy	-6650
▁deserted	-6651
▁dropping	-6652
▁extended	-6653
▁referred	-6654
▁composure	-6655
▁footsteps	-6656
▁acknowledged	-6657
4.	-6658
Ay	-6659
Ch	-6660
IG	-6661
omy	-6662
▁Eh	-6663
▁ep	-6664
anim	-6665
away	-6666
lict	-6667
peys	-6668
phon	-6669
stri	-6670
▁XII	-6671
▁XXV	-6672
▁atm	-6673
▁bat	-6674
▁flu	-6675
▁pig	-6676
▁emer	-6677
▁mars	-6678
▁nurs	-6679
▁refr	-6680
▁rese	-6681
▁roar	-6682
asping	-6683
▁Derby	-6684
▁Janeâ	-6685
▁disch	-6686
▁guine	-6687
▁haunt	-6688
▁hence	-6689
▁hills	-6690
▁loves	-6691
▁numer	-6692
▁risen	-6693
▁sheep	-6694
▁squee	-6695
▁winds	-6696
▁Potter	-6697
▁calmly	-6698
▁hammer	-6699
▁missed	-6700
▁motive	-6701
▁perpet	-6702
▁sacred	-6703
iciently	-6704
▁Heading	-6705
▁Philips	-6706
▁Through	-6707
▁Whether	-6708
▁accused	-6709
▁contrib	-6710
▁doorway	-6711
▁harness	-6712
▁peopleâ	-6713
▁hastened	-6714
▁mistress	-6715
▁troubles	-6716
▁ventured	-6717
▁impatient	-6718
ION	-6719
alÃ	-6720
lla	-6721
mpt	-6722
olo	-6723
ros	-6724
ples	-6725
utch	-6726
▁aye	-6727
▁gru	-6728
▁hun	-6729
▁lev	-6730
▁lux	-6731
▁sex	-6732
▁tum	-6733
Which	-6734
inate	-6735
table	-6736
ulted	-6737
unken	-6738
▁fees	-6739
▁gets	-6740
▁lads	-6741
Uncleâ	-6742
ollard	-6743
▁coast	-6744
▁debts	-6745
▁marin	-6746
▁miser	-6747
▁sorts	-6748
▁stamp	-6749
▁tread	-6750
inction	-6751
utenant	-6752
▁Orlick	-6753
▁atmosp	-6754
▁incess	-6755
▁majest	-6756
▁pillow	-6757
▁poison	-6758
▁prompt	-6759
▁recent	-6760
▁sailed	-6761
▁status	-6762
▁TÃoshin	-6763
▁capture	-6764
▁curtain	-6765
▁disturb	-6766
▁lantern	-6767
▁nations	-6768
▁resting	-6769
▁ringing	-6770
▁sternly	-6771
▁blessing	-6772
▁hopeless	-6773
▁incident	-6774
▁preserve	-6775
▁relieved	-6776
▁religion	-6777
▁summoned	-6778
▁attentive	-6779
▁childhood	-6780
▁daughterâ	-6781
▁essential	-6782
▁compliance	-6783
▁tranquillity	-6784
An	-6785
tr	-6786
car	-6787
icy	-6788
ork	-6789
▁Pf	-6790
,000	-6791
aned	-6792
irts	-6793
lour	-6794
olst	-6795
▁Lam	-6796
▁Ter	-6797
▁bla	-6798
▁qui	-6799
▁tal	-6800
▁tid	-6801
▁woe	-6802
apsed	-6803
ifted	-6804
▁Tsar	-6805
▁bund	-6806
▁cult	-6807
▁disd	-6808
▁ratt	-6809
▁based	-6810
▁coron	-6811
▁cough	-6812
▁marve	-6813
▁skirt	-6814
▁solid	-6815
atively	-6816
▁Bright	-6817
▁affect	-6818
▁altern	-6819
▁barbar	-6820
▁exting	-6821
▁insign	-6822
▁senses	-6823
▁supply	-6824
▁declare	-6825
▁marshes	-6826
▁missing	-6827
▁parting	-6828
▁compared	-6829
▁daylight	-6830
▁editions	-6831
▁floating	-6832
▁hitherto	-6833
▁insisted	-6834
▁murmured	-6835
▁neighbor	-6836
▁reserved	-6837
▁Christmas	-6838
▁amazement	-6839
▁consisted	-6840
▁exception	-6841
▁recommend	-6842
▁slightest	-6843
▁universal	-6844
▁wondering	-6845
▁enthusiasm	-6846
▁pronounced	-6847
▁requirements	-6848
▁sufficiently	-6849
AB	-6850
AI	-6851
Al	-6852
wr	-6853
len	-6854
rog	-6855
son	-6856
▁Ni	-6857
acon	-6858
aise	-6859
llen	-6860
omed	-6861
tego	-6862
▁Cle	-6863
▁Gry	-6864
▁fer	-6865
▁hay	-6866
heads	-6867
irect	-6868
peare	-6869
piece	-6870
ugged	-6871
▁Five	-6872
▁Life	-6873
▁VIII	-6874
▁chem	-6875
▁club	-6876
▁fain	-6877
▁glow	-6878
▁oath	-6879
▁slip	-6880
▁sobs	-6881
▁sonâ	-6882
▁term	-6883
▁veil	-6884
olence	-6885
▁alike	-6886
▁drift	-6887
▁drops	-6888
▁fruit	-6889
▁incap	-6890
▁ladyâ	-6891
▁named	-6892
▁secre	-6893
▁seize	-6894
▁teach	-6895
▁waved	-6896
▁Hatter	-6897
▁detail	-6898
▁losing	-6899
▁porter	-6900
▁remote	-6901
aneously	-6902
quarters	-6903
▁Gryphon	-6904
▁carpent	-6905
▁ceiling	-6906
▁derived	-6907
▁enterpr	-6908
▁footman	-6909
▁hunting	-6910
▁inquire	-6911
▁intense	-6912
▁wanting	-6913
▁accounts	-6914
▁brotherâ	-6915
▁intently	-6916
▁mourning	-6917
▁properly	-6918
▁proposal	-6919
▁starting	-6920
▁animation	-6921
▁appearing	-6922
▁determine	-6923
▁recognize	-6924
▁residence	-6925
▁personally	-6926
▁apprehension	-6927
▁disappointed	-6928
Can	-6929
bon	-6930
erl	-6931
orÃ	-6932
▁20	-6933
----	-6934
JECT	-6935
alty	-6936
anch	-6937
clay	-6938
ersâ	-6939
ival	-6940
mast	-6941
▁Gab	-6942
▁Hor	-6943
▁Jes	-6944
▁Rom	-6945
▁VII	-6946
▁Weâ	-6947
▁fed	-6948
▁tut	-6949
armed	-6950
asket	-6951
ernal	-6952
iated	-6953
icken	-6954
ienna	-6955
ishes	-6956
onstr	-6957
russi	-6958
ushes	-6959
▁Mont	-6960
▁Sheâ	-6961
▁Time	-6962
▁ages	-6963
▁bald	-6964
▁boyâ	-6965
▁butt	-6966
▁desk	-6967
▁heed	-6968
▁idle	-6969
▁isnâ	-6970
▁keys	-6971
▁plun	-6972
▁stom	-6973
▁webs	-6974
iation	-6975
▁brood	-6976
▁gaily	-6977
▁hotel	-6978
▁image	-6979
▁pages	-6980
▁queen	-6981
▁sadly	-6982
▁sixty	-6983
▁tones	-6984
erences	-6985
▁Daniel	-6986
▁bestow	-6987
▁client	-6988
▁coward	-6989
▁deadly	-6990
▁disclo	-6991
▁prefer	-6992
▁repose	-6993
▁thirst	-6994
▁trades	-6995
▁Brother	-6996
▁Lambert	-6997
▁Spanish	-6998
▁gravely	-6999
▁hideous	-7000
▁popular	-7001
▁sailing	-7002
akespeare	-7003
▁Tashtego	-7004
▁articles	-7005
▁disclaim	-7006
▁tranquil	-7007
▁unreason	-7008
▁apartment	-7009
▁sincerely	-7010
▁blacksmith	-7011
▁insignific	-7012
▁volunteers	-7013
▁distinguish	-7014
▁represented	-7015
▁expectations	-7016
uz	-7017
¢	-7018
add	-7019
esâ	-7020
mer	-7021
▁IX	-7022
hile	-7023
nded	-7024
rawn	-7025
▁Cow	-7026
▁Dor	-7027
▁Get	-7028
▁Min	-7029
▁Rab	-7030
▁Squ	-7031
▁Str	-7032
▁mel	-7033
▁sob	-7034
paper	-7035
▁Anto	-7036
▁type	-7037
haired	-7038
itudes	-7039
soever	-7040
▁Cissy	-7041
▁Maria	-7042
▁boast	-7043
▁droop	-7044
▁fired	-7045
▁links	-7046
▁mourn	-7047
▁rever	-7048
▁rocks	-7049
▁Vienna	-7050
▁Whaleâ	-7051
▁actual	-7052
▁beaten	-7053
▁clergy	-7054
▁format	-7055
▁labour	-7056
▁precip	-7057
▁retire	-7058
▁saddle	-7059
▁signal	-7060
▁strain	-7061
oubtedly	-7062
▁Barclay	-7063
▁Dollard	-7064
▁animals	-7065
▁cruelty	-7066
▁exposed	-7067
▁forever	-7068
▁kissing	-7069
▁lowered	-7070
▁orderly	-7071
▁sixteen	-7072
▁suspect	-7073
▁Florence	-7074
▁Highness	-7075
▁criminal	-7076
▁improved	-7077
▁manifest	-7078
▁softened	-7079
▁steadily	-7080
▁Frenchmen	-7081
▁innocence	-7082
▁practical	-7083
▁preceding	-7084
▁spiritual	-7085
▁expressing	-7086
▁gentlemanâ	-7087
▁proportion	-7088
▁Information	-7089
▁accordingly	-7090
▁harpooneers	-7091
2)	-7092
AD	-7093
tw	-7094
ett	-7095
rig	-7096
▁Kn	-7097
▁om	-7098
BERG	-7099
UTEN	-7100
five	-7101
foot	-7102
gest	-7103
iano	-7104
lers	-7105
text	-7106
uche	-7107
▁ANY	-7108
▁Che	-7109
▁Dun	-7110
▁KrÃ	-7111
▁etc	-7112
▁ton	-7113
abled	-7114
amlet	-7115
▁Dron	-7116
▁Four	-7117
▁Hipp	-7118
▁Hold	-7119
▁WARR	-7120
▁borz	-7121
▁cave	-7122
▁doll	-7123
▁hook	-7124
▁mant	-7125
▁tour	-7126
▁wave	-7127
▁yawn	-7128
ipping	-7129
umbled	-7130
usions	-7131
▁GUTEN	-7132
▁Judge	-7133
▁achie	-7134
▁campf	-7135
▁cared	-7136
▁cares	-7137
▁decor	-7138
▁explo	-7139
▁novel	-7140
▁shudd	-7141
▁themâ	-7142
ceiving	-7143
idently	-7144
istered	-7145
umption	-7146
unsford	-7147
▁Handel	-7148
▁cattle	-7149
▁comput	-7150
▁member	-7151
▁online	-7152
▁otherâ	-7153
inations	-7154
▁Antoine	-7155
▁PROJECT	-7156
▁WARRANT	-7157
▁appreci	-7158
▁closing	-7159
▁contact	-7160
▁deliver	-7161
▁limited	-7162
▁madness	-7163
▁sinking	-7164
▁stomach	-7165
▁timidly	-7166
▁website	-7167
▁announce	-7168
▁citizens	-7169
▁complain	-7170
▁confined	-7171
▁deprived	-7172
▁smallest	-7173
▁vexation	-7174
▁GUTENBERG	-7175
▁Something	-7176
▁amusement	-7177
▁greatness	-7178
▁indicated	-7179
▁sentiment	-7180
▁wandering	-7181
▁downstairs	-7182
▁punishment	-7183
▁Foundationâ	-7184
▁connections	-7185
▁Frankenstein	-7186
▁acquaintances	-7187
Re	-7188
gn	-7189
ho	-7190
Car	-7191
apa	-7192
ris	-7193
▁19	-7194
▁dw	-7195
Just	-7196
Take	-7197
addy	-7198
eled	-7199
ends	-7200
four	-7201
kins	-7202
more	-7203
orov	-7204
ouch	-7205
oust	-7206
sman	-7207
▁Gra	-7208
▁Med	-7209
▁Pis	-7210
▁fog	-7211
ciple	-7212
enses	-7213
glass	-7214
lings	-7215
olyte	-7216
stead	-7217
▁1812	-7218
▁Sept	-7219
▁Thou	-7220
▁abst	-7221
▁beer	-7222
▁caps	-7223
▁ecst	-7224
▁prey	-7225
▁subs	-7226
▁whip	-7227
erlitz	-7228
orable	-7229
resses	-7230
uchess	-7231
▁Agath	-7232
▁Murat	-7233
▁burnt	-7234
▁infer	-7235
▁moder	-7236
▁plate	-7237
▁valet	-7238
earance	-7239
▁Prussi	-7240
▁advert	-7241
▁anyhow	-7242
▁awhile	-7243
▁feeble	-7244
▁flames	-7245
▁learnt	-7246
▁mutual	-7247
▁plenty	-7248
▁sleeve	-7249
▁sleigh	-7250
▁Compeys	-7251
▁awaited	-7252
▁circles	-7253
▁doctors	-7254
▁drowned	-7255
▁drunken	-7256
▁elderly	-7257
▁fishery	-7258
▁machine	-7259
▁message	-7260
▁methods	-7261
▁numbers	-7262
▁quality	-7263
▁results	-7264
▁American	-7265
▁envelope	-7266
▁external	-7267
▁learning	-7268
▁numerous	-7269
▁portrait	-7270
▁Hippolyte	-7271
▁attending	-7272
▁condemned	-7273
▁instances	-7274
▁introduce	-7275
▁Austerlitz	-7276
▁Derbyshire	-7277
▁passionate	-7278
▁performing	-7279
▁thoroughly	-7280
▁Shakespeare	-7281
▁respectfully	-7282
ID	-7283
alt	-7284
gor	-7285
hic	-7286
ipt	-7287
owl	-7288
pot	-7289
win	-7290
▁Af	-7291
▁TO	-7292
afie	-7293
emed	-7294
hole	-7295
▁FOR	-7296
▁Has	-7297
▁XIV	-7298
▁awe	-7299
▁lap	-7300
▁lee	-7301
▁mix	-7302
▁nin	-7303
▁oak	-7304
▁wig	-7305
isten	-7306
otten	-7307
ribed	-7308
verty	-7309
water	-7310
worth	-7311
▁West	-7312
▁Wind	-7313
▁anch	-7314
▁brew	-7315
▁bust	-7316
▁cele	-7317
▁deaf	-7318
▁drag	-7319
▁bells	-7320
▁boatâ	-7321
▁coinc	-7322
▁cream	-7323
▁dimin	-7324
▁fence	-7325
▁flame	-7326
▁lance	-7327
▁lodge	-7328
▁newly	-7329
▁paces	-7330
▁price	-7331
▁sails	-7332
▁swept	-7333
▁tooth	-7334
▁walks	-7335
olution	-7336
▁boldly	-7337
▁bowing	-7338
▁crimes	-7339
▁dashed	-7340
▁doubts	-7341
▁illust	-7342
▁induce	-7343
▁insuff	-7344
▁revere	-7345
▁sharks	-7346
▁thread	-7347
▁wisdom	-7348
umerable	-7349
▁Pequodâ	-7350
▁changes	-7351
▁columns	-7352
▁estates	-7353
▁examine	-7354
▁fatigue	-7355
▁happily	-7356
▁horizon	-7357
▁impulse	-7358
▁poverty	-7359
▁privile	-7360
▁secrets	-7361
▁seizing	-7362
▁swaying	-7363
▁tremend	-7364
▁Brighton	-7365
▁Remember	-7366
▁armchair	-7367
▁arrested	-7368
▁capacity	-7369
▁conceive	-7370
▁disorder	-7371
▁dwelling	-7372
▁families	-7373
▁hospital	-7374
▁majestic	-7375
▁September	-7376
▁certainty	-7377
▁contained	-7378
▁eagerness	-7379
▁embarrass	-7380
▁respected	-7381
▁unwilling	-7382
▁inevitable	-7383
▁intentions	-7384
▁expressions	-7385
EM	-7386
did	-7387
nds	-7388
occ	-7389
rov	-7390
▁Id	-7391
▁Mc	-7392
▁XL	-7393
▁ug	-7394
▁ze	-7395
Only	-7396
gian	-7397
rovo	-7398
uchÃ	-7399
usal	-7400
usse	-7401
▁Bla	-7402
▁War	-7403
▁XVI	-7404
▁kid	-7405
▁pip	-7406
▁tub	-7407
ellow	-7408
iarly	-7409
mates	-7410
ships	-7411
sters	-7412
ucing	-7413
▁BOOK	-7414
▁bron	-7415
▁scru	-7416
▁text	-7417
▁wash	-7418
akened	-7419
earing	-7420
▁Court	-7421
▁Lucca	-7422
▁ashes	-7423
▁dined	-7424
▁likes	-7425
▁medic	-7426
▁pound	-7427
▁scorn	-7428
▁silly	-7429
▁slave	-7430
▁surre	-7431
▁swung	-7432
▁track	-7433
▁accent	-7434
▁ashore	-7435
▁attain	-7436
▁corrid	-7437
▁desert	-7438
▁dismal	-7439
▁fierce	-7440
▁issued	-7441
▁loaded	-7442
▁serene	-7443
▁stroke	-7444
▁theirs	-7445
▁unfold	-7446
▁welcom	-7447
▁whence	-7448
itations	-7449
▁dreaded	-7450
▁pushing	-7451
▁ridicul	-7452
▁rushing	-7453
▁seventy	-7454
▁subsequ	-7455
▁upright	-7456
Certainly	-7457
▁contents	-7458
▁inconven	-7459
▁peaceful	-7460
▁solemnly	-7461
▁arguments	-7462
▁cottagers	-7463
▁incapable	-7464
▁oppressed	-7465
▁political	-7466
▁struggled	-7467
▁atmosphere	-7468
▁regimental	-7469
▁arrangement	-7470
▁generations	-7471
▁innumerable	-7472
▁consequently	-7473
ato	-7474
ipe	-7475
ugh	-7476
yes	-7477
▁ax	-7478
▁ma	-7479
mony	-7480
omas	-7481
▁Bel	-7482
▁Kir	-7483
▁Tap	-7484
▁Wed	-7485
▁cod	-7486
▁fac	-7487
▁ink	-7488
▁jun	-7489
▁nap	-7490
▁san	-7491
▁tap	-7492
▁ung	-7493
awyer	-7494
ensed	-7495
gthen	-7496
ubber	-7497
urred	-7498
▁Does	-7499
▁Paul	-7500
▁dart	-7501
▁fury	-7502
▁heap	-7503
▁jaws	-7504
▁tort	-7505
▁trap	-7506
▁trot	-7507
alling	-7508
bation	-7509
course	-7510
ounted	-7511
▁banks	-7512
▁bears	-7513
▁brick	-7514
▁brows	-7515
▁finds	-7516
▁flood	-7517
▁goose	-7518
▁guide	-7519
▁inval	-7520
▁kinds	-7521
▁moist	-7522
▁paced	-7523
▁pitch	-7524
▁surve	-7525
▁tower	-7526
ouncing	-7527
▁Rabbit	-7528
▁bodily	-7529
▁burden	-7530
▁castle	-7531
▁hinted	-7532
▁impert	-7533
▁infant	-7534
▁market	-7535
▁shared	-7536
▁tables	-7537
▁advised	-7538
▁council	-7539
▁disgust	-7540
▁elegant	-7541
▁mingled	-7542
▁momentâ	-7543
▁painted	-7544
▁reduced	-7545
▁secured	-7546
▁sleeves	-7547
▁yielded	-7548
▁Collinsâ	-7549
▁Hunsford	-7550
▁national	-7551
▁propriet	-7552
▁confessed	-7553
▁displayed	-7554
▁doubtless	-7555
▁examining	-7556
▁frightful	-7557
▁furnished	-7558
▁advantages	-7559
▁favourable	-7560
▁lieutenant	-7561
▁perplexity	-7562
▁sentiments	-7563
▁successful	-7564
▁housekeeper	-7565
▁indignation	-7566
▁dispositions	-7567
▁inevitability	-7568
oa	-7569
ATE	-7570
Say	-7571
bet	-7572
hem	-7573
oli	-7574
▁Ha	-7575
donâ	-7576
gypt	-7577
ucky	-7578
uits	-7579
▁Cam	-7580
▁agg	-7581
▁ant	-7582
▁maâ	-7583
▁meâ	-7584
▁sen	-7585
gered	-7586
leton	-7587
monde	-7588
nings	-7589
olloy	-7590
▁Cape	-7591
▁Comm	-7592
▁Craw	-7593
▁Holl	-7594
▁Pope	-7595
▁bath	-7596
▁cong	-7597
▁jing	-7598
▁muff	-7599
▁ours	-7600
▁rows	-7601
▁tomb	-7602
finger	-7603
necess	-7604
▁Egypt	-7605
▁Night	-7606
▁Pfuel	-7607
▁curse	-7608
▁fires	-7609
▁labor	-7610
▁maybe	-7611
▁tools	-7612
Because	-7613
Perhaps	-7614
▁Better	-7615
▁Please	-7616
▁amused	-7617
▁assume	-7618
▁autumn	-7619
▁breeze	-7620
▁career	-7621
▁celebr	-7622
▁center	-7623
▁chairs	-7624
▁havenâ	-7625
▁humour	-7626
▁imprud	-7627
▁inches	-7628
▁income	-7629
▁masses	-7630
▁offers	-7631
▁provin	-7632
▁remove	-7633
▁simult	-7634
▁BoguchÃ	-7635
▁benefit	-7636
▁disdain	-7637
▁marshal	-7638
▁protest	-7639
▁secrecy	-7640
▁slender	-7641
▁thereby	-7642
▁warning	-7643
▁weeping	-7644
▁Crawford	-7645
▁Thatcher	-7646
▁ceremony	-7647
▁honoured	-7648
▁presents	-7649
▁swimming	-7650
▁youngest	-7651
▁elsewhere	-7652
▁equipment	-7653
▁exchanged	-7654
▁messenger	-7655
▁narrative	-7656
▁recollect	-7657
▁senseless	-7658
▁suspended	-7659
▁calculated	-7660
▁contradict	-7661
▁occasional	-7662
▁recognised	-7663
▁resentment	-7664
▁uneasiness	-7665
dÃ	-7666
ni	-7667
ICE	-7668
LLO	-7669
cap	-7670
ems	-7671
ieu	-7672
ini	-7673
pen	-7674
zhÃ	-7675
▁12	-7676
ante	-7677
ardâ	-7678
gate	-7679
idel	-7680
▁Fer	-7681
▁Lyn	-7682
▁Sol	-7683
▁Thy	-7684
▁foe	-7685
▁fox	-7686
▁jet	-7687
▁lic	-7688
▁lun	-7689
▁owe	-7690
after	-7691
arson	-7692
ersed	-7693
nskiâ	-7694
ppers	-7695
▁Beau	-7696
▁Best	-7697
▁EvrÃ	-7698
▁THIS	-7699
▁Toll	-7700
▁Tues	-7701
▁XIII	-7702
▁bind	-7703
▁bisc	-7704
▁deny	-7705
▁dumb	-7706
▁hare	-7707
▁init	-7708
▁resc	-7709
▁shoe	-7710
▁toil	-7711
▁twit	-7712
actory	-7713
angled	-7714
idable	-7715
▁Douce	-7716
▁Freem	-7717
▁Jesus	-7718
▁Polly	-7719
▁Safie	-7720
▁Theyâ	-7721
▁Trabb	-7722
▁agent	-7723
▁domin	-7724
▁eloqu	-7725
▁lucky	-7726
▁mates	-7727
▁penny	-7728
▁refer	-7729
▁reign	-7730
▁renew	-7731
▁score	-7732
▁shows	-7733
▁slack	-7734
▁sympt	-7735
▁unacc	-7736
ression	-7737
ulating	-7738
▁People	-7739
▁Philip	-7740
▁abrupt	-7741
▁begins	-7742
▁hoping	-7743
▁hospit	-7744
▁landed	-7745
▁partic	-7746
▁region	-7747
▁volume	-7748
▁Tuesday	-7749
▁avoided	-7750
▁checked	-7751
▁consist	-7752
▁discont	-7753
▁dismiss	-7754
▁gallery	-7755
▁grieved	-7756
▁grounds	-7757
▁lessons	-7758
▁stories	-7759
▁ambition	-7760
▁ascended	-7761
▁critical	-7762
▁declined	-7763
▁expenses	-7764
▁magnific	-7765
▁passages	-7766
▁passions	-7767
▁restrain	-7768
▁attempted	-7769
▁belonging	-7770
▁complying	-7771
▁defective	-7772
▁moonlight	-7773
▁precisely	-7774
▁stockings	-7775
▁strangers	-7776
▁swallowed	-7777
▁tolerable	-7778
▁attendance	-7779
▁characters	-7780
▁expressive	-7781
▁travelling	-7782
▁tremendous	-7783
▁resemblance	-7784
▁arrangements	-7785
▁dissatisfied	-7786
▁establishment	-7787
yl	-7788
Her	-7789
Hur	-7790
abb	-7791
cto	-7792
ege	-7793
oss	-7794
usc	-7795
▁Gi	-7796
▁lâ	-7797
Pray	-7798
evil	-7799
eyed	-7800
gent	-7801
inch	-7802
rive	-7803
uary	-7804
upon	-7805
▁BRE	-7806
▁Bob	-7807
▁Cla	-7808
▁Six	-7809
▁dat	-7810
▁fil	-7811
▁hol	-7812
▁ult	-7813
going	-7814
gorÃo	-7815
heard	-7816
laced	-7817
lfare	-7818
oring	-7819
oshka	-7820
shine	-7821
urely	-7822
▁Dear	-7823
▁aide	-7824
▁bagg	-7825
▁bulk	-7826
▁clay	-7827
▁craw	-7828
▁diam	-7829
▁helm	-7830
▁jest	-7831
▁mead	-7832
▁obed	-7833
▁peop	-7834
▁pink	-7835
▁prim	-7836
▁trib	-7837
▁writ	-7838
Molloy	-7839
ements	-7840
herent	-7841
nesday	-7842
urious	-7843
utable	-7844
▁Eliza	-7845
▁appar	-7846
▁dense	-7847
▁disgu	-7848
▁falls	-7849
▁folly	-7850
▁funny	-7851
▁holds	-7852
▁waste	-7853
lokhovâ	-7854
▁Cowley	-7855
▁forbid	-7856
▁handle	-7857
▁hearth	-7858
▁mender	-7859
▁purple	-7860
▁refuge	-7861
▁review	-7862
▁saving	-7863
▁scound	-7864
▁subtle	-7865
▁tumult	-7866
gorÃokov	-7867
▁Duchess	-7868
▁corrupt	-7869
▁discern	-7870
▁ladiesâ	-7871
▁medical	-7872
▁motives	-7873
▁parlour	-7874
▁pretend	-7875
▁receipt	-7876
▁shelter	-7877
▁thither	-7878
▁torture	-7879
▁welfare	-7880
▁winding	-7881
▁changing	-7882
▁creating	-7883
▁gigantic	-7884
▁practice	-7885
▁realized	-7886
▁respects	-7887
▁romantic	-7888
▁screamed	-7889
▁stepping	-7890
▁wherever	-7891
▁wrinkled	-7892
▁Wednesday	-7893
▁admirable	-7894
▁anxiously	-7895
▁assistant	-7896
▁conducted	-7897
▁continual	-7898
▁impressed	-7899
▁inquiring	-7900
▁spectacle	-7901
▁statement	-7902
▁accomplish	-7903
▁applicable	-7904
▁pretending	-7905
▁protection	-7906
▁whispering	-7907
▁DolgorÃokov	-7908
▁independent	-7909
▁performance	-7910
▁preparation	-7911
▁probability	-7912
YN	-7913
iac	-7914
riv	-7915
vet	-7916
▁Wy	-7917
▁tu	-7918
Give	-7919
ease	-7920
fold	-7921
lain	-7922
lets	-7923
nich	-7924
ords	-7925
post	-7926
rade	-7927
sect	-7928
thur	-7929
vest	-7930
▁Cat	-7931
▁Day	-7932
▁Lav	-7933
▁Tow	-7934
▁bol	-7935
▁paw	-7936
▁ped	-7937
▁pul	-7938
▁pup	-7939
arsad	-7940
hetic	-7941
rious	-7942
▁Call	-7943
▁Near	-7944
▁Whoâ	-7945
▁pall	-7946
▁stag	-7947
▁subl	-7948
▁verd	-7949
ailing	-7950
ctober	-7951
ructed	-7952
▁AlexÃ	-7953
▁Cross	-7954
▁Mason	-7955
▁Mount	-7956
▁Since	-7957
▁bliss	-7958
▁crept	-7959
▁flash	-7960
▁kings	-7961
▁saint	-7962
▁vehic	-7963
▁decide	-7964
▁divers	-7965
▁insens	-7966
▁interp	-7967
▁punish	-7968
▁seamen	-7969
▁stated	-7970
▁tavern	-7971
▁waiter	-7972
▁America	-7973
▁audible	-7974
▁caution	-7975
▁consult	-7976
▁hostile	-7977
▁masters	-7978
▁nodding	-7979
▁reserve	-7980
▁returns	-7981
▁whistle	-7982
▁Georgian	-7983
▁backward	-7984
▁corridor	-7985
▁governor	-7986
▁lifeless	-7987
▁memories	-7988
▁moreover	-7989
▁mustache	-7990
▁payments	-7991
▁premises	-7992
▁recently	-7993
▁security	-7994
▁skeleton	-7995
▁startled	-7996
▁unnecess	-7997
▁battalion	-7998
▁pretended	-7999
▁prevailed	-8000
▁benefactor	-8001
▁complexion	-8002
▁discussion	-8003
▁explaining	-8004
▁forgetting	-8005
▁honourable	-8006
▁provisions	-8007
▁compliments	-8008
▁examination	-8009
▁undertaking	-8010
▁Nevertheless	-8011
7.	-8012
bu	-8013
bÃ	-8014
rd	-8015
uv	-8016
ws	-8017
ais	-8018
sch	-8019
usk	-8020
,	-8021
bacc	-8022
bone	-8023
gery	-8024
kchÃ	-8025
kers	-8026
maid	-8027
ogue	-8028
omte	-8029
part	-8030
vski	-8031
▁DIS	-8032
▁Egl	-8033
▁Mat	-8034
▁Sin	-8035
▁sem	-8036
▁vel	-8037
illar	-8038
occup	-8039
oline	-8040
ubble	-8041
udder	-8042
works	-8043
▁City	-8044
▁Nove	-8045
▁beef	-8046
▁dict	-8047
▁letâ	-8048
▁owed	-8049
▁pole	-8050
▁shaw	-8051
▁subd	-8052
▁tipt	-8053
novich	-8054
otions	-8055
▁Moses	-8056
▁delir	-8057
▁etern	-8058
▁exper	-8059
▁harsh	-8060
▁indef	-8061
▁liter	-8062
▁merit	-8063
▁mould	-8064
▁sugar	-8065
▁title	-8066
▁towns	-8067
▁Agatha	-8068
▁advise	-8069
▁assert	-8070
▁bewild	-8071
▁humble	-8072
▁immort	-8073
▁openly	-8074
▁prodig	-8075
▁robber	-8076
▁blowing	-8077
▁conquer	-8078
▁counsel	-8079
▁destiny	-8080
▁flowing	-8081
▁glances	-8082
▁injured	-8083
▁liberal	-8084
▁monarch	-8085
▁percept	-8086
▁propose	-8087
▁restore	-8088
▁serving	-8089
▁venture	-8090
▁virtues	-8091
▁audience	-8092
▁awakened	-8093
▁bleeding	-8094
▁blushing	-8095
▁exertion	-8096
▁fastened	-8097
▁felicity	-8098
▁historic	-8099
▁intimacy	-8100
▁joyfully	-8101
▁marching	-8102
▁offering	-8103
▁restless	-8104
▁welcomed	-8105
▁withdrew	-8106
▁discussed	-8107
▁regularly	-8108
▁treatment	-8109
▁whistling	-8110
▁distressed	-8111
▁forefinger	-8112
▁limitation	-8113
▁ridiculous	-8114
▁differently	-8115
▁impatiently	-8116
▁philosopher	-8117
▁recommended	-8118
▁headquarters	-8119
?_	-8120
AS	-8121
IB	-8122
ox	-8123
bro	-8124
eff	-8125
iot	-8126
rot	-8127
say	-8128
▁13	-8129
▁du	-8130
▁NOT	-8131
▁Sea	-8132
▁Ten	-8133
▁Too	-8134
▁jar	-8135
▁mob	-8136
▁nav	-8137
▁sna	-8138
ammed	-8139
arian	-8140
erted	-8141
icted	-8142
icule	-8143
novna	-8144
urous	-8145
woman	-8146
▁Arab	-8147
▁Cons	-8148
▁Desp	-8149
▁Each	-8150
▁Hard	-8151
▁Holy	-8152
▁Keep	-8153
▁Stop	-8154
▁folk	-8155
▁goss	-8156
▁icon	-8157
▁mane	-8158
▁pave	-8159
▁stol	-8160
▁swim	-8161
▁tram	-8162
▁ugly	-8163
▁wars	-8164
idding	-8165
llable	-8166
▁Baker	-8167
▁Dutch	-8168
▁Shall	-8169
▁Spain	-8170
▁Thank	-8171
▁abund	-8172
▁admin	-8173
▁advis	-8174
▁altar	-8175
▁annoy	-8176
▁dried	-8177
▁faded	-8178
▁keeps	-8179
▁lifeâ	-8180
▁liken	-8181
▁theat	-8182
▁warnâ	-8183
oration	-8184
ormouse	-8185
quisite	-8186
▁Eglint	-8187
▁Polish	-8188
▁abomin	-8189
▁appeal	-8190
▁basket	-8191
▁commer	-8192
▁empire	-8193
▁fairly	-8194
▁faster	-8195
▁indisp	-8196
▁magist	-8197
▁mouths	-8198
▁naught	-8199
▁orange	-8200
▁pacing	-8201
▁ponder	-8202
▁ragged	-8203
▁repent	-8204
▁resour	-8205
▁scared	-8206
▁sleepy	-8207
▁unjust	-8208
▁wander	-8209
▁warmly	-8210
▁waving	-8211
▁weapon	-8212
▁ArakchÃ	-8213
▁October	-8214
▁article	-8215
▁cracked	-8216
▁depends	-8217
▁element	-8218
▁endless	-8219
▁gravity	-8220
▁largest	-8221
▁nowhere	-8222
▁prayers	-8223
▁quarrel	-8224
▁stirred	-8225
▁superst	-8226
▁November	-8227
▁bitterly	-8228
▁depended	-8229
▁deserved	-8230
▁dragging	-8231
▁feverish	-8232
▁irresist	-8233
▁released	-8234
▁swinging	-8235
▁Compeyson	-8236
▁adventure	-8237
▁contented	-8238
▁desirable	-8239
▁gratified	-8240
▁neglected	-8241
▁pleasures	-8242
▁reasoning	-8243
▁regarding	-8244
▁alteration	-8245
▁benevolent	-8246
▁dreadfully	-8247
▁encouraged	-8248
▁mentioning	-8249
▁paragraphs	-8250
▁photograph	-8251
▁appointment	-8252
▁determination	-8253
.1	-8254
Coy	-8255
ERN	-8256
MIT	-8257
elk	-8258
hot	-8259
▁AG	-8260
▁Bu	-8261
▁dÃ	-8262
▁gn	-8263
cont	-8264
gins	-8265
mate	-8266
oral	-8267
▁DAM	-8268
▁Fle	-8269
▁Its	-8270
▁Pac	-8271
▁Pal	-8272
▁Sar	-8273
▁Tim	-8274
▁WAT	-8275
▁bob	-8276
▁gas	-8277
▁sed	-8278
ILITY	-8279
asper	-8280
berry	-8281
cloth	-8282
mount	-8283
ology	-8284
pence	-8285
▁Dess	-8286
▁Hill	-8287
▁Supp	-8288
▁blew	-8289
▁bord	-8290
▁chat	-8291
▁echo	-8292
▁knot	-8293
▁lust	-8294
▁prel	-8295
▁rays	-8296
▁sall	-8297
▁sell	-8298
▁suck	-8299
ambers	-8300
ilight	-8301
uished	-8302
ursday	-8303
▁Afric	-8304
▁Deasy	-8305
▁Jones	-8306
▁Stand	-8307
▁belly	-8308
▁inher	-8309
▁reapp	-8310
▁reass	-8311
▁saber	-8312
▁unite	-8313
▁vexed	-8314
etition	-8315
renched	-8316
rÃoshka	-8317
vlovnaâ	-8318
▁Arthur	-8319
▁Second	-8320
▁bucket	-8321
▁bundle	-8322
▁carpet	-8323
▁convey	-8324
▁depths	-8325
▁devils	-8326
▁grande	-8327
▁hailed	-8328
▁humili	-8329
▁lesson	-8330
▁louder	-8331
▁malice	-8332
▁overfl	-8333
▁planks	-8334
▁summit	-8335
▁tobacc	-8336
▁wasted	-8337
▁writes	-8338
▁Germans	-8339
▁Pacific	-8340
▁artific	-8341
▁desires	-8342
▁doubted	-8343
▁earlier	-8344
▁landing	-8345
▁militia	-8346
▁overwhe	-8347
▁panting	-8348
▁picking	-8349
▁portion	-8350
▁rubbing	-8351
▁selfish	-8352
▁sharply	-8353
▁smaller	-8354
▁studies	-8355
▁Thursday	-8356
▁childish	-8357
▁counting	-8358
▁helpless	-8359
▁increase	-8360
▁inferior	-8361
▁jealousy	-8362
▁likeness	-8363
▁meantime	-8364
▁retorted	-8365
▁conceived	-8366
▁customary	-8367
▁galloping	-8368
▁principle	-8369
▁prolonged	-8370
▁searching	-8371
▁solemnity	-8372
▁stillness	-8373
▁supported	-8374
▁transport	-8375
▁threatened	-8376
▁intelligent	-8377
▁intercourse	-8378
▁significant	-8379
▁transferred	-8380
▁communicated	-8381
▁embarrassment	-8382
▁considerations	-8383
HAT	-8384
eer	-8385
had	-8386
why	-8387
▁Ot	-8388
▁Sk	-8389
door	-8390
down	-8391
fess	-8392
grad	-8393
have	-8394
iate	-8395
only	-8396
pent	-8397
rane	-8398
tico	-8399
vich	-8400
▁Off	-8401
▁bud	-8402
▁dru	-8403
▁pub	-8404
▁sly	-8405
▁vap	-8406
entle	-8407
herkÃ	-8408
ribly	-8409
three	-8410
white	-8411
▁PRIN	-8412
▁aged	-8413
▁appe	-8414
▁bits	-8415
▁econ	-8416
▁envy	-8417
▁gods	-8418
▁hull	-8419
▁lawn	-8420
▁liqu	-8421
▁palm	-8422
▁pool	-8423
▁soup	-8424
▁symb	-8425
▁ward	-8426
▁wont	-8427
advant	-8428
apping	-8429
elkilt	-8430
encies	-8431
inence	-8432
ivered	-8433
licted	-8434
▁McCar	-8435
▁Start	-8436
▁angle	-8437
▁brass	-8438
▁deriv	-8439
▁dimly	-8440
▁femin	-8441
▁hoofs	-8442
▁intol	-8443
▁linen	-8444
▁moust	-8445
▁punch	-8446
because	-8447
▁Davout	-8448
▁Friday	-8449
▁ZherkÃ	-8450
▁anyway	-8451
▁branch	-8452
▁bronze	-8453
▁coldly	-8454
▁copied	-8455
▁easier	-8456
▁entity	-8457
▁linked	-8458
▁nostri	-8459
▁packed	-8460
▁palace	-8461
▁poetry	-8462
▁powder	-8463
▁retain	-8464
▁solely	-8465
▁spared	-8466
▁throne	-8467
▁trifle	-8468
▁verses	-8469
▁ability	-8470
▁baggage	-8471
▁crushed	-8472
▁deceive	-8473
▁effects	-8474
▁forming	-8475
▁happier	-8476
▁labours	-8477
▁princeâ	-8478
▁stooped	-8479
▁tonight	-8480
▁washing	-8481
▁whereas	-8482
▁wonders	-8483
▁Dormouse	-8484
▁assisted	-8485
▁commands	-8486
▁conveyed	-8487
▁despised	-8488
▁disappro	-8489
▁hurrying	-8490
▁interpre	-8491
▁measured	-8492
▁petition	-8493
▁sunshine	-8494
▁tenderly	-8495
▁terrific	-8496
▁Vengeance	-8497
▁accompany	-8498
▁alongside	-8499
▁available	-8500
▁believing	-8501
▁countessâ	-8502
▁discourse	-8503
▁governess	-8504
▁obtaining	-8505
▁royalties	-8506
▁sustained	-8507
▁whiteness	-8508
▁Catherineâ	-8509
▁Englishman	-8510
▁accordance	-8511
▁attributed	-8512
▁employment	-8513
▁gratefully	-8514
▁infinitely	-8515
▁neighbours	-8516
▁remarkably	-8517
▁separation	-8518
▁thoughtful	-8519
▁throughout	-8520
▁whatsoever	-8521
▁distinction	-8522
▁undoubtedly	-8523
▁unnecessary	-8524
▁preparations	-8525
▁characteristic	-8526
PH	-8527
SS	-8528
▁̄	-8529
.1.	-8530
.3,	-8531
.3.	-8532
.9.	-8533
See	-8534
Was	-8535
akÃ	-8536
arn	-8537
lag	-8538
ola	-8539
▁Ho	-8540
▁Su	-8541
bled	-8542
even	-8543
lynn	-8544
rill	-8545
such	-8546
vent	-8547
▁Acc	-8548
▁Lod	-8549
▁Mer	-8550
▁aug	-8551
▁daz	-8552
▁dre	-8553
▁net	-8554
MITED	-8555
Quite	-8556
dated	-8557
would	-8558
▁AGRE	-8559
▁Barn	-8560
▁Kenn	-8561
▁Mean	-8562
▁Patr	-8563
▁Weyr	-8564
▁anti	-8565
▁canv	-8566
▁ferv	-8567
▁hats	-8568
▁mail	-8569
▁push	-8570
▁sore	-8571
▁susp	-8572
▁user	-8573
istory	-8574
versed	-8575
▁DAMAG	-8576
▁Gould	-8577
▁Greek	-8578
▁Solom	-8579
▁abode	-8580
▁beach	-8581
▁creep	-8582
▁eleph	-8583
▁fifth	-8584
▁grain	-8585
▁split	-8586
▁swore	-8587
▁tells	-8588
▁vener	-8589
▁Barsad	-8590
▁Messer	-8591
▁Thomas	-8592
▁compla	-8593
▁county	-8594
▁donate	-8595
▁errors	-8596
▁facing	-8597
▁heroes	-8598
▁hunted	-8599
▁keeper	-8600
▁mostly	-8601
▁rubbed	-8602
▁shaken	-8603
▁thence	-8604
▁unseen	-8605
▁vacant	-8606
▁visits	-8607
▁Gargery	-8608
▁LIMITED	-8609
▁Looking	-8610
▁Neither	-8611
▁adopted	-8612
▁amusing	-8613
▁aroused	-8614
▁clasped	-8615
▁console	-8616
▁creator	-8617
▁essence	-8618
▁exasper	-8619
▁existed	-8620
▁feature	-8621
▁fishing	-8622
▁illumin	-8623
▁muskets	-8624
▁peoples	-8625
▁plunged	-8626
▁precaut	-8627
▁radiant	-8628
▁student	-8629
▁Caroline	-8630
▁Emperors	-8631
▁afforded	-8632
▁ballroom	-8633
▁betrayed	-8634
▁brightly	-8635
▁catching	-8636
▁devotion	-8637
▁drooping	-8638
▁earliest	-8639
▁favorite	-8640
▁measures	-8641
▁procured	-8642
▁replying	-8643
▁research	-8644
▁shouldnâ	-8645
▁surround	-8646
▁vicinity	-8647
▁Greenland	-8648
▁Weyrother	-8649
▁arranging	-8650
▁ascertain	-8651
▁carpenter	-8652
▁completed	-8653
▁passenger	-8654
▁redistrib	-8655
▁stationed	-8656
▁traveller	-8657
▁witnesses	-8658
▁derivative	-8659
▁enterprise	-8660
▁proceeding	-8661
withstanding	-8662
▁improvement	-8663
▁occupations	-8664
▁replacement	-8665
▁endeavouring	-8666
▁introduction	-8667
▁unconsciously	-8668
▁simultaneously	-8669
LA	-8670
Le	-8671
tâ	-8672
arf	-8673
clo	-8674
don	-8675
oop	-8676
▁30	-8677
aggy	-8678
axim	-8679
elly	-8680
uzmÃ	-8681
▁MRS	-8682
▁XXI	-8683
▁bef	-8684
▁pie	-8685
▁som	-8686
▁umb	-8687
▁woo	-8688
chers	-8689
erget	-8690
ernan	-8691
impse	-8692
isive	-8693
stant	-8694
warks	-8695
▁Also	-8696
▁Down	-8697
▁Gold	-8698
▁Last	-8699
▁Lest	-8700
▁Pers	-8701
▁damn	-8702
▁eggs	-8703
▁fasc	-8704
▁foul	-8705
▁gift	-8706
▁nowâ	-8707
▁rent	-8708
▁sadd	-8709
▁soil	-8710
▁spin	-8711
▁tiny	-8712
▁zeal	-8713
ground	-8714
icking	-8715
ombard	-8716
teenth	-8717
worthy	-8718
▁Myles	-8719
▁WATCH	-8720
▁XVIII	-8721
▁anter	-8722
▁bache	-8723
▁disli	-8724
▁eaten	-8725
▁grant	-8726
▁honey	-8727
▁issue	-8728
▁knoll	-8729
▁punct	-8730
▁shrie	-8731
▁twink	-8732
▁upset	-8733
▁wings	-8734
itively	-8735
▁Harper	-8736
▁Indeed	-8737
▁Mother	-8738
▁Richie	-8739
▁acting	-8740
▁affirm	-8741
▁dishon	-8742
▁elbows	-8743
▁hanged	-8744
▁joyous	-8745
▁lament	-8746
▁murmur	-8747
▁nerves	-8748
▁observ	-8749
▁prejud	-8750
▁rivers	-8751
▁sheets	-8752
▁shrill	-8753
▁yonder	-8754
▁amongst	-8755
▁belongs	-8756
▁blubber	-8757
▁chances	-8758
▁chapter	-8759
▁concept	-8760
▁crooked	-8761
▁deserve	-8762
▁earthly	-8763
▁emerged	-8764
▁energet	-8765
▁floated	-8766
▁glimpse	-8767
▁guarded	-8768
▁pettico	-8769
▁puzzled	-8770
▁relieve	-8771
▁renewed	-8772
▁tobacco	-8773
▁twisted	-8774
▁weighed	-8775
▁Everyone	-8776
▁Lestrade	-8777
▁Scotland	-8778
▁corporal	-8779
▁district	-8780
▁fortunes	-8781
▁glorious	-8782
▁shrugged	-8783
▁snatched	-8784
▁supplied	-8785
▁treacher	-8786
▁villages	-8787
▁compelled	-8788
▁disadvant	-8789
▁painfully	-8790
▁readiness	-8791
▁LavrÃoshka	-8792
▁condescend	-8793
▁indicating	-8794
▁phenomenon	-8795
▁procession	-8796
▁repeatedly	-8797
▁suppressed	-8798
▁battlefield	-8799
▁inquiringly	-8800
▁recollected	-8801
▁congratulate	-8802
1]	-8803
_!	-8804
ya	-8805
aph	-8806
low	-8807
Lord	-8808
aces	-8809
bout	-8810
gram	-8811
hind	-8812
izes	-8813
ripp	-8814
tree	-8815
▁Hot	-8816
▁Pag	-8817
▁naÃ	-8818
▁ric	-8819
▁tin	-8820
▁̄ve	-8821
Would	-8822
aired	-8823
alles	-8824
itect	-8825
lieve	-8826
onies	-8827
thern	-8828
ulate	-8829
▁Were	-8830
▁buff	-8831
▁fest	-8832
▁heel	-8833
▁lieu	-8834
▁limb	-8835
▁meal	-8836
▁rosy	-8837
▁soap	-8838
▁tent	-8839
▁ting	-8840
▁whal	-8841
cember	-8842
estion	-8843
icious	-8844
outher	-8845
twenty	-8846
▁BELLO	-8847
▁KuzmÃ	-8848
▁Switz	-8849
▁Think	-8850
▁backs	-8851
▁didnt	-8852
▁drago	-8853
▁globe	-8854
▁impet	-8855
▁infam	-8856
▁irreg	-8857
▁negro	-8858
▁phant	-8859
▁prize	-8860
▁smoot	-8861
▁wiped	-8862
inently	-8863
irectly	-8864
ittered	-8865
▁Kernan	-8866
▁Seeing	-8867
▁avenue	-8868
▁chaise	-8869
▁cheese	-8870
▁crowds	-8871
▁cursed	-8872
▁discip	-8873
▁driver	-8874
▁flowed	-8875
▁horrid	-8876
▁nobles	-8877
▁traces	-8878
▁travel	-8879
▁vainly	-8880
▁waking	-8881
▁washed	-8882
arsonage	-8883
interest	-8884
ountered	-8885
▁British	-8886
▁control	-8887
▁corners	-8888
▁defence	-8889
▁diamond	-8890
▁draught	-8891
▁dresses	-8892
▁fearing	-8893
▁founded	-8894
▁hammock	-8895
▁hoisted	-8896
▁joining	-8897
▁pausing	-8898
▁pretext	-8899
▁survive	-8900
▁vessels	-8901
▁vicomte	-8902
▁wouldnt	-8903
▁Rucastle	-8904
▁allusion	-8905
▁chambers	-8906
▁conflict	-8907
▁decision	-8908
▁elevated	-8909
▁emotions	-8910
▁grandeur	-8911
▁lowering	-8912
▁maintain	-8913
▁mischief	-8914
▁pavement	-8915
▁reverend	-8916
▁services	-8917
▁suspense	-8918
▁Meanwhile	-8919
▁adjutants	-8920
▁attendant	-8921
▁tolerably	-8922
▁breathless	-8923
▁convenient	-8924
▁expedition	-8925
▁forecastle	-8926
▁gentleness	-8927
▁suggestion	-8928
▁temptation	-8929
▁authorities	-8930
▁thoughtfully	-8931
IP	-8932
UN	-8933
apt	-8934
cut	-8935
fts	-8936
ike	-8937
▁EX	-8938
▁Ly	-8939
▁ST	-8940
NatÃ	-8941
Some	-8942
bing	-8943
bles	-8944
cuse	-8945
fect	-8946
ials	-8947
mark	-8948
nyaâ	-8949
oner	-8950
oubt	-8951
riff	-8952
were	-8953
▁Far	-8954
▁Rev	-8955
▁Use	-8956
▁Vit	-8957
▁mun	-8958
▁ost	-8959
▁sul	-8960
▁vul	-8961
ATION	-8962
bound	-8963
idity	-8964
inder	-8965
knife	-8966
▁----	-8967
▁Half	-8968
▁Kent	-8969
▁Mark	-8970
▁Pisa	-8971
▁bars	-8972
▁cant	-8973
▁chur	-8974
▁debt	-8975
▁fare	-8976
▁gale	-8977
▁hail	-8978
▁haul	-8979
▁keel	-8980
▁pert	-8981
▁rely	-8982
▁ruff	-8983
▁scor	-8984
Hurrah	-8985
Please	-8986
engers	-8987
ensity	-8988
giving	-8989
import	-8990
ustice	-8991
▁Burke	-8992
▁Kelle	-8993
▁Lynch	-8994
▁Milan	-8995
▁Tommy	-8996
▁blast	-8997
▁dusty	-8998
▁exerc	-8999
▁feast	-9000
▁frock	-9001
▁knelt	-9002
▁pilgr	-9003
▁stare	-9004
▁stump	-9005
▁thats	-9006
ictions	-9007
▁Blazes	-9008
▁Nature	-9009
▁Square	-9010
▁borrow	-9011
▁brains	-9012
▁brings	-9013
▁dismay	-9014
▁escort	-9015
▁exists	-9016
▁flukes	-9017
▁injury	-9018
▁invari	-9019
▁invent	-9020
▁inward	-9021
▁leader	-9022
▁lovers	-9023
▁parish	-9024
▁rarely	-9025
▁remedy	-9026
▁rights	-9027
▁submit	-9028
▁throng	-9029
▁watery	-9030
occupied	-9031
▁Alexand	-9032
▁answers	-9033
▁barrels	-9034
▁battles	-9035
▁cigaret	-9036
▁despond	-9037
▁fulfill	-9038
▁gallant	-9039
▁guessed	-9040
▁haunted	-9041
▁marched	-9042
▁placing	-9043
▁refusal	-9044
▁rigging	-9045
▁seeming	-9046
▁shudder	-9047
▁solicit	-9048
▁Eglinton	-9049
▁Kelleher	-9050
▁anotherâ	-9051
▁anteroom	-9052
▁assented	-9053
▁bulwarks	-9054
▁careless	-9055
▁clearing	-9056
▁combined	-9057
▁conclude	-9058
▁feminine	-9059
▁firmness	-9060
▁investig	-9061
▁knocking	-9062
▁overlook	-9063
▁politely	-9064
▁pursuing	-9065
▁relative	-9066
▁retained	-9067
▁tendency	-9068
▁thankful	-9069
▁whaleman	-9070
▁clergyman	-9071
▁fishermen	-9072
▁flattered	-9073
▁imaginary	-9074
▁injustice	-9075
▁multitude	-9076
▁regiments	-9077
▁travelled	-9078
▁bitterness	-9079
▁detachment	-9080
▁objections	-9081
▁partiality	-9082
▁peculiarly	-9083
▁strengthen	-9084
▁encountered	-9085
▁incessantly	-9086
▁recognizing	-9087
▁threatening	-9088
▁considerably	-9089
▁deliberately	-9090
▁extinguished	-9091
▁insignificant	-9092
21	-9093
6,	-9094
AV	-9095
CK	-9096
Or	-9097
oâ	-9098
▁0	-9099
ART	-9100
Mrs	-9101
Two	-9102
Weâ	-9103
bra	-9104
nin	-9105
rit	-9106
▁50	-9107
▁ah	-9108
Wait	-9109
andy	-9110
angs	-9111
etic	-9112
fare	-9113
ming	-9114
onym	-9115
shot	-9116
▁188	-9117
▁Cal	-9118
▁Ing	-9119
▁Put	-9120
▁SAI	-9121
▁Sav	-9122
▁Spe	-9123
▁bee	-9124
▁cad	-9125
▁omn	-9126
▁orn	-9127
▁rag	-9128
▁̈re	-9129
After	-9130
Every	-9131
arers	-9132
bably	-9133
burgh	-9134
cular	-9135
eenth	-9136
gings	-9137
plete	-9138
▁CONC	-9139
▁Caff	-9140
▁Fort	-9141
▁XVII	-9142
▁bowl	-9143
▁cens	-9144
▁choo	-9145
▁coal	-9146
▁cure	-9147
▁genu	-9148
▁horn	-9149
▁lion	-9150
▁loaf	-9151
▁pile	-9152
▁plac	-9153
▁risk	-9154
▁runs	-9155
▁secl	-9156
▁sins	-9157
▁unin	-9158
houses	-9159
spread	-9160
urable	-9161
▁Milly	-9162
▁Paddy	-9163
▁Round	-9164
▁apple	-9165
▁apron	-9166
▁blown	-9167
▁crush	-9168
▁hears	-9169
▁knowâ	-9170
▁magic	-9171
▁piano	-9172
▁rises	-9173
▁scent	-9174
▁scrat	-9175
▁shark	-9176
▁shell	-9177
▁stole	-9178
▁store	-9179
▁thigh	-9180
▁topic	-9181
▁wives	-9182
isement	-9183
▁Except	-9184
▁Virgin	-9185
▁adding	-9186
▁ardent	-9187
▁chains	-9188
▁childâ	-9189
▁deemed	-9190
▁defeat	-9191
▁domain	-9192
▁expand	-9193
▁extrem	-9194
▁hounds	-9195
▁judged	-9196
▁marble	-9197
▁mercen	-9198
▁nightâ	-9199
▁overth	-9200
▁perish	-9201
▁rattle	-9202
▁ribbon	-9203
▁shroud	-9204
▁theyre	-9205
▁tiptoe	-9206
▁valued	-9207
▁Austria	-9208
▁alluded	-9209
▁boiling	-9210
▁decline	-9211
▁disease	-9212
▁footmen	-9213
▁heaving	-9214
▁prudent	-9215
▁respond	-9216
▁sharing	-9217
▁sobbing	-9218
▁stretch	-9219
▁studied	-9220
▁tearing	-9221
▁December	-9222
▁European	-9223
▁Whatever	-9224
▁breathed	-9225
▁captains	-9226
▁covering	-9227
▁immortal	-9228
▁lighting	-9229
▁magnanim	-9230
▁purchase	-9231
▁rapidity	-9232
▁rejoined	-9233
▁solution	-9234
▁soothing	-9235
▁stirring	-9236
▁uniforms	-9237
▁whispers	-9238
▁wrinkles	-9239
▁Georgiana	-9240
▁Queequegâ	-9241
▁countries	-9242
▁dispersed	-9243
▁exquisite	-9244
▁gathering	-9245
▁hesitated	-9246
▁intending	-9247
▁lingering	-9248
▁muttering	-9249
▁preserved	-9250
▁princessâ	-9251
▁provision	-9252
▁unaccount	-9253
▁willingly	-9254
▁magistrate	-9255
▁entertained	-9256
▁foundations	-9257
▁concentrated	-9258
▁insufficient	-9259
▁professional	-9260
▁wretchedness	-9261
):	-9262
UR	-9263
IRE	-9264
Mad	-9265
has	-9266
heâ	-9267
izz	-9268
rep	-9269
shÃ	-9270
top	-9271
▁Ba	-9272
▁Es	-9273
▁ju	-9274
THER	-9275
asis	-9276
born	-9277
came	-9278
fish	-9279
gain	-9280
lest	-9281
oard	-9282
pest	-9283
quet	-9284
▁Bed	-9285
▁Edy	-9286
▁Jer	-9287
▁Nat	-9288
▁Sem	-9289
▁XIX	-9290
▁ecc	-9291
▁mas	-9292
▁rud	-9293
▁wot	-9294
Bloom	-9295
aggoo	-9296
ishop	-9297
istoc	-9298
might	-9299
oking	-9300
unter	-9301
▁Alas	-9302
▁Bill	-9303
▁MakÃ	-9304
▁Pass	-9305
▁TarÃ	-9306
▁Wyse	-9307
▁ange	-9308
▁barn	-9309
▁bite	-9310
▁bump	-9311
▁foam	-9312
▁gaol	-9313
▁hack	-9314
▁owns	-9315
▁powd	-9316
▁vary	-9317
▁whoâ	-9318
aneous	-9319
atthew	-9320
office	-9321
ouched	-9322
rewell	-9323
ulsive	-9324
▁Huckâ	-9325
▁Light	-9326
▁Lodge	-9327
▁Might	-9328
▁Venet	-9329
▁chall	-9330
▁deeds	-9331
▁entit	-9332
▁evils	-9333
▁forci	-9334
▁groom	-9335
▁gross	-9336
▁jolly	-9337
▁lamps	-9338
▁outra	-9339
▁perse	-9340
▁pipes	-9341
▁print	-9342
▁shrew	-9343
▁trunk	-9344
▁wreck	-9345
▁wrist	-9346
perhaps	-9347
▁Island	-9348
▁Naples	-9349
▁Sawyer	-9350
▁anchor	-9351
▁behalf	-9352
▁bushes	-9353
▁dances	-9354
▁echoes	-9355
▁eyeing	-9356
▁formal	-9357
▁frozen	-9358
▁gossip	-9359
▁lowest	-9360
▁refres	-9361
▁roared	-9362
▁swayed	-9363
▁upward	-9364
▁vision	-9365
▁wagons	-9366
pendicul	-9367
▁CONCERN	-9368
▁Lombard	-9369
▁barrier	-9370
▁borzois	-9371
▁charged	-9372
▁embrace	-9373
▁flashed	-9374
▁flatter	-9375
▁furious	-9376
▁growled	-9377
▁killing	-9378
▁obscure	-9379
▁offence	-9380
▁outward	-9381
▁refresh	-9382
▁subdued	-9383
▁sublime	-9384
▁terrors	-9385
▁tidings	-9386
▁totally	-9387
▁whoever	-9388
▁Goulding	-9389
▁Jaggersâ	-9390
▁approval	-9391
▁breeches	-9392
▁churches	-9393
▁distrust	-9394
▁farewell	-9395
▁inspired	-9396
▁nostrils	-9397
▁pressure	-9398
▁rational	-9399
▁selected	-9400
▁situated	-9401
▁standard	-9402
▁stooping	-9403
▁symptoms	-9404
▁twilight	-9405
ifications	-9406
▁Everybody	-9407
▁Nicholasâ	-9408
▁Steelkilt	-9409
▁momentary	-9410
▁newspaper	-9411
▁sorrowful	-9412
▁Charlotteâ	-9413
▁hesitation	-9414
▁invariably	-9415
▁maintained	-9416
▁obligation	-9417
▁pleasantly	-9418
▁questioned	-9419
▁stretching	-9420
▁struggling	-9421
▁suspicious	-9422
▁embarrassed	-9423
▁necessarily	-9424
▁perpendicul	-9425
▁remembering	-9426
▁commencement	-9427
▁confirmation	-9428
▁consequences	-9429
▁interruption	-9430
▁satisfactory	-9431
3)	-9432
Ar	-9433
Eh	-9434
aa	-9435
!--	-9436
1⁄2	-9437
;--	-9438
flu	-9439
lad	-9440
pow	-9441
sac	-9442
urb	-9443
vey	-9444
▁16	-9445
▁WH	-9446
Fish	-9447
augh	-9448
aver	-9449
blue	-9450
dnoe	-9451
gend	-9452
gger	-9453
gone	-9454
lass	-9455
smen	-9456
wich	-9457
ynes	-9458
▁Jim	-9459
▁Van	-9460
▁haw	-9461
▁oft	-9462
▁rat	-9463
▁tun	-9464
▁voc	-9465
▁wil	-9466
IVATE	-9467
akers	-9468
ateau	-9469
cture	-9470
oming	-9471
ovich	-9472
uated	-9473
usive	-9474
▁BELL	-9475
▁East	-9476
▁ErmÃ	-9477
▁Ment	-9478
▁OtrÃ	-9479
▁Papa	-9480
▁beck	-9481
▁bend	-9482
▁blot	-9483
▁bury	-9484
▁conj	-9485
▁dont	-9486
▁duel	-9487
▁gunw	-9488
▁infl	-9489
▁leaf	-9490
▁lung	-9491
▁meek	-9492
▁mode	-9493
▁palp	-9494
▁pork	-9495
▁serf	-9496
▁sque	-9497
▁toes	-9498
▁vile	-9499
▁woke	-9500
coming	-9501
iffins	-9502
rating	-9503
should	-9504
strous	-9505
▁Corny	-9506
▁Flynn	-9507
▁acute	-9508
▁auntâ	-9509
▁cheap	-9510
▁crims	-9511
▁curly	-9512
▁dilig	-9513
▁emper	-9514
▁error	-9515
▁ghast	-9516
▁ingen	-9517
▁limit	-9518
▁schol	-9519
▁shops	-9520
▁shove	-9521
▁sober	-9522
▁spell	-9523
▁strip	-9524
▁total	-9525
▁umbre	-9526
▁weigh	-9527
General	-9528
▁Behind	-9529
▁Daggoo	-9530
▁cannib	-9531
▁detach	-9532
▁dreary	-9533
▁finest	-9534
▁guided	-9535
▁indust	-9536
▁knight	-9537
▁occupy	-9538
▁ridden	-9539
▁signed	-9540
▁thresh	-9541
▁viewed	-9542
▁wildly	-9543
▁worldâ	-9544
▁yearsâ	-9545
▁Caffrey	-9546
▁PRIVATE	-9547
▁Solomon	-9548
▁casting	-9549
▁delayed	-9550
▁dischar	-9551
▁elapsed	-9552
▁horrors	-9553
▁induced	-9554
▁justify	-9555
▁leaders	-9556
▁marvell	-9557
▁opposed	-9558
▁oppress	-9559
▁seconds	-9560
▁sighing	-9561
▁swallow	-9562
▁thyself	-9563
▁trusted	-9564
▁villain	-9565
▁Estellaâ	-9566
▁McCarthy	-9567
▁Minister	-9568
▁Skiffins	-9569
▁cautious	-9570
▁destined	-9571
▁elements	-9572
▁enjoying	-9573
▁harmless	-9574
▁involved	-9575
▁officerâ	-9576
▁perished	-9577
▁refusing	-9578
▁sticking	-9579
▁vigorous	-9580
▁visiting	-9581
▁youthful	-9582
▁Dessalles	-9583
▁conquered	-9584
▁dismissed	-9585
▁downwards	-9586
▁leviathan	-9587
▁prisonerâ	-9588
▁temporary	-9589
▁undertake	-9590
▁affections	-9591
▁cheerfully	-9592
▁descending	-9593
▁distracted	-9594
▁occasioned	-9595
▁perceiving	-9596
▁registered	-9597
▁intolerable	-9598
▁transparent	-9599
▁representing	-9600
▁advertisement	-9601
▁entertainment	-9602
▁opportunities	-9603
▁notwithstanding	-9604
2,	-9605
OL	-9606
ca	-9607
eâ	-9608
hl	-9609
iâ	-9610
wy	-9611
ILL	-9612
adt	-9613
ano	-9614
aus	-9615
dam	-9616
jah	-9617
lna	-9618
nic	-9619
pel	-9620
tha	-9621
ugn	-9622
▁FÃ	-9623
▁au	-9624
▁je	-9625
Hall	-9626
hill	-9627
icem	-9628
iffs	-9629
mmet	-9630
osey	-9631
wind	-9632
▁151	-9633
▁Ann	-9634
▁Aye	-9635
▁Got	-9636
▁Men	-9637
▁Reg	-9638
▁Rob	-9639
▁Sil	-9640
▁baw	-9641
▁haz	-9642
▁imb	-9643
▁lou	-9644
▁nod	-9645
▁oar	-9646
Theyâ	-9647
anter	-9648
coats	-9649
eight	-9650
gence	-9651
otino	-9652
oving	-9653
rical	-9654
rison	-9655
spect	-9656
▁Hare	-9657
▁KarÃ	-9658
▁THAT	-9659
▁Wald	-9660
▁bark	-9661
▁calÃ	-9662
▁emig	-9663
▁fath	-9664
▁goal	-9665
▁heir	-9666
▁herâ	-9667
▁hump	-9668
▁lect	-9669
▁pour	-9670
▁rags	-9671
▁stim	-9672
▁surm	-9673
▁tact	-9674
▁thir	-9675
▁unqu	-9676
igning	-9677
isance	-9678
orting	-9679
retion	-9680
rified	-9681
ucking	-9682
▁Franc	-9683
▁State	-9684
▁begat	-9685
▁brute	-9686
▁costs	-9687
▁decre	-9688
▁fiery	-9689
▁hints	-9690
▁liver	-9691
▁stool	-9692
▁token	-9693
▁uncon	-9694
olstadt	-9695
pending	-9696
▁Hamlet	-9697
▁SAILOR	-9698
▁Serene	-9699
▁choked	-9700
▁daring	-9701
▁detest	-9702
▁dissip	-9703
▁drawer	-9704
▁exempt	-9705
▁glided	-9706
▁insult	-9707
▁multip	-9708
▁perman	-9709
▁scient	-9710
▁starts	-9711
▁weaker	-9712
▁wiping	-9713
cription	-9714
ulations	-9715
▁Between	-9716
▁Britain	-9717
▁Despite	-9718
▁Doctorâ	-9719
▁Matthew	-9720
▁approve	-9721
▁awfully	-9722
▁balance	-9723
▁briskly	-9724
▁deepest	-9725
▁descent	-9726
▁enabled	-9727
▁engross	-9728
▁failing	-9729
▁greeted	-9730
▁healthy	-9731
▁imposed	-9732
▁islands	-9733
▁pouring	-9734
▁realize	-9735
▁refrain	-9736
▁slaught	-9737
▁speaker	-9738
▁stained	-9739
▁tremble	-9740
▁worldly	-9741
▁allowing	-9742
▁desolate	-9743
▁disliked	-9744
▁evenings	-9745
▁gestures	-9746
▁greeting	-9747
▁horizont	-9748
▁medicine	-9749
▁rejoiced	-9750
▁replaced	-9751
▁settling	-9752
▁speedily	-9753
▁superint	-9754
▁virtuous	-9755
▁architect	-9756
▁exhibited	-9757
▁moustache	-9758
▁overboard	-9759
▁retreated	-9760
▁spreading	-9761
▁steadfast	-9762
▁threshold	-9763
▁CONCERNING	-9764
▁Ingolstadt	-9765
▁abhorrence	-9766
▁attractive	-9767
▁bewildered	-9768
▁cautiously	-9769
▁commanding	-9770
▁compressed	-9771
▁inevitably	-9772
▁uncommonly	-9773
▁impressions	-9774
▁magnificent	-9775
▁proceedings	-9776
▁conversations	-9777
▁encouragement	-9778
▁congratulations	-9779
0.	-9780
De	-9781
SC	-9782
_;	-9783
rr	-9784
ACH	-9785
Get	-9786
Tis	-9787
ULL	-9788
ama	-9789
cra	-9790
lar	-9791
sim	-9792
▁Ko	-9793
▁Ma	-9794
▁Rh	-9795
▁ox	-9796
YNCH	-9797
abby	-9798
agle	-9799
ands	-9800
bers	-9801
clot	-9802
does	-9803
eded	-9804
ocks	-9805
otto	-9806
▁...	-9807
▁Cro	-9808
▁Inn	-9809
▁Ors	-9810
▁Ref	-9811
▁Sal	-9812
▁Ser	-9813
▁Val	-9814
▁bid	-9815
▁gor	-9816
▁nay	-9817
▁sam	-9818
▁vib	-9819
Mamma	-9820
laces	-9821
lored	-9822
onnet	-9823
ummer	-9824
xford	-9825
▁Much	-9826
▁Over	-9827
▁SemÃ	-9828
▁Shin	-9829
▁Walk	-9830
▁York	-9831
▁anni	-9832
▁fits	-9833
▁flee	-9834
▁fret	-9835
▁inch	-9836
▁ment	-9837
▁papa	-9838
▁stif	-9839
▁swam	-9840
▁vous	-9841
abouts	-9842
aiting	-9843
asonry	-9844
fessor	-9845
humour	-9846
itious	-9847
mother	-9848
pillar	-9849
udding	-9850
▁Hynes	-9851
▁LYNCH	-9852
▁Quick	-9853
▁afore	-9854
▁appet	-9855
▁brush	-9856
▁champ	-9857
▁clung	-9858
▁daysâ	-9859
▁elope	-9860
▁emerg	-9861
▁esaul	-9862
▁exter	-9863
▁games	-9864
▁goods	-9865
▁loung	-9866
▁maids	-9867
▁nails	-9868
▁parce	-9869
▁quart	-9870
▁rusty	-9871
▁scand	-9872
▁shawl	-9873
▁slate	-9874
▁swamp	-9875
▁tribe	-9876
ization	-9877
onymous	-9878
ouching	-9879
outhern	-9880
▁Govern	-9881
▁advers	-9882
▁amazed	-9883
▁ardour	-9884
▁constr	-9885
▁convoy	-9886
▁eighty	-9887
▁guinea	-9888
▁harder	-9889
▁instit	-9890
▁perils	-9891
▁poster	-9892
▁reform	-9893
▁speaks	-9894
▁stolen	-9895
▁stores	-9896
▁string	-9897
▁vulgar	-9898
▁Kennedy	-9899
▁Patrick	-9900
▁Prussia	-9901
▁achieve	-9902
▁begging	-9903
▁brewery	-9904
▁buttons	-9905
▁century	-9906
▁committ	-9907
▁counted	-9908
▁cousins	-9909
▁dangers	-9910
▁defined	-9911
▁designs	-9912
▁drawers	-9913
▁gaining	-9914
▁ghastly	-9915
▁glowing	-9916
▁granted	-9917
▁holiday	-9918
▁leaping	-9919
▁partial	-9920
▁peering	-9921
▁procure	-9922
▁winning	-9923
▁attempts	-9924
▁bursting	-9925
▁clinging	-9926
▁downward	-9927
▁esteemed	-9928
▁imperial	-9929
▁lodgings	-9930
▁mariners	-9931
▁mournful	-9932
▁overcoat	-9933
▁pictured	-9934
▁remonstr	-9935
▁ridicule	-9936
▁sunlight	-9937
▁TarÃotino	-9938
▁commenced	-9939
▁decidedly	-9940
▁depressed	-9941
▁entreated	-9942
▁magnitude	-9943
▁noiseless	-9944
▁preferred	-9945
▁purposely	-9946
▁apparition	-9947
▁artificial	-9948
▁celebrated	-9949
▁churchyard	-9950
▁confession	-9951
▁discipline	-9952
▁formidable	-9953
▁hesitating	-9954
▁management	-9955
▁references	-9956
▁respectful	-9957
▁retreating	-9958
▁yourselves	-9959
▁exclamation	-9960
▁questioning	-9961
▁responsible	-9962
▁accidentally	-9963
▁cheerfulness	-9964
▁confidential	-9965
▁contemplated	-9966
▁disadvantage	-9967
▁passionately	-9968
▁responsibility	-9969
.;	-9970
Am	-9971
CL	-9972
En	-9973
RY	-9974
hÃ	-9975
ta	-9976
IVE	-9977
Mon	-9978
agÃ	-9979
bag	-9980
fit	-9981
foy	-9982
liâ	-9983
may	-9984
nut	-9985
pon	-9986
skÃ	-9987
vil	-9988
voc	-9989
;	-9990
▁27	-9991
▁KÃ	-9992
apel	-9993
bted	-9994
cile	-9995
comm	-9996
conf	-9997
deck	-9998
ifer	-9999
pire	-10000
rian	-10001
rite	-10002
rons	-10003
▁Add	-10004
▁Arm	-10005
▁Ass	-10006
▁Bre	-10007
▁Cur	-10008
▁Dru	-10009
▁Fed	-10010
▁Hon	-10011
▁Wel	-10012
▁aft	-10013
▁ber	-10014
▁map	-10015
▁ram	-10016
▁rap	-10017
▁rav	-10018
▁rig	-10019
▁tie	-10020
Shall	-10021
agged	-10022
agues	-10023
grown	-10024
illot	-10025
inous	-10026
rophe	-10027
▁Ever	-10028
▁Prov	-10029
▁Soci	-10030
▁Trin	-10031
▁arts	-10032
▁beds	-10033
▁belt	-10034
▁emph	-10035
▁evin	-10036
▁feed	-10037
▁fork	-10038
▁herd	-10039
▁lace	-10040
▁orph	-10041
▁pine	-10042
▁prow	-10043
▁raft	-10044
▁rasc	-10045
▁scan	-10046
▁scut	-10047
▁slid	-10048
▁slim	-10049
▁unch	-10050
asmuch	-10051
atives	-10052
betskÃ	-10053
gments	-10054
handed	-10055
legged	-10056
umpled	-10057
▁Hence	-10058
▁PRINC	-10059
▁TelyÃ	-10060
▁Watch	-10061
▁accum	-10062
▁estim	-10063
▁everl	-10064
▁hasty	-10065
▁hired	-10066
▁local	-10067
▁lunch	-10068
▁maxim	-10069
▁metal	-10070
▁monot	-10071
▁moves	-10072
▁plank	-10073
▁plant	-10074
▁remov	-10075
▁spine	-10076
▁spoon	-10077
▁stove	-10078
▁supre	-10079
chamber	-10080
leberry	-10081
▁Lorryâ	-10082
▁Stubbâ	-10083
▁Whales	-10084
▁Within	-10085
▁againâ	-10086
▁astern	-10087
▁brandy	-10088
▁derive	-10089
▁detect	-10090
▁devote	-10091
▁discon	-10092
▁ginger	-10093
▁horseâ	-10094
▁intend	-10095
▁mystic	-10096
▁owners	-10097
▁policy	-10098
▁quarre	-10099
▁reader	-10100
▁reject	-10101
▁senior	-10102
▁sullen	-10103
▁virgin	-10104
▁whitew	-10105
▁widest	-10106
oluntary	-10107
▁Arabian	-10108
▁Francis	-10109
▁Lucases	-10110
▁Startop	-10111
▁behaved	-10112
▁breathe	-10113
▁carries	-10114
▁chanced	-10115
▁concert	-10116
▁conspir	-10117
▁crimson	-10118
▁damages	-10119
▁develop	-10120
▁genuine	-10121
▁grasped	-10122
▁knitted	-10123
▁lighter	-10124
▁masterâ	-10125
▁million	-10126
▁perfume	-10127
▁pleaded	-10128
▁saluted	-10129
▁scarlet	-10130
▁spoiled	-10131
▁stately	-10132
▁tempest	-10133
▁upwards	-10134
▁wealthy	-10135
▁Although	-10136
▁attained	-10137
▁avoiding	-10138
▁bachelor	-10139
▁decisive	-10140
▁descried	-10141
▁desirous	-10142
▁detached	-10143
▁educated	-10144
▁entitled	-10145
▁exchange	-10146
▁graceful	-10147
▁imprison	-10148
▁miseries	-10149
▁misunder	-10150
▁particip	-10151
▁purposes	-10152
▁severely	-10153
▁shilling	-10154
▁spending	-10155
▁strained	-10156
▁uttering	-10157
▁yielding	-10158
aterpillar	-10159
▁campfires	-10160
▁entrusted	-10161
▁falsehood	-10162
▁fulfilled	-10163
▁indispens	-10164
▁interfere	-10165
▁positions	-10166
▁protested	-10167
▁scoundrel	-10168
▁shuddered	-10169
▁terrified	-10170
▁adventures	-10171
▁battalions	-10172
▁conjecture	-10173
▁diplomatic	-10174
▁endeavours	-10175
▁heightened	-10176
▁indefinite	-10177
▁scientific	-10178
▁simplicity	-10179
▁solicitude	-10180
▁acknowledge	-10181
▁interference	-10182
▁unreasonable	-10183
▁contemplation	-10184
▁correspondence	-10185
);	-10186
EC	-10187
OSE	-10188
Sir	-10189
ana	-10190
avo	-10191
azÃ	-10192
chi	-10193
elf	-10194
jac	-10195
loc	-10196
mir	-10197
ppy	-10198
rav	-10199
tes	-10200
vlo	-10201
▁90	-10202
▁Sy	-10203
▁aâ	-10204
▁eg	-10205
...?	-10206
bury	-10207
cles	-10208
from	-10209
gers	-10210
give	-10211
iard	-10212
inqu	-10213
iron	-10214
isto	-10215
khtÃ	-10216
oots	-10217
open	-10218
rown	-10219
terâ	-10220
uity	-10221
umsy	-10222
▁Bra	-10223
▁Dam	-10224
▁Res	-10225
▁Tit	-10226
▁Wid	-10227
▁cel	-10228
▁dun	-10229
▁fug	-10230
▁ham	-10231
▁hue	-10232
▁hyd	-10233
▁nic	-10234
▁pas	-10235
▁viv	-10236
Count	-10237
Right	-10238
These	-10239
alted	-10240
angel	-10241
arski	-10242
athem	-10243
earth	-10244
elled	-10245
erick	-10246
every	-10247
guard	-10248
odore	-10249
rdino	-10250
▁Blue	-10251
▁Fred	-10252
▁Horn	-10253
▁Hung	-10254
▁Mack	-10255
▁Make	-10256
▁Mass	-10257
▁Open	-10258
▁Post	-10259
▁TimÃ	-10260
▁True	-10261
▁bees	-10262
▁bond	-10263
▁buzz	-10264
▁clue	-10265
▁dign	-10266
▁eyed	-10267
▁idol	-10268
▁joys	-10269
▁mend	-10270
▁mute	-10271
▁pear	-10272
▁pint	-10273
▁quad	-10274
▁ribs	-10275
▁sack	-10276
▁̈che	-10277
arming	-10278
button	-10279
formed	-10280
inated	-10281
locked	-10282
street	-10283
velled	-10284
▁Angel	-10285
▁Being	-10286
▁Didnâ	-10287
▁Doran	-10288
▁DunyÃ	-10289
▁Field	-10290
▁Hereâ	-10291
▁Kinch	-10292
▁Mouse	-10293
▁Nosey	-10294
▁Sarah	-10295
▁ShevÃ	-10296
▁blade	-10297
▁chill	-10298
▁crazy	-10299
▁cryst	-10300
▁fleet	-10301
▁hered	-10302
▁hovel	-10303
▁icons	-10304
▁idiot	-10305
▁incom	-10306
▁leads	-10307
▁model	-10308
▁negot	-10309
▁range	-10310
▁shanâ	-10311
▁snowy	-10312
▁tenth	-10313
▁veins	-10314
▁wrath	-10315
atholic	-10316
ensions	-10317
isition	-10318
nothing	-10319
▁Ernest	-10320
▁Orsini	-10321
▁Parsee	-10322
▁Thanks	-10323
▁aboard	-10324
▁beasts	-10325
▁befall	-10326
▁bonnet	-10327
▁catast	-10328
▁cellar	-10329
▁clumsy	-10330
▁commit	-10331
▁cultiv	-10332
▁curled	-10333
▁damned	-10334
▁groans	-10335
▁groups	-10336
▁incons	-10337
▁infall	-10338
▁pencil	-10339
▁rotten	-10340
▁safely	-10341
▁shaggy	-10342
▁sights	-10343
▁smoked	-10344
▁subord	-10345
▁symmet	-10346
▁termin	-10347
▁transl	-10348
▁valour	-10349
▁velvet	-10350
▁womenâ	-10351
ological	-10352
▁Empress	-10353
▁ShinshÃ	-10354
▁attacks	-10355
▁blasted	-10356
▁bullets	-10357
▁colours	-10358
▁consumm	-10359
▁courtes	-10360
▁failure	-10361
▁filling	-10362
▁flaming	-10363
▁heavier	-10364
▁leeward	-10365
▁manager	-10366
▁removal	-10367
▁swelled	-10368
▁tempted	-10369
▁traitor	-10370
▁weapons	-10371
▁Moreover	-10372
▁creaking	-10373
▁deceased	-10374
▁disaster	-10375
▁disguise	-10376
▁eighteen	-10377
▁happiest	-10378
▁harpoons	-10379
▁indebted	-10380
▁mistakes	-10381
▁polished	-10382
▁resigned	-10383
▁snuffbox	-10384
▁studying	-10385
▁suitable	-10386
▁tumbling	-10387
▁umbrella	-10388
▁Evidently	-10389
▁Willarski	-10390
▁backwards	-10391
▁contrived	-10392
▁excessive	-10393
▁expensive	-10394
▁governorâ	-10395
▁justified	-10396
▁liability	-10397
▁monstrous	-10398
▁obviously	-10399
▁proposals	-10400
▁quivering	-10401
▁recalling	-10402
▁shattered	-10403
▁specially	-10404
▁submitted	-10405
▁withdrawn	-10406
▁brightened	-10407
▁collecting	-10408
▁dependence	-10409
▁marvellous	-10410
▁university	-10411
▁communicate	-10412
▁engagements	-10413
▁everlasting	-10414
▁involuntary	-10415
▁maintaining	-10416
▁constitution	-10417
▁restrictions	-10418
▁unaccountable	-10419
TY	-10420
UD	-10421
CEN	-10422
ORE	-10423
_).	-10424
oga	-10425
oil	-10426
osy	-10427
roc	-10428
tem	-10429
tis	-10430
▁(1	-10431
▁Ob	-10432
▁VO	-10433
Conn	-10434
Hold	-10435
apes	-10436
asty	-10437
ault	-10438
bons	-10439
fact	-10440
irch	-10441
khin	-10442
lder	-10443
live	-10444
ogen	-10445
omer	-10446
otes	-10447
owls	-10448
riel	-10449
rine	-10450
skin	-10451
sure	-10452
unks	-10453
weet	-10454
▁150	-10455
▁Flo	-10456
▁Gib	-10457
▁IlÃ	-10458
▁Int	-10459
▁Law	-10460
▁Nay	-10461
▁Uhl	-10462
▁Vin	-10463
▁dug	-10464
▁hem	-10465
▁inh	-10466
▁laz	-10467
▁pad	-10468
▁pag	-10469
▁tar	-10470
▁til	-10471
▁tom	-10472
▁upl	-10473
▁vit	-10474
allah	-10475
angle	-10476
annel	-10477
bling	-10478
dened	-10479
icket	-10480
ollen	-10481
onous	-10482
plant	-10483
reath	-10484
rooms	-10485
think	-10486
▁Bast	-10487
▁Boar	-10488
▁Davy	-10489
▁Foot	-10490
▁Lamb	-10491
▁Read	-10492
▁XXXV	-10493
▁afar	-10494
▁bass	-10495
▁dial	-10496
▁enra	-10497
▁load	-10498
▁nour	-10499
▁offâ	-10500
▁pump	-10501
▁quay	-10502
▁saus	-10503
▁smil	-10504
▁triv	-10505
▁tune	-10506
▁void	-10507
▁worm	-10508
▁̈neâ	-10509
Prince	-10510
Really	-10511
aments	-10512
ctions	-10513
endent	-10514
ifting	-10515
itizen	-10516
ronted	-10517
▁Bless	-10518
▁Board	-10519
▁Creat	-10520
▁David	-10521
▁Grace	-10522
▁Order	-10523
▁Pisto	-10524
▁analy	-10525
▁demon	-10526
▁fores	-10527
▁grunt	-10528
▁indec	-10529
▁mamma	-10530
▁masts	-10531
▁muddy	-10532
▁songs	-10533
▁viole	-10534
▁vital	-10535
ancesco	-10536
cension	-10537
▁Accord	-10538
▁Elijah	-10539
▁Marion	-10540
▁Nobody	-10541
▁Uhlans	-10542
▁busily	-10543
▁deform	-10544
▁denied	-10545
▁editor	-10546
▁expose	-10547
▁fulfil	-10548
▁haught	-10549
▁insist	-10550
▁knives	-10551
▁ladder	-10552
▁maiden	-10553
▁mustnâ	-10554
▁needle	-10555
▁parade	-10556
▁parall	-10557
▁screen	-10558
▁sevent	-10559
▁sledge	-10560
▁Malachi	-10561
▁Royalty	-10562
▁Society	-10563
▁beaming	-10564
▁biscuit	-10565
▁bottles	-10566
▁ceremon	-10567
▁commend	-10568
▁complic	-10569
▁conspic	-10570
▁courier	-10571
▁courses	-10572
▁dashing	-10573
▁dispute	-10574
▁faintly	-10575
▁massive	-10576
▁mixture	-10577
▁modesty	-10578
▁persist	-10579
▁pilgrim	-10580
▁rapture	-10581
▁roaring	-10582
▁sadness	-10583
▁swollen	-10584
▁tickets	-10585
▁tossing	-10586
▁unlucky	-10587
▁vividly	-10588
▁Fedallah	-10589
▁approved	-10590
▁brighter	-10591
▁darkened	-10592
▁delirium	-10593
▁doubtful	-10594
▁dragoons	-10595
▁electric	-10596
▁entreaty	-10597
▁foremost	-10598
▁horsemen	-10599
▁invested	-10600
▁moderate	-10601
▁province	-10602
▁recovery	-10603
▁shrieked	-10604
▁sinister	-10605
▁striving	-10606
▁terribly	-10607
▁tortured	-10608
▁trifling	-10609
▁DrubetskÃ	-10610
▁Parsonage	-10611
▁Professor	-10612
▁addresses	-10613
▁disconcer	-10614
▁histories	-10615
▁incidents	-10616
▁irregular	-10617
▁personage	-10618
▁promoting	-10619
▁seemingly	-10620
▁sensitive	-10621
▁smilingly	-10622
▁sparkling	-10623
▁staggered	-10624
▁venerable	-10625
▁Revolution	-10626
▁attraction	-10627
▁conversing	-10628
▁discretion	-10629
▁dismounted	-10630
▁displeased	-10631
▁entreaties	-10632
▁incomplete	-10633
▁incredible	-10634
▁indirectly	-10635
▁opposition	-10636
▁originally	-10637
▁passengers	-10638
▁production	-10639
▁resolutely	-10640
▁separately	-10641
▁Caterpillar	-10642
▁constructed	-10643
▁destination	-10644
▁practically	-10645
▁preoccupied	-10646
▁irresistible	-10647
▁successfully	-10648
▁instinctively	-10649
,[	-10650
QU	-10651
OND	-10652
Pip	-10653
bey	-10654
inn	-10655
llo	-10656
psy	-10657
rer	-10658
sey	-10659
six	-10660
?	-10661
▁Ry	-10662
▁Ug	-10663
Huck	-10664
Stop	-10665
TRIB	-10666
anni	-10667
bird	-10668
cart	-10669
ctic	-10670
iley	-10671
mlin	-10672
shal	-10673
year	-10674
▁(2)	-10675
▁Dec	-10676
▁Rud	-10677
▁bon	-10678
▁bru	-10679
▁err	-10680
▁haâ	-10681
▁isâ	-10682
▁lid	-10683
▁sag	-10684
about	-10685
anity	-10686
attoo	-10687
aying	-10688
books	-10689
eches	-10690
force	-10691
icial	-10692
itors	-10693
itute	-10694
lying	-10695
olved	-10696
pring	-10697
riend	-10698
ulent	-10699
▁Camp	-10700
▁Canâ	-10701
▁Coun	-10702
▁Dill	-10703
▁Gall	-10704
▁GerÃ	-10705
▁Hall	-10706
▁Head	-10707
▁July	-10708
▁KalÃ	-10709
▁Lise	-10710
▁Port	-10711
▁acts	-10712
▁asks	-10713
▁bast	-10714
▁cake	-10715
▁cash	-10716
▁dusk	-10717
▁fame	-10718
▁fren	-10719
▁leak	-10720
▁leap	-10721
▁link	-10722
▁lump	-10723
▁pant	-10724
▁pite	-10725
▁rash	-10726
▁rect	-10727
▁rein	-10728
▁seal	-10729
▁sire	-10730
▁snug	-10731
agging	-10732
aunted	-10733
cerity	-10734
encing	-10735
hedral	-10736
iating	-10737
lantic	-10738
▁Clair	-10739
▁Horse	-10740
▁Water	-10741
▁blush	-10742
▁brace	-10743
▁casks	-10744
▁coins	-10745
▁disin	-10746
▁dwelt	-10747
▁flies	-10748
▁folds	-10749
▁geese	-10750
▁griev	-10751
▁ineff	-10752
▁piled	-10753
▁pilot	-10754
▁rings	-10755
▁spurs	-10756
▁swing	-10757
▁tales	-10758
▁theme	-10759
iciency	-10760
isation	-10761
itional	-10762
rinkled	-10763
urances	-10764
writing	-10765
▁Africa	-10766
▁Almost	-10767
▁Bailey	-10768
▁Castle	-10769
▁DokhtÃ	-10770
▁Romans	-10771
▁amidst	-10772
▁beggar	-10773
▁biting	-10774
▁bounds	-10775
▁casual	-10776
▁chased	-10777
▁chiefâ	-10778
▁christ	-10779
▁create	-10780
▁engine	-10781
▁ghosts	-10782
▁kicked	-10783
▁lances	-10784
▁leaped	-10785
▁melted	-10786
▁oblige	-10787
▁permit	-10788
▁pitied	-10789
▁sallow	-10790
▁supple	-10791
▁talent	-10792
▁tapped	-10793
▁tasted	-10794
▁tucked	-10795
▁uncleâ	-10796
coloured	-10797
entlemen	-10798
ervation	-10799
illotine	-10800
▁Camilla	-10801
▁Company	-10802
▁Gabriel	-10803
▁Georgeâ	-10804
▁Richard	-10805
▁Vanilla	-10806
▁augment	-10807
▁breadth	-10808
▁chateau	-10809
▁commiss	-10810
▁couldnt	-10811
▁ecstasy	-10812
▁elastic	-10813
▁enlight	-10814
▁extract	-10815
▁fancies	-10816
▁guineas	-10817
▁handful	-10818
▁howling	-10819
▁hunters	-10820
▁infancy	-10821
▁leagues	-10822
▁muffled	-10823
▁musical	-10824
▁pirates	-10825
▁schemes	-10826
▁screwed	-10827
▁teacher	-10828
▁vaguely	-10829
▁vicious	-10830
▁whither	-10831
▁worship	-10832
▁Wemmickâ	-10833
▁bandaged	-10834
▁beauties	-10835
▁birthday	-10836
▁captainâ	-10837
▁designed	-10838
▁engaging	-10839
▁examples	-10840
▁garments	-10841
▁gloomily	-10842
▁habitual	-10843
▁highroad	-10844
▁indicate	-10845
▁listener	-10846
▁nobility	-10847
▁northern	-10848
▁overcame	-10849
▁pathetic	-10850
▁piercing	-10851
▁quitting	-10852
▁rattling	-10853
▁relating	-10854
▁severity	-10855
▁sickness	-10856
▁squeezed	-10857
▁swelling	-10858
▁thirteen	-10859
▁unworthy	-10860
▁Francesco	-10861
▁Gardinerâ	-10862
▁President	-10863
▁centuries	-10864
▁consented	-10865
▁distorted	-10866
▁embracing	-10867
▁enchanted	-10868
▁murderous	-10869
▁petticoat	-10870
▁privilege	-10871
▁religious	-10872
▁reluctant	-10873
▁rendering	-10874
▁shivering	-10875
▁straining	-10876
▁DokhtÃorov	-10877
▁abandoning	-10878
▁brightness	-10879
▁commercial	-10880
▁continuing	-10881
▁preference	-10882
▁prosperous	-10883
▁protectors	-10884
▁restrained	-10885
▁subsequent	-10886
▁Huckleberry	-10887
▁corporation	-10888
▁hospitality	-10889
▁instruments	-10890
▁occurrences	-10891
▁prominently	-10892
▁supposition	-10893
▁surrounding	-10894
▁wonderfully	-10895
▁neighbouring	-10896
▁condescension	-10897
▁indispensable	-10898
.7	-10899
.8	-10900
ET	-10901
HT	-10902
▁#	-10903
.2.	-10904
.4.	-10905
.5.	-10906
.6.	-10907
.8.	-10908
ELL	-10909
ESS	-10910
HAN	-10911
Has	-10912
IIâ	-10913
lax	-10914
neâ	-10915
tar	-10916
urg	-10917
vra	-10918
▁EB	-10919
▁FI	-10920
▁Ow	-10921
▁PG	-10922
Whoâ	-10923
bage	-10924
bber	-10925
icks	-10926
idly	-10927
ione	-10928
itar	-10929
lorn	-10930
oldy	-10931
olio	-10932
oons	-10933
rise	-10934
rust	-10935
ucks	-10936
▁ASC	-10937
▁Byr	-10938
▁Del	-10939
▁Hos	-10940
▁IND	-10941
▁Imp	-10942
▁Jap	-10943
▁Oli	-10944
▁Rog	-10945
▁cub	-10946
▁exh	-10947
▁maz	-10948
▁pic	-10949
▁raw	-10950
▁reb	-10951
▁tan	-10952
▁tyr	-10953
CENSE	-10954
IRECT	-10955
Lizzy	-10956
Plain	-10957
acing	-10958
antam	-10959
athed	-10960
atics	-10961
break	-10962
ician	-10963
imony	-10964
licit	-10965
ommod	-10966
quity	-10967
shchÃ	-10968
urate	-10969
witch	-10970
▁Coff	-10971
▁FULL	-10972
▁Form	-10973
▁Full	-10974
▁Gard	-10975
▁Hope	-10976
▁Inst	-10977
▁LIAB	-10978
▁Lake	-10979
▁Letâ	-10980
▁Muff	-10981
▁SchÃ	-10982
▁XXII	-10983
▁aver	-10984
▁bade	-10985
▁ding	-10986
▁dirt	-10987
▁doom	-10988
▁drow	-10989
▁eyel	-10990
▁fowl	-10991
▁gait	-10992
▁guid	-10993
▁halt	-10994
▁hush	-10995
▁mare	-10996
▁mini	-10997
▁mumm	-10998
▁plot	-10999
▁sequ	-11000
▁snap	-11001
▁snat	-11002
▁stre	-11003
▁uses	-11004
▁verb	-11005
▁ware	-11006
▁warn	-11007
antial	-11008
bridge	-11009
called	-11010
cribed	-11011
donate	-11012
erland	-11013
estern	-11014
ifully	-11015
making	-11016
places	-11017
rawing	-11018
▁AGREE	-11019
▁Anton	-11020
▁EBOOK	-11021
▁Jolly	-11022
▁START	-11023
▁Terms	-11024
▁Welsh	-11025
▁alien	-11026
▁awayâ	-11027
▁bayon	-11028
▁chalk	-11029
▁cigar	-11030
▁entry	-11031
▁grind	-11032
▁humor	-11033
▁incor	-11034
▁lords	-11035
▁maneu	-11036
▁mirth	-11037
▁mouse	-11038
▁palms	-11039
▁plane	-11040
▁remot	-11041
▁scold	-11042
▁shoem	-11043
▁simpl	-11044
▁smelt	-11045
▁speck	-11046
▁stake	-11047
▁sting	-11048
▁stubb	-11049
▁thine	-11050
▁toast	-11051
▁unint	-11052
▁vigor	-11053
idelity	-11054
itimate	-11055
leasure	-11056
legraph	-11057
othered	-11058
▁ASCIIâ	-11059
▁Always	-11060
▁BREACH	-11061
▁Greece	-11062
▁Listen	-11063
▁Whereâ	-11064
▁awaken	-11065
▁blinds	-11066
▁bother	-11067
▁cocked	-11068
▁coolly	-11069
▁dearly	-11070
▁decent	-11071
▁doomed	-11072
▁ensued	-11073
▁growth	-11074
▁hasten	-11075
▁improb	-11076
▁judges	-11077
▁losses	-11078
▁mantel	-11079
▁merits	-11080
▁morose	-11081
▁nieces	-11082
▁peeped	-11083
▁scarce	-11084
▁sermon	-11085
▁shells	-11086
▁stable	-11087
▁symbol	-11088
▁tackle	-11089
▁theres	-11090
▁warmed	-11091
▁wisest	-11092
ashioned	-11093
▁DAMAGES	-11094
▁DISTRIB	-11095
▁Gabelle	-11096
▁KalÃoga	-11097
▁LICENSE	-11098
▁Trinity	-11099
▁Turkish	-11100
▁apology	-11101
▁arising	-11102
▁aristoc	-11103
▁blunder	-11104
▁briefly	-11105
▁brushed	-11106
▁charges	-11107
▁chemist	-11108
▁clapped	-11109
▁climbed	-11110
▁college	-11111
▁comment	-11112
▁condemn	-11113
▁coronet	-11114
▁costume	-11115
▁dreamed	-11116
▁edition	-11117
▁execute	-11118
▁federal	-11119
▁formats	-11120
▁handing	-11121
▁include	-11122
▁novelty	-11123
▁offices	-11124
▁policem	-11125
▁priests	-11126
▁railway	-11127
▁regards	-11128
▁rejoice	-11129
▁scandal	-11130
▁shaving	-11131
▁shocked	-11132
▁slumber	-11133
▁trivial	-11134
▁winking	-11135
▁WARRANTY	-11136
▁ardently	-11137
▁banished	-11138
▁clapping	-11139
▁clutched	-11140
▁computer	-11141
▁elephant	-11142
▁foreseen	-11143
▁identify	-11144
▁injuries	-11145
▁inserted	-11146
▁insolent	-11147
▁interven	-11148
▁marshals	-11149
▁politics	-11150
▁positive	-11151
▁recorded	-11152
▁rejected	-11153
▁republic	-11154
▁secretly	-11155
▁shutters	-11156
▁slipping	-11157
▁sweeping	-11158
▁syllable	-11159
▁unfolded	-11160
▁whiskers	-11161
▁Donations	-11162
▁Redistrib	-11163
▁abilities	-11164
▁buildings	-11165
▁computers	-11166
▁engrossed	-11167
▁finishing	-11168
▁impending	-11169
▁inspector	-11170
▁obedience	-11171
▁persisted	-11172
▁promising	-11173
▁promotion	-11174
▁propriety	-11175
▁prospects	-11176
▁provinces	-11177
▁rapturous	-11178
▁regretted	-11179
▁specified	-11180
▁splashing	-11181
▁surrender	-11182
▁unusually	-11183
▁witnessed	-11184
▁Buonaparte	-11185
▁GUTENBERGâ	-11186
▁WARRANTIES	-11187
▁abominable	-11188
▁conference	-11189
▁disclaimer	-11190
▁flattering	-11191
▁hereditary	-11192
▁mechanical	-11193
▁precaution	-11194
▁surprising	-11195
▁suspicions	-11196
▁Switzerland	-11197
▁catastrophe	-11198
▁coincidence	-11199
▁encouraging	-11200
▁flourishing	-11201
▁illustrious	-11202
▁perceptible	-11203
▁principally	-11204
▁superiority	-11205
▁characterist	-11206
▁principality	-11207
▁relationship	-11208
▁inconvenience	-11209
▁recollections	-11210
▁affectionately	-11211
▁contemptuously	-11212
▁electronically	-11213
Em	-11214
Ha	-11215
SÃ	-11216
_?	-11217
vy	-11218
IND	-11219
abs	-11220
awk	-11221
esc	-11222
eze	-11223
ggy	-11224
hon	-11225
ilk	-11226
rod	-11227
roy	-11228
vag	-11229
ysk	-11230
▁Au	-11231
▁Ca	-11232
▁LÃ	-11233
▁MO	-11234
▁Ol	-11235
▁gy	-11236
▁ow	-11237
acey	-11238
acks	-11239
agon	-11240
alia	-11241
aste	-11242
atin	-11243
boys	-11244
bred	-11245
emen	-11246
ginâ	-11247
ipot	-11248
laid	-11249
nold	-11250
orus	-11251
pass	-11252
pere	-11253
prot	-11254
rice	-11255
roll	-11256
tery	-11257
town	-11258
uble	-11259
vels	-11260
▁200	-11261
▁Clo	-11262
▁Feb	-11263
▁Key	-11264
▁Occ	-11265
▁Oft	-11266
▁Rad	-11267
▁Ram	-11268
▁Sen	-11269
▁Twe	-11270
▁Vol	-11271
▁Wol	-11272
▁anc	-11273
▁cul	-11274
▁dur	-11275
▁hel	-11276
▁jol	-11277
▁lem	-11278
▁obs	-11279
▁tig	-11280
LORRY	-11281
adise	-11282
atoes	-11283
ester	-11284
forth	-11285
geous	-11286
heart	-11287
ibule	-11288
ifies	-11289
isons	-11290
month	-11291
onent	-11292
poise	-11293
power	-11294
ropri	-11295
still	-11296
urbed	-11297
▁Adam	-11298
▁Bent	-11299
▁Bull	-11300
▁Circ	-11301
▁Dark	-11302
▁Fair	-11303
▁Giov	-11304
▁Wood	-11305
▁ante	-11306
▁bred	-11307
▁buoy	-11308
▁cats	-11309
▁dazz	-11310
▁gang	-11311
▁gull	-11312
▁mole	-11313
▁nail	-11314
▁outâ	-11315
▁qual	-11316
▁ramb	-11317
▁sill	-11318
▁tips	-11319
▁unsu	-11320
▁wink	-11321
arious	-11322
artial	-11323
ausset	-11324
enched	-11325
icated	-11326
raltar	-11327
rifice	-11328
rolled	-11329
thereâ	-11330
uation	-11331
▁BELLA	-11332
▁BogdÃ	-11333
▁Devil	-11334
▁Harry	-11335
▁MozhÃ	-11336
▁PlatÃ	-11337
▁Twice	-11338
▁abide	-11339
▁alley	-11340
▁ample	-11341
▁armyâ	-11342
▁bands	-11343
▁blunt	-11344
▁boxes	-11345
▁calam	-11346
▁dated	-11347
▁dealt	-11348
▁engra	-11349
▁ferry	-11350
▁hourâ	-11351
▁ideal	-11352
▁kingâ	-11353
▁lungs	-11354
▁manly	-11355
▁misty	-11356
▁noisy	-11357
▁noted	-11358
▁paint	-11359
▁plays	-11360
▁plung	-11361
▁poker	-11362
▁prime	-11363
▁prior	-11364
▁reins	-11365
▁revel	-11366
▁route	-11367
▁sanct	-11368
▁shelf	-11369
▁squat	-11370
▁stain	-11371
▁tutor	-11372
▁twins	-11373
▁wears	-11374
iations	-11375
ortions	-11376
rection	-11377
▁FLORRY	-11378
▁Hunter	-11379
▁Others	-11380
▁Pagolo	-11381
▁Scotch	-11382
▁canvas	-11383
▁carved	-11384
▁cities	-11385
▁enable	-11386
▁enters	-11387
▁errand	-11388
▁gaiety	-11389
▁gladly	-11390
▁graves	-11391
▁hearty	-11392
▁injure	-11393
▁jerked	-11394
▁joking	-11395
▁keenly	-11396
▁latest	-11397
▁lawyer	-11398
▁mathem	-11399
▁monkey	-11400
▁morrow	-11401
▁neatly	-11402
▁nicely	-11403
▁passes	-11404
▁pirate	-11405
▁plates	-11406
▁potent	-11407
▁prohib	-11408
▁raging	-11409
▁sentin	-11410
▁shower	-11411
▁shrewd	-11412
▁specim	-11413
▁sprung	-11414
▁statue	-11415
▁stragg	-11416
▁suited	-11417
▁sunset	-11418
▁swords	-11419
▁wounds	-11420
aggering	-11421
amations	-11422
istening	-11423
omething	-11424
▁History	-11425
▁comprom	-11426
▁curling	-11427
▁devised	-11428
▁evinced	-11429
▁exalted	-11430
▁feeding	-11431
▁frankly	-11432
▁frantic	-11433
▁gardens	-11434
▁gliding	-11435
▁gunwale	-11436
▁harbour	-11437
▁harvest	-11438
▁helping	-11439
▁judging	-11440
▁praised	-11441
▁praying	-11442
▁presume	-11443
▁profits	-11444
▁quicker	-11445
▁regions	-11446
▁release	-11447
▁shrieks	-11448
▁supreme	-11449
▁tapping	-11450
important	-11451
▁Beausset	-11452
▁Giovanni	-11453
▁abhorred	-11454
▁abruptly	-11455
▁alliance	-11456
▁ashplant	-11457
▁assigned	-11458
▁coloured	-11459
▁converse	-11460
▁crowding	-11461
▁cruising	-11462
▁dejected	-11463
▁diplomat	-11464
▁elegance	-11465
▁eternity	-11466
▁forcibly	-11467
▁fourteen	-11468
▁guidance	-11469
▁imparted	-11470
▁impossib	-11471
▁invented	-11472
▁inviting	-11473
▁kneeling	-11474
▁lingered	-11475
▁majority	-11476
▁overhead	-11477
▁partners	-11478
▁pondered	-11479
▁promises	-11480
▁rustling	-11481
▁secondly	-11482
▁strictly	-11483
▁stripped	-11484
▁superflu	-11485
▁supplies	-11486
▁transact	-11487
▁uneasily	-11488
▁uplifted	-11489
interested	-11490
▁Gibraltar	-11491
▁Venetians	-11492
▁accepting	-11493
▁allowance	-11494
▁cherished	-11495
▁curiously	-11496
▁deference	-11497
▁delicious	-11498
▁discharge	-11499
▁energetic	-11500
▁memorable	-11501
▁offensive	-11502
▁phenomena	-11503
▁remainder	-11504
▁screaming	-11505
▁sincerity	-11506
▁structure	-11507
▁vestibule	-11508
▁Alexanderâ	-11509
▁collective	-11510
▁destroying	-11511
▁horizontal	-11512
▁indulgence	-11513
▁insensible	-11514
▁literature	-11515
▁perception	-11516
▁perfection	-11517
▁persuasion	-11518
▁positively	-11519
▁prosperity	-11520
▁complicated	-11521
▁conjectured	-11522
▁conspicuous	-11523
▁excessively	-11524
▁instruction	-11525
▁recognition	-11526
▁Pumblechookâ	-11527
▁accompanying	-11528
▁advantageous	-11529
▁comprehended	-11530
▁disconcerted	-11531
▁independence	-11532
▁mechanically	-11533
FF	-11534
WN	-11535
ez	-11536
tz	-11537
▁i	-11538
Boy	-11539
RST	-11540
ada	-11541
aft	-11542
bad	-11543
bod	-11544
din	-11545
fig	-11546
gic	-11547
hip	-11548
met	-11549
pin	-11550
rec	-11551
vol	-11552
▁Hy	-11553
▁nu	-11554
▁oy	-11555
Poor	-11556
acit	-11557
alle	-11558
bbed	-11559
cket	-11560
comp	-11561
eter	-11562
iche	-11563
imps	-11564
isen	-11565
iser	-11566
laws	-11567
leph	-11568
lerâ	-11569
odka	-11570
past	-11571
pher	-11572
unal	-11573
youâ	-11574
▁Fif	-11575
▁Gob	-11576
▁Jen	-11577
▁Lid	-11578
▁Son	-11579
▁Sub	-11580
▁alb	-11581
▁apt	-11582
▁dew	-11583
▁eve	-11584
▁nut	-11585
▁sar	-11586
▁toe	-11587
▁ven	-11588
adays	-11589
iliar	-11590
inisc	-11591
kered	-11592
never	-11593
nskay	-11594
secut	-11595
tÃate	-11596
▁Club	-11597
▁Isnâ	-11598
▁Nice	-11599
▁Park	-11600
▁Part	-11601
▁Pipâ	-11602
▁Pure	-11603
▁Rhet	-11604
▁Ross	-11605
▁anew	-11606
▁beam	-11607
▁clam	-11608
▁data	-11609
▁ejac	-11610
▁fant	-11611
▁grud	-11612
▁hath	-11613
▁jail	-11614
▁lend	-11615
▁plum	-11616
▁pose	-11617
▁quid	-11618
▁reli	-11619
▁succ	-11620
▁tiss	-11621
▁unob	-11622
icable	-11623
ieties	-11624
nichna	-11625
ppling	-11626
ranean	-11627
satisf	-11628
▁Denny	-11629
▁FIRST	-11630
▁Hotel	-11631
▁Often	-11632
▁Perth	-11633
▁array	-11634
▁aught	-11635
▁await	-11636
▁birch	-11637
▁coals	-11638
▁coats	-11639
▁curls	-11640
▁depos	-11641
▁drums	-11642
▁exile	-11643
▁flush	-11644
▁fools	-11645
▁hairs	-11646
▁heave	-11647
▁horns	-11648
▁locks	-11649
▁minor	-11650
▁obliv	-11651
▁perch	-11652
▁prett	-11653
▁ropes	-11654
▁roses	-11655
▁ruled	-11656
▁scarf	-11657
▁shift	-11658
▁shots	-11659
▁slain	-11660
▁sniff	-11661
▁subsc	-11662
▁sunny	-11663
▁sweat	-11664
▁trump	-11665
▁types	-11666
▁undec	-11667
▁verse	-11668
▁vigil	-11669
aration	-11670
arewell	-11671
clothes	-11672
stained	-11673
whether	-11674
without	-11675
▁Bridge	-11676
▁Kirwin	-11677
▁Queenâ	-11678
▁Twenty	-11679
▁adored	-11680
▁ancest	-11681
▁barred	-11682
▁charms	-11683
▁dipped	-11684
▁doublo	-11685
▁emphat	-11686
▁grapes	-11687
▁heroic	-11688
▁homage	-11689
▁invite	-11690
▁kidney	-11691
▁league	-11692
▁lesser	-11693
▁lodged	-11694
▁mutton	-11695
▁occurs	-11696
▁patter	-11697
▁placid	-11698
▁profit	-11699
▁rebell	-11700
▁repugn	-11701
▁rescue	-11702
▁rumors	-11703
▁shaded	-11704
▁skirts	-11705
▁strand	-11706
▁tattoo	-11707
ereshchÃ	-11708
▁Hundred	-11709
▁acquire	-11710
▁bidding	-11711
▁compens	-11712
▁conceit	-11713
▁cordial	-11714
▁dealing	-11715
▁exagger	-11716
▁fetched	-11717
▁fixedly	-11718
▁flutter	-11719
▁foresee	-11720
▁forests	-11721
▁furnish	-11722
▁groaned	-11723
▁jumping	-11724
▁longing	-11725
▁merrily	-11726
▁nursery	-11727
▁nursing	-11728
▁planted	-11729
▁rattled	-11730
▁relinqu	-11731
▁revived	-11732
▁scuttle	-11733
▁serpent	-11734
▁submiss	-11735
▁surgeon	-11736
▁tumbled	-11737
pressible	-11738
▁Atlantic	-11739
▁Boardman	-11740
▁Herbertâ	-11741
▁Magwitch	-11742
▁National	-11743
▁admiring	-11744
▁appetite	-11745
▁arriving	-11746
▁assembly	-11747
▁concerns	-11748
▁consists	-11749
▁constern	-11750
▁dangling	-11751
▁deserves	-11752
▁downcast	-11753
▁extravag	-11754
▁favoured	-11755
▁fidelity	-11756
▁governed	-11757
▁husbands	-11758
▁inasmuch	-11759
▁merciful	-11760
▁modified	-11761
▁nameless	-11762
▁negative	-11763
▁pretence	-11764
▁publicly	-11765
▁quivered	-11766
▁shooting	-11767
▁ultimate	-11768
▁vehicles	-11769
▁Frederick	-11770
▁Ladyshipâ	-11771
▁Starbuckâ	-11772
▁accidents	-11773
▁admission	-11774
▁admitting	-11775
▁appalling	-11776
▁attacking	-11777
▁beholding	-11778
▁childlike	-11779
▁cigarette	-11780
▁companies	-11781
▁directing	-11782
▁extending	-11783
▁gallantry	-11784
▁languages	-11785
▁overheard	-11786
▁permanent	-11787
▁perplexed	-11788
▁prominent	-11789
▁resolving	-11790
▁strongest	-11791
▁traversed	-11792
▁assurances	-11793
▁charitable	-11794
▁enchanting	-11795
▁eventually	-11796
▁experiment	-11797
▁improbable	-11798
▁inspection	-11799
▁occurrence	-11800
▁prodigious	-11801
▁repetition	-11802
▁resembling	-11803
▁resistance	-11804
▁succession	-11805
▁wickedness	-11806
▁benevolence	-11807
▁combination	-11808
▁displeasure	-11809
▁forgiveness	-11810
▁illuminated	-11811
▁refreshment	-11812
▁countenances	-11813
▁triumphantly	-11814
▁perpendicular	-11815
2]	-11816
7,	-11817
IC	-11818
OY	-11819
Tw	-11820
oi	-11821
ui	-11822
Que	-11823
acr	-11824
arâ	-11825
inc	-11826
kee	-11827
lip	-11828
mar	-11829
mit	-11830
nel	-11831
new	-11832
ooh	-11833
ora	-11834
oup	-11835
▁22	-11836
▁Ac	-11837
▁Ay	-11838
▁Jo	-11839
▁Lo	-11840
▁Po	-11841
▁ay	-11842
Hugh	-11843
IGHT	-11844
Lady	-11845
Such	-11846
alog	-11847
apse	-11848
etch	-11849
eted	-11850
ftly	-11851
gedy	-11852
ierâ	-11853
issa	-11854
meas	-11855
ogli	-11856
orns	-11857
otic	-11858
rack	-11859
rigg	-11860
ruck	-11861
serv	-11862
tled	-11863
tyaâ	-11864
▁Ach	-11865
▁Att	-11866
▁Din	-11867
▁Jan	-11868
▁Ori	-11869
▁San	-11870
▁VIR	-11871
▁Wor	-11872
▁ale	-11873
▁ami	-11874
▁gut	-11875
▁hee	-11876
▁hob	-11877
▁jur	-11878
▁obe	-11879
▁rab	-11880
▁tip	-11881
▁vow	-11882
Hello	-11883
akerâ	-11884
berty	-11885
bones	-11886
chest	-11887
entat	-11888
horse	-11889
human	-11890
illes	-11891
ioned	-11892
itory	-11893
lined	-11894
orial	-11895
orney	-11896
oster	-11897
owell	-11898
rings	-11899
ruary	-11900
their	-11901
zogen	-11902
▁1805	-11903
▁Guin	-11904
▁Happ	-11905
▁Mort	-11906
▁Talk	-11907
▁Town	-11908
▁Ward	-11909
▁adap	-11910
▁adjo	-11911
▁asyl	-11912
▁cows	-11913
▁curb	-11914
▁cush	-11915
▁drum	-11916
▁elig	-11917
▁rend	-11918
▁sayâ	-11919
▁sits	-11920
▁ties	-11921
▁unto	-11922
▁vind	-11923
▁vine	-11924
Halloa	-11925
ducing	-11926
erving	-11927
irited	-11928
itness	-11929
ivable	-11930
ousing	-11931
proach	-11932
ulsion	-11933
ulties	-11934
▁Above	-11935
▁Blanc	-11936
▁Breen	-11937
▁Japan	-11938
▁Latin	-11939
▁Royal	-11940
▁RyazÃ	-11941
▁Women	-11942
▁bitch	-11943
▁bully	-11944
▁chuck	-11945
▁clust	-11946
▁embro	-11947
▁enclo	-11948
▁faire	-11949
▁finan	-11950
▁fowls	-11951
▁fring	-11952
▁greed	-11953
▁groan	-11954
▁jewel	-11955
▁kneel	-11956
▁loyal	-11957
▁relax	-11958
▁roots	-11959
▁sauce	-11960
▁seats	-11961
▁spray	-11962
▁tacit	-11963
▁tails	-11964
▁talks	-11965
▁taxes	-11966
▁toile	-11967
▁unequ	-11968
▁vodka	-11969
▁wagon	-11970
▁̈ches	-11971
Captain	-11972
inement	-11973
rations	-11974
▁Easter	-11975
▁Letter	-11976
▁Oxford	-11977
▁Toward	-11978
▁afresh	-11979
▁angels	-11980
▁arisen	-11981
▁combat	-11982
▁diseng	-11983
▁guitar	-11984
▁images	-11985
▁impass	-11986
▁inquis	-11987
▁intric	-11988
▁obstin	-11989
▁odious	-11990
▁packet	-11991
▁poetic	-11992
▁recess	-11993
▁relish	-11994
▁reveal	-11995
▁rulers	-11996
▁rustle	-11997
▁specul	-11998
▁strode	-11999
▁towers	-12000
▁widely	-12001
▁writer	-12002
Nicholas	-12003
ableness	-12004
iterated	-12005
onnected	-12006
secution	-12007
▁Finally	-12008
▁Marshal	-12009
▁Pistoia	-12010
▁Vincent	-12011
▁annihil	-12012
▁bridges	-12013
▁butcher	-12014
▁chronic	-12015
▁claimed	-12016
▁clouded	-12017
▁congreg	-12018
▁demands	-12019
▁despise	-12020
▁fathers	-12021
▁forlorn	-12022
▁gleamed	-12023
▁haughty	-12024
▁inherit	-12025
▁interch	-12026
▁lodging	-12027
▁majesty	-12028
▁mockery	-12029
▁naughty	-12030
▁omitted	-12031
▁phantom	-12032
▁refined	-12033
▁sloping	-12034
▁sorrows	-12035
▁stature	-12036
▁streams	-12037
▁temples	-12038
▁trifles	-12039
▁varying	-12040
▁version	-12041
▁viewing	-12042
▁watches	-12043
fashioned	-12044
sacrifice	-12045
▁Bastille	-12046
▁Wolzogen	-12047
▁alarming	-12048
▁appropri	-12049
▁beckoned	-12050
▁boundary	-12051
▁brooding	-12052
▁chemical	-12053
▁comforts	-12054
▁complied	-12055
▁convince	-12056
▁detected	-12057
▁dreaming	-12058
▁drifting	-12059
▁fatigued	-12060
▁heavenly	-12061
▁idleness	-12062
▁licensed	-12063
▁literary	-12064
▁problems	-12065
▁reminisc	-12066
▁simplest	-12067
▁clutching	-12068
▁conceited	-12069
▁contempor	-12070
▁elopement	-12071
▁faculties	-12072
▁forbidden	-12073
▁identical	-12074
▁patriotic	-12075
▁penetrate	-12076
▁refreshed	-12077
▁responded	-12078
▁springing	-12079
▁testimony	-12080
▁utterance	-12081
▁Guillotine	-12082
▁apartments	-12083
▁carelessly	-12084
▁comprehens	-12085
▁liberality	-12086
▁monotonous	-12087
▁operations	-12088
▁personages	-12089
▁presenting	-12090
▁regardless	-12091
▁reproached	-12092
▁respecting	-12093
▁triumphant	-12094
▁anticipated	-12095
▁approbation	-12096
▁astonishing	-12097
▁comfortably	-12098
▁desperation	-12099
▁forbearance	-12100
▁grandfather	-12101
▁introducing	-12102
▁obligations	-12103
▁superfluous	-12104
▁enthusiastic	-12105
▁supernatural	-12106
▁comparatively	-12107
▁consternation	-12108
▁contradiction	-12109
TH	-12110
gÃ	-12111
Any	-12112
ITH	-12113
_),	-12114
aci	-12115
aye	-12116
cus	-12117
dog	-12118
egr	-12119
ias	-12120
irl	-12121
oni	-12122
oph	-12123
ran	-12124
ril	-12125
sya	-12126
yka	-12127
▁GÃ	-12128
▁Pi	-12129
▁Ye	-12130
▁cy	-12131
fire	-12132
inci	-12133
ingâ	-12134
keys	-12135
lich	-12136
lmed	-12137
olit	-12138
shaw	-12139
snoe	-12140
them	-12141
tion	-12142
tsyn	-12143
uffs	-12144
yram	-12145
▁Ask	-12146
▁Big	-12147
▁Dis	-12148
▁Met	-12149
▁Mum	-12150
▁RaÃ	-12151
▁Ret	-12152
▁Rey	-12153
▁Try	-12154
▁Zoe	-12155
▁dod	-12156
▁gau	-12157
▁nim	-12158
▁nun	-12159
▁onâ	-12160
▁ted	-12161
ainty	-12162
assad	-12163
belie	-12164
ellig	-12165
erers	-12166
immed	-12167
ottle	-12168
oulon	-12169
point	-12170
ridge	-12171
unned	-12172
▁Bern	-12173
▁Clap	-12174
▁Dead	-12175
▁Line	-12176
▁Marg	-12177
▁OlmÃ	-12178
▁Till	-12179
▁aims	-12180
▁aven	-12181
▁bags	-12182
▁brig	-12183
▁bubb	-12184
▁disk	-12185
▁fanc	-12186
▁inco	-12187
▁lick	-12188
▁limp	-12189
▁mans	-12190
▁penn	-12191
▁pond	-12192
▁role	-12193
▁sets	-12194
▁sine	-12195
▁ster	-12196
▁sung	-12197
▁tink	-12198
antime	-12199
athing	-12200
backed	-12201
ernity	-12202
nskaya	-12203
pereur	-12204
piring	-12205
riment	-12206
served	-12207
uating	-12208
umbent	-12209
urning	-12210
▁Barge	-12211
▁Chief	-12212
▁Lyons	-12213
▁Sandy	-12214
▁Third	-12215
▁Tower	-12216
▁Ugucc	-12217
▁Virag	-12218
▁appla	-12219
▁arbit	-12220
▁bunch	-12221
▁choir	-12222
▁decks	-12223
▁elseâ	-12224
▁files	-12225
▁fragr	-12226
▁glimm	-12227
▁hedge	-12228
▁hypot	-12229
▁impot	-12230
▁lands	-12231
▁nasty	-12232
▁overh	-12233
▁procl	-12234
▁pumps	-12235
▁sable	-12236
▁sings	-12237
▁slope	-12238
▁smith	-12239
▁solve	-12240
▁thump	-12241
▁veget	-12242
▁whore	-12243
▁witty	-12244
cellent	-12245
earthly	-12246
erchief	-12247
inating	-12248
respect	-12249
undered	-12250
vichord	-12251
▁Coming	-12252
▁Drissa	-12253
▁Hurrah	-12254
▁Nearly	-12255
▁Rhetor	-12256
▁Trabbâ	-12257
▁behave	-12258
▁bullet	-12259
▁chival	-12260
▁compet	-12261
▁critic	-12262
▁curves	-12263
▁damage	-12264
▁eccent	-12265
▁excite	-12266
▁faults	-12267
▁flound	-12268
▁galley	-12269
▁heaved	-12270
▁integr	-12271
▁jewels	-12272
▁latent	-12273
▁luxury	-12274
▁namely	-12275
▁newcom	-12276
▁obeyed	-12277
▁peered	-12278
▁salute	-12279
▁sobbed	-12280
▁solved	-12281
▁sphere	-12282
▁swells	-12283
▁thrice	-12284
▁traced	-12285
▁unprot	-12286
▁varied	-12287
▁wreath	-12288
▁Antonio	-12289
▁Instead	-12290
▁Lidwell	-12291
▁Michaud	-12292
▁Suppose	-12293
▁apprent	-12294
▁billows	-12295
▁causing	-12296
▁central	-12297
▁chewing	-12298
▁choking	-12299
▁compare	-12300
▁darting	-12301
▁exhaust	-12302
▁groping	-12303
▁hackney	-12304
▁hostess	-12305
▁indulge	-12306
▁journal	-12307
▁mariner	-12308
▁moaning	-12309
▁mothers	-12310
▁needles	-12311
▁plaited	-12312
▁program	-12313
▁renewal	-12314
▁routine	-12315
▁soothed	-12316
▁tedious	-12317
▁unspeak	-12318
▁valiant	-12319
▁wherein	-12320
▁worried	-12321
▁Bargemen	-12322
▁February	-12323
▁Richmond	-12324
▁administ	-12325
▁ambassad	-12326
▁campfire	-12327
▁cannibal	-12328
▁clothing	-12329
▁consumed	-12330
▁convicts	-12331
▁defended	-12332
▁defiance	-12333
▁delights	-12334
▁demonstr	-12335
▁emphasis	-12336
▁grinning	-12337
▁huntsman	-12338
▁mentally	-12339
▁monsieur	-12340
▁morningâ	-12341
▁perilous	-12342
▁promptly	-12343
▁punished	-12344
▁removing	-12345
▁sounding	-12346
▁stricken	-12347
▁stubborn	-12348
▁threaten	-12349
▁twitched	-12350
▁watchful	-12351
▁windlass	-12352
▁windward	-12353
▁withdraw	-12354
▁withered	-12355
▁Uguccione	-12356
▁accounted	-12357
▁boundless	-12358
▁comforted	-12359
▁dependent	-12360
▁eloquence	-12361
▁exceeding	-12362
▁extensive	-12363
▁fireplace	-12364
▁furiously	-12365
▁imprudent	-12366
▁inflicted	-12367
▁inhabited	-12368
▁malignity	-12369
▁ministers	-12370
▁overwhelm	-12371
▁patronage	-12372
▁precision	-12373
▁referring	-12374
▁refrained	-12375
▁rejoicing	-12376
▁reverence	-12377
▁shipmates	-12378
▁sweetness	-12379
▁tradesman	-12380
▁unearthly	-12381
▁withstand	-12382
▁beforehand	-12383
▁clavichord	-12384
▁describing	-12385
▁diminished	-12386
▁imprudence	-12387
▁principles	-12388
▁reasonably	-12389
▁statements	-12390
▁submission	-12391
▁conclusions	-12392
▁development	-12393
▁reluctantly	-12394
▁unprotected	-12395
▁voluntarily	-12396
▁construction	-12397
▁subsequently	-12398
▁surroundings	-12399
04	-12400
EL	-12401
Ho	-12402
Me	-12403
ai	-12404
ARD	-12405
aux	-12406
cup	-12407
fed	-12408
hel	-12409
iev	-12410
lev	-12411
lod	-12412
lon	-12413
pan	-12414
phy	-12415
sev	-12416
.	-12417
▁21	-12418
▁Ap	-12419
▁BY	-12420
▁CA	-12421
▁Si	-12422
Does	-12423
RESS	-12424
Upon	-12425
anse	-12426
asse	-12427
cope	-12428
empl	-12429
ench	-12430
feit	-12431
good	-12432
ifts	-12433
iler	-12434
iner	-12435
iver	-12436
lott	-12437
love	-12438
mean	-12439
ndrÃ	-12440
nell	-12441
onov	-12442
osis	-12443
rary	-12444
rell	-12445
ston	-12446
utin	-12447
▁Art	-12448
▁Ces	-12449
▁Dix	-12450
▁Fan	-12451
▁Jac	-12452
▁MER	-12453
▁Mir	-12454
▁Mus	-12455
▁Rec	-12456
▁Sur	-12457
▁Tun	-12458
▁VyÃ	-12459
▁hei	-12460
▁rhy	-12461
▁rye	-12462
▁spi	-12463
▁syn	-12464
ITIES	-12465
dorov	-12466
ettle	-12467
found	-12468
iamen	-12469
igger	-12470
ingle	-12471
seven	-12472
ulsed	-12473
useum	-12474
▁Back	-12475
▁Book	-12476
▁Know	-12477
▁SuvÃ	-12478
▁Want	-12479
▁Wils	-12480
▁allâ	-12481
▁anat	-12482
▁andâ	-12483
▁bony	-12484
▁cane	-12485
▁cust	-12486
▁dash	-12487
▁dram	-12488
▁foli	-12489
▁grip	-12490
▁harb	-12491
▁hood	-12492
▁isol	-12493
▁lent	-12494
▁loos	-12495
▁nest	-12496
▁noct	-12497
▁pens	-12498
▁pike	-12499
▁seed	-12500
▁shak	-12501
▁sund	-12502
▁tray	-12503
▁undo	-12504
▁unhe	-12505
▁wayâ	-12506
chants	-12507
elling	-12508
estial	-12509
eville	-12510
igalia	-12511
ignant	-12512
illing	-12513
irting	-12514
itably	-12515
khovna	-12516
kinson	-12517
ovable	-12518
pocket	-12519
shaven	-12520
▁Bible	-12521
▁Bohem	-12522
▁Byrne	-12523
▁China	-12524
▁Poldy	-12525
▁Terry	-12526
▁VIRAG	-12527
▁bacon	-12528
▁basin	-12529
▁blond	-12530
▁canal	-12531
▁capit	-12532
▁compr	-12533
▁cripp	-12534
▁decay	-12535
▁ditch	-12536
▁eagle	-12537
▁exult	-12538
▁faced	-12539
▁flirt	-12540
▁float	-12541
▁footp	-12542
▁fraud	-12543
▁gaunt	-12544
▁glare	-12545
▁gloss	-12546
▁glove	-12547
▁grove	-12548
▁hairy	-12549
▁hangs	-12550
▁irons	-12551
▁irony	-12552
▁knuck	-12553
▁mayor	-12554
▁outst	-12555
▁patch	-12556
▁pinch	-12557
▁quilt	-12558
▁recru	-12559
▁relic	-12560
▁rests	-12561
▁rival	-12562
▁rolls	-12563
▁roofs	-12564
▁samov	-12565
▁satin	-12566
▁scale	-12567
▁sixth	-12568
▁skies	-12569
▁skiff	-12570
▁spots	-12571
▁thief	-12572
▁truce	-12573
▁unset	-12574
▁usage	-12575
inished	-12576
iration	-12577
istinct	-12578
ivities	-12579
oloured	-12580
umbered	-12581
uminous	-12582
verotto	-12583
▁Barley	-12584
▁HendrÃ	-12585
▁Holles	-12586
▁Hosmer	-12587
▁Hubble	-12588
▁Julius	-12589
▁Martha	-12590
▁Menton	-12591
▁MilorÃ	-12592
▁Niemen	-12593
▁Poland	-12594
▁Radney	-12595
▁Surely	-12596
▁Turner	-12597
▁Tweedy	-12598
▁artist	-12599
▁asylum	-12600
▁blamed	-12601
▁boards	-12602
▁closet	-12603
▁darker	-12604
▁deduct	-12605
▁divide	-12606
▁fixing	-12607
▁frenzy	-12608
▁gentry	-12609
▁grieve	-12610
▁interm	-12611
▁intrig	-12612
▁knowed	-12613
▁meadow	-12614
▁mildly	-12615
▁napkin	-12616
▁obsole	-12617
▁orphan	-12618
▁plague	-12619
▁plaint	-12620
▁pulpit	-12621
▁shirts	-12622
▁shiver	-12623
▁shores	-12624
▁sparks	-12625
▁stages	-12626
▁sunken	-12627
▁temple	-12628
▁tracks	-12629
▁ventil	-12630
▁wholes	-12631
▁worlds	-12632
buttoned	-12633
▁January	-12634
▁Lakeman	-12635
▁MacHugh	-12636
▁Reynold	-12637
▁Roylott	-12638
▁Towards	-12639
▁captive	-12640
▁compact	-12641
▁contriv	-12642
▁convert	-12643
▁culture	-12644
▁dinners	-12645
▁doctorâ	-12646
▁emperor	-12647
▁exclaim	-12648
▁fainted	-12649
▁fellowâ	-12650
▁gallows	-12651
▁glaring	-12652
▁halting	-12653
▁harmony	-12654
▁heavenâ	-12655
▁invinci	-12656
▁kindled	-12657
▁maximum	-12658
▁motions	-12659
▁muscles	-12660
▁patches	-12661
▁planned	-12662
▁puffing	-12663
▁robbery	-12664
▁springs	-12665
▁stamped	-12666
▁tongues	-12667
▁torrent	-12668
▁voyages	-12669
Gentlemen	-12670
naturally	-12671
▁Margaret	-12672
▁Meantime	-12673
▁Probably	-12674
▁Walworth	-12675
▁constell	-12676
▁courtesy	-12677
▁detained	-12678
▁detested	-12679
▁diverted	-12680
▁drowning	-12681
▁eligible	-12682
▁emigrant	-12683
▁equality	-12684
▁flashing	-12685
▁grasping	-12686
▁homeward	-12687
▁imposing	-12688
▁mildness	-12689
▁minutely	-12690
▁musketry	-12691
▁powdered	-12692
▁resource	-12693
▁smelling	-12694
▁stocking	-12695
▁sympathe	-12696
▁tattered	-12697
▁Sinigalia	-12698
▁adjoining	-12699
▁advisable	-12700
▁alternate	-12701
▁captivity	-12702
▁celestial	-12703
▁cordially	-12704
▁courtiers	-12705
▁developed	-12706
▁eccentric	-12707
▁extremity	-12708
▁fantastic	-12709
▁fortitude	-12710
▁hereafter	-12711
▁honorable	-12712
▁incessant	-12713
▁indignant	-12714
▁intensity	-12715
▁irritated	-12716
▁materials	-12717
▁mercenary	-12718
▁mortified	-12719
▁murmuring	-12720
▁mysteries	-12721
▁organized	-12722
▁partially	-12723
▁perpetual	-12724
▁practised	-12725
▁purchased	-12726
▁requested	-12727
▁resources	-12728
▁sleepless	-12729
▁undecided	-12730
▁Oliverotto	-12731
▁acceptable	-12732
▁complaints	-12733
▁consequent	-12734
▁depression	-12735
▁desolation	-12736
▁despairing	-12737
▁generation	-12738
▁influences	-12739
▁interposed	-12740
▁irritation	-12741
▁reappeared	-12742
▁recovering	-12743
▁shuddering	-12744
▁stepfather	-12745
▁contemplate	-12746
▁convenience	-12747
▁educational	-12748
▁impertinent	-12749
▁peculiarity	-12750
▁personality	-12751
▁picturesque	-12752
▁compassionate	-12753
▁disinterested	-12754
▁identification	-12755
IX	-12756
La	-12757
NE	-12758
UM	-12759
fr	-12760
Con	-12761
ICH	-12762
Our	-12763
TRA	-12764
URE	-12765
_.)	-12766
bid	-12767
bug	-12768
cor	-12769
dro	-12770
evâ	-12771
ico	-12772
isâ	-12773
oir	-12774
rup	-12775
zma	-12776
.	-12777
▁2.	-12778
▁3.	-12779
▁4.	-12780
▁AD	-12781
▁Cy	-12782
▁Dâ	-12783
▁SU	-12784
▁tâ	-12785
IPAL	-12786
Mary	-12787
Sheâ	-12788
Were	-12789
_...	-12790
atre	-12791
cean	-12792
cern	-12793
elli	-12794
elph	-12795
enet	-12796
iary	-12797
iesâ	-12798
ieth	-12799
mble	-12800
name	-12801
port	-12802
verb	-12803
walk	-12804
wife	-12805
worn	-12806
xter	-12807
▁Hug	-12808
▁Jar	-12809
▁Jew	-12810
▁MAR	-12811
▁Mid	-12812
▁SEC	-12813
▁Sam	-12814
▁Sax	-12815
▁Tal	-12816
▁dow	-12817
▁flÃ	-12818
▁gap	-12819
▁liv	-12820
▁lob	-12821
▁pew	-12822
▁tam	-12823
About	-12824
First	-12825
Still	-12826
amped	-12827
apers	-12828
bbles	-12829
burst	-12830
could	-12831
dress	-12832
green	-12833
herry	-12834
ibank	-12835
icide	-12836
ishly	-12837
ksome	-12838
ollyâ	-12839
ooper	-12840
organ	-12841
ormal	-12842
ospel	-12843
pired	-12844
reast	-12845
shoot	-12846
ulses	-12847
ville	-12848
zzled	-12849
▁CARR	-12850
▁Find	-12851
▁Fine	-12852
▁Finn	-12853
▁Hear	-12854
▁Krem	-12855
▁Lane	-12856
▁Lear	-12857
▁Road	-12858
▁XXIV	-12859
▁agon	-12860
▁alle	-12861
▁area	-12862
▁boom	-12863
▁cask	-12864
▁dies	-12865
▁fist	-12866
▁flav	-12867
▁hemp	-12868
▁hive	-12869
▁lime	-12870
▁matr	-12871
▁nuts	-12872
▁pawn	-12873
▁pays	-12874
▁plat	-12875
▁pomp	-12876
▁quer	-12877
▁shes	-12878
▁subt	-12879
▁thri	-12880
▁trip	-12881
▁wipe	-12882
▁wits	-12883
affold	-12884
allied	-12885
ancers	-12886
dovich	-12887
erness	-12888
idated	-12889
ltered	-12890
ptured	-12891
rothed	-12892
school	-12893
urring	-12894
vingly	-12895
▁Bring	-12896
▁Child	-12897
▁Clara	-12898
▁Dilly	-12899
▁Dover	-12900
▁Force	-12901
▁Imper	-12902
▁Quite	-12903
▁Rhine	-12904
▁Speak	-12905
▁VOICE	-12906
▁XXIII	-12907
▁admon	-12908
▁cakes	-12909
▁crash	-12910
▁crisp	-12911
▁defin	-12912
▁deleg	-12913
▁diver	-12914
▁draws	-12915
▁handy	-12916
▁injun	-12917
▁jokes	-12918
▁lakes	-12919
▁lifts	-12920
▁moody	-12921
▁ninet	-12922
▁panic	-12923
▁physi	-12924
▁poets	-12925
▁postp	-12926
▁pulse	-12927
▁pupil	-12928
▁sangu	-12929
▁slice	-12930
▁smack	-12931
▁spade	-12932
▁spasm	-12933
▁stays	-12934
▁steal	-12935
▁suits	-12936
▁toils	-12937
▁troop	-12938
▁warri	-12939
▁worsh	-12940
▁wrigg	-12941
ication	-12942
imately	-12943
keeping	-12944
liament	-12945
pective	-12946
uteness	-12947
vlograd	-12948
▁BalagÃ	-12949
▁Beside	-12950
▁Beyond	-12951
▁Edward	-12952
▁Empire	-12953
▁Medici	-12954
▁Messrs	-12955
▁Turkey	-12956
▁Unless	-12957
▁bridal	-12958
▁chapel	-12959
▁chords	-12960
▁claims	-12961
▁copper	-12962
▁dainty	-12963
▁dearer	-12964
▁econom	-12965
▁entail	-12966
▁enumer	-12967
▁exempl	-12968
▁feebly	-12969
▁flanks	-12970
▁frivol	-12971
▁fruits	-12972
▁gasped	-12973
▁hazard	-12974
▁hearse	-12975
▁limits	-12976
▁midday	-12977
▁neednâ	-12978
▁nought	-12979
▁offend	-12980
▁patted	-12981
▁pepper	-12982
▁pillar	-12983
▁pupils	-12984
▁reconc	-12985
▁resign	-12986
▁rushes	-12987
▁shades	-12988
▁shapes	-12989
▁smells	-12990
▁strove	-12991
▁thingâ	-12992
▁timber	-12993
▁toilet	-12994
▁tricks	-12995
▁violet	-12996
▁wrists	-12997
Empereur	-12998
Queequeg	-12999
▁Bedford	-13000
▁Bennets	-13001
▁Lambton	-13002
▁Purefoy	-13003
▁Someone	-13004
▁Wopsleâ	-13005
▁abreast	-13006
▁adapted	-13007
▁authors	-13008
▁binding	-13009
▁blanket	-13010
▁blazing	-13011
▁cherish	-13012
▁complac	-13013
▁confide	-13014
▁connect	-13015
▁conting	-13016
▁crystal	-13017
▁defects	-13018
▁drifted	-13019
▁economy	-13020
▁females	-13021
▁footing	-13022
▁harmful	-13023
▁imitate	-13024
▁inspire	-13025
▁irksome	-13026
▁landown	-13027
▁oneself	-13028
▁packing	-13029
▁pitched	-13030
▁reigned	-13031
▁reverse	-13032
▁samovar	-13033
▁sarcast	-13034
▁schools	-13035
▁sliding	-13036
▁snapped	-13037
▁squeeze	-13038
▁strikes	-13039
▁theater	-13040
▁trained	-13041
▁trodden	-13042
▁vehicle	-13043
▁writers	-13044
confident	-13045
▁Brothers	-13046
▁Defargeâ	-13047
▁barefoot	-13048
▁believes	-13049
▁crumpled	-13050
▁curtains	-13051
▁escaping	-13052
▁existing	-13053
▁exposing	-13054
▁fortress	-13055
▁function	-13056
▁insanity	-13057
▁insulted	-13058
▁interior	-13059
▁internal	-13060
▁jingling	-13061
▁muscular	-13062
▁parallel	-13063
▁portable	-13064
▁projects	-13065
▁pursuits	-13066
▁reconcil	-13067
▁repaired	-13068
▁scaffold	-13069
▁searched	-13070
▁secluded	-13071
▁shameful	-13072
▁shifting	-13073
▁southern	-13074
▁sparkled	-13075
▁PRINCIPAL	-13076
▁VereshchÃ	-13077
▁Windibank	-13078
▁additions	-13079
▁apologize	-13080
▁calculate	-13081
▁cathedral	-13082
▁commotion	-13083
▁customers	-13084
▁disclosed	-13085
▁expressly	-13086
▁financial	-13087
▁horseback	-13088
▁imagining	-13089
▁maneuvers	-13090
▁nervously	-13091
▁obscurity	-13092
▁overthrow	-13093
▁physician	-13094
▁ponderous	-13095
▁remarking	-13096
▁sheltered	-13097
▁similarly	-13098
▁slaughter	-13099
▁soldiersâ	-13100
▁treachery	-13101
▁tremulous	-13102
▁unconcern	-13103
▁concluding	-13104
▁consistent	-13105
▁discharged	-13106
▁disordered	-13107
▁exhibition	-13108
▁fluttering	-13109
▁fortresses	-13110
▁foundation	-13111
▁graciously	-13112
▁physically	-13113
▁sovereigns	-13114
▁travellers	-13115
▁unintellig	-13116
▁distressing	-13117
▁familiarity	-13118
▁presumption	-13119
▁professions	-13120
▁announcement	-13121
▁discontented	-13122
▁imprisonment	-13123
▁proclamation	-13124
▁quartermaster	-13125
▁reproachfully	-13126
▁representative	-13127
▁characteristics	-13128
Ne	-13129
dâ	-13130
ii	-13131
AND	-13132
Had	-13133
Mar	-13134
Off	-13135
Old	-13136
Yet	-13137
apÃ	-13138
ata	-13139
aza	-13140
ees	-13141
enâ	-13142
gan	-13143
ixt	-13144
lee	-13145
otâ	-13146
put	-13147
ram	-13148
rie	-13149
shm	-13150
sis	-13151
tin	-13152
ube	-13153
▁1/	-13154
▁60	-13155
▁Pa	-13156
▁Ur	-13157
▁da	-13158
▁wo	-13159
Call	-13160
True	-13161
aith	-13162
anty	-13163
aros	-13164
aten	-13165
aths	-13166
cond	-13167
dess	-13168
ergÃ	-13169
fted	-13170
gina	-13171
gues	-13172
inue	-13173
ippi	-13174
isle	-13175
mann	-13176
mine	-13177
mith	-13178
ntov	-13179
oday	-13180
onse	-13181
othe	-13182
rain	-13183
requ	-13184
rude	-13185
umbs	-13186
unci	-13187
voir	-13188
▁Alo	-13189
▁Bus	-13190
▁Cap	-13191
▁Dod	-13192
▁END	-13193
▁Equ	-13194
▁Fur	-13195
▁Leg	-13196
▁Leo	-13197
▁OWN	-13198
▁cob	-13199
▁lac	-13200
▁obl	-13201
▁rot	-13202
▁upâ	-13203
▁web	-13204
Laugh	-13205
aceti	-13206
ahawk	-13207
combe	-13208
dling	-13209
erson	-13210
etter	-13211
nessâ	-13212
outer	-13213
pread	-13214
quiet	-13215
rance	-13216
renad	-13217
these	-13218
tical	-13219
ufact	-13220
veled	-13221
vings	-13222
whale	-13223
whatâ	-13224
▁Caes	-13225
▁Fast	-13226
▁Feel	-13227
▁Foll	-13228
▁Jury	-13229
▁Magn	-13230
▁Mina	-13231
▁Pond	-13232
▁Sign	-13233
▁Soho	-13234
▁WILL	-13235
▁WITH	-13236
▁akin	-13237
▁alas	-13238
▁beet	-13239
▁clos	-13240
▁cork	-13241
▁degr	-13242
▁dock	-13243
▁duck	-13244
▁fund	-13245
▁fuss	-13246
▁gush	-13247
▁hagg	-13248
▁jews	-13249
▁lamb	-13250
▁lass	-13251
▁lull	-13252
▁mush	-13253
▁nook	-13254
▁oats	-13255
▁padd	-13256
▁perv	-13257
▁poll	-13258
▁pope	-13259
▁rack	-13260
▁reel	-13261
▁scre	-13262
▁snee	-13263
▁spar	-13264
▁wail	-13265
▁witt	-13266
Hamlet	-13267
Madden	-13268
aroslÃ	-13269
flower	-13270
having	-13271
letter	-13272
rawled	-13273
rimony	-13274
ruding	-13275
shaped	-13276
shmael	-13277
strong	-13278
▁BREEN	-13279
▁Dixon	-13280
▁Flops	-13281
▁Howth	-13282
▁Jacky	-13283
▁Leave	-13284
▁RIGHT	-13285
▁Widow	-13286
▁alleg	-13287
▁apost	-13288
▁banqu	-13289
▁beats	-13290
▁bland	-13291
▁bleak	-13292
▁brawn	-13293
▁brink	-13294
▁cadet	-13295
▁color	-13296
▁crest	-13297
▁fairy	-13298
▁fewer	-13299
▁finer	-13300
▁giant	-13301
▁herds	-13302
▁holes	-13303
▁homes	-13304
▁hoops	-13305
▁hyper	-13306
▁joint	-13307
▁lemon	-13308
▁loath	-13309
▁necks	-13310
▁pious	-13311
▁pregn	-13312
▁realm	-13313
▁roast	-13314
▁ruins	-13315
▁sales	-13316
▁shine	-13317
▁shuff	-13318
▁slipp	-13319
▁spear	-13320
▁stamm	-13321
▁sworn	-13322
▁towel	-13323
▁wasnt	-13324
▁wharf	-13325
▁whirl	-13326
▁wrung	-13327
ardinal	-13328
asingly	-13329
ciences	-13330
covered	-13331
imonial	-13332
licable	-13333
ography	-13334
version	-13335
▁Advent	-13336
▁FerapÃ	-13337
▁Flower	-13338
▁Jamesâ	-13339
▁Jarvis	-13340
▁Majest	-13341
▁Secret	-13342
▁Stoner	-13343
▁Wilson	-13344
▁allies	-13345
▁chorus	-13346
▁clerks	-13347
▁cooked	-13348
▁courte	-13349
▁deaths	-13350
▁deathâ	-13351
▁demean	-13352
▁dexter	-13353
▁dishes	-13354
▁expend	-13355
▁filthy	-13356
▁genial	-13357
▁gravel	-13358
▁ingrat	-13359
▁liquid	-13360
▁merged	-13361
▁muscle	-13362
▁ninety	-13363
▁obsequ	-13364
▁oppose	-13365
▁paraly	-13366
▁patent	-13367
▁picnic	-13368
▁pledge	-13369
▁robbed	-13370
▁sombre	-13371
▁squall	-13372
▁sticks	-13373
▁tastes	-13374
▁tooral	-13375
▁vanish	-13376
atically	-13377
humoured	-13378
▁Blessed	-13379
▁Liberty	-13380
▁Mississ	-13381
▁Parnell	-13382
▁Persian	-13383
▁Redoubt	-13384
▁Waldman	-13385
▁accents	-13386
▁amazing	-13387
▁bargain	-13388
▁cabbage	-13389
▁clearer	-13390
▁couples	-13391
▁creaked	-13392
▁damaged	-13393
▁deserts	-13394
▁doubled	-13395
▁endowed	-13396
▁horsesâ	-13397
▁mortals	-13398
▁oarsmen	-13399
▁pattern	-13400
▁perched	-13401
▁pitiful	-13402
▁predest	-13403
▁reminds	-13404
▁replies	-13405
▁resided	-13406
▁resolve	-13407
▁ribbons	-13408
▁sausage	-13409
▁seasons	-13410
▁selling	-13411
▁seventh	-13412
▁signify	-13413
▁sources	-13414
▁spurned	-13415
▁stating	-13416
▁steamer	-13417
▁sunrise	-13418
▁theatre	-13419
▁unequal	-13420
▁vacancy	-13421
▁whalers	-13422
▁wrought	-13423
urrection	-13424
▁Consider	-13425
▁Lombardy	-13426
▁Reynolds	-13427
▁accommod	-13428
▁anybodyâ	-13429
▁benefits	-13430
▁blooming	-13431
▁buttoned	-13432
▁cheering	-13433
▁contract	-13434
▁dazzling	-13435
▁dialogue	-13436
▁dripping	-13437
▁effected	-13438
▁eloquent	-13439
▁expanded	-13440
▁facility	-13441
▁fiercely	-13442
▁fragment	-13443
▁hesitate	-13444
▁indulged	-13445
▁infamous	-13446
▁kerchief	-13447
▁latitude	-13448
▁meetings	-13449
▁mingling	-13450
▁nowadays	-13451
▁obsolete	-13452
▁ostentat	-13453
▁persever	-13454
▁pitiable	-13455
▁potatoes	-13456
▁preceded	-13457
▁railings	-13458
▁reckless	-13459
▁reliable	-13460
▁response	-13461
▁sixpence	-13462
▁slippers	-13463
▁strolled	-13464
▁stumbled	-13465
▁sufferer	-13466
▁vocation	-13467
▁whistled	-13468
shouldered	-13469
▁Austrians	-13470
▁apprehend	-13471
▁barbarous	-13472
▁betrothed	-13473
▁conscient	-13474
▁dignified	-13475
▁exclusion	-13476
▁exertions	-13477
▁fragments	-13478
▁hardships	-13479
▁historian	-13480
▁hospitals	-13481
▁imitation	-13482
▁imperfect	-13483
▁intercept	-13484
▁obstinate	-13485
▁patroness	-13486
▁policeman	-13487
▁producing	-13488
▁quartered	-13489
▁recognise	-13490
▁restraint	-13491
▁resulting	-13492
▁revealing	-13493
▁stupidity	-13494
▁thrusting	-13495
▁traveling	-13496
▁twitching	-13497
▁BezÃokhovâ	-13498
▁Providence	-13499
▁accessible	-13500
▁complained	-13501
▁disappoint	-13502
▁excellence	-13503
▁faithfully	-13504
▁foreigners	-13505
▁glistening	-13506
▁incoherent	-13507
▁indecision	-13508
▁indistinct	-13509
▁loveliness	-13510
▁militiamen	-13511
▁proprietor	-13512
▁spectators	-13513
▁tormenting	-13514
▁traditions	-13515
▁wilderness	-13516
▁Freemasonry	-13517
▁Nantucketer	-13518
▁abandonment	-13519
▁appreciated	-13520
▁attractions	-13521
▁awkwardness	-13522
▁comparative	-13523
▁declaration	-13524
▁discovering	-13525
▁disgraceful	-13526
▁earnestness	-13527
▁exasperated	-13528
▁handwriting	-13529
▁humiliation	-13530
▁individuals	-13531
▁interpreted	-13532
▁overwhelmed	-13533
▁restoration	-13534
▁sensibility	-13535
▁straightway	-13536
▁surrendered	-13537
▁twelvemonth	-13538
▁unspeakable	-13539
▁anticipation	-13540
▁contemptuous	-13541
▁exclamations	-13542
▁intelligible	-13543
▁performances	-13544
▁presentiment	-13545
▁peculiarities	-13546
▁superintendent	-13547
▁dissatisfaction	-13548
▁representations	-13549
.*	-13550
/*	-13551
1,	-13552
20	-13553
4-	-13554
51	-13555
9,	-13556
GL	-13557
LI	-13558
OW	-13559
Pe	-13560
RA	-13561
ST	-13562
YM	-13563
da	-13564
Rem	-13565
agh	-13566
cla	-13567
ilo	-13568
keâ	-13569
lit	-13570
lyâ	-13571
mid	-13572
mun	-13573
nex	-13574
ods	-13575
oof	-13576
ova	-13577
ska	-13578
tov	-13579
ugs	-13580
yet	-13581
zlÃ	-13582
zzo	-13583
)	-13584
▁*/	-13585
▁/*	-13586
▁26	-13587
▁El	-13588
▁LV	-13589
▁NE	-13590
▁PO	-13591
▁Yo	-13592
▁hu	-13593
Keep	-13594
Love	-13595
NESS	-13596
None	-13597
Thou	-13598
Turn	-13599
abor	-13600
agna	-13601
agne	-13602
apot	-13603
bern	-13604
eder	-13605
felt	-13606
hers	-13607
mail	-13608
nezh	-13609
rove	-13610
uice	-13611
vous	-13612
wixt	-13613
▁(1)	-13614
▁AnÃ	-13615
▁Bos	-13616
▁DON	-13617
▁Gal	-13618
▁Hum	-13619
▁Lim	-13620
▁MAN	-13621
▁Pla	-13622
▁Wis	-13623
▁XLV	-13624
▁ank	-13625
▁beâ	-13626
▁hug	-13627
▁ina	-13628
▁les	-13629
▁pau	-13630
▁puc	-13631
▁tel	-13632
▁vag	-13633
almed	-13634
arter	-13635
azaar	-13636
being	-13637
boots	-13638
creat	-13639
eties	-13640
forza	-13641
irons	-13642
lands	-13643
lines	-13644
orned	-13645
orter	-13646
overe	-13647
scape	-13648
tinov	-13649
▁Asia	-13650
▁Auth	-13651
▁Ball	-13652
▁Care	-13653
▁Conn	-13654
▁Damn	-13655
▁Farm	-13656
▁Fore	-13657
▁Lion	-13658
▁MacD	-13659
▁Merc	-13660
▁Mind	-13661
▁Nels	-13662
▁NikÃ	-13663
▁None	-13664
▁Pool	-13665
▁Prat	-13666
▁Priv	-13667
▁Ramb	-13668
▁Same	-13669
▁Ship	-13670
▁Spir	-13671
▁Tils	-13672
▁Trib	-13673
▁VorÃ	-13674
▁Whit	-13675
▁Wild	-13676
▁airs	-13677
▁bale	-13678
▁brim	-13679
▁calf	-13680
▁diso	-13681
▁fors	-13682
▁hier	-13683
▁intr	-13684
▁liar	-13685
▁pest	-13686
▁puts	-13687
▁rand	-13688
▁root	-13689
▁unce	-13690
▁wire	-13691
ATIONS	-13692
Listen	-13693
Pierre	-13694
Though	-13695
ceptre	-13696
church	-13697
dinand	-13698
enetra	-13699
itches	-13700
ledged	-13701
mighty	-13702
onovnÃ	-13703
ooping	-13704
renity	-13705
▁Early	-13706
▁Fleet	-13707
▁Going	-13708
▁India	-13709
▁KozlÃ	-13710
▁Lacey	-13711
▁Major	-13712
▁Merry	-13713
▁Pride	-13714
▁Sweet	-13715
▁abuse	-13716
▁accus	-13717
▁adequ	-13718
▁aides	-13719
▁alert	-13720
▁bills	-13721
▁couch	-13722
▁crews	-13723
▁girlâ	-13724
▁glaci	-13725
▁jaunt	-13726
▁mists	-13727
▁odour	-13728
▁opera	-13729
▁owned	-13730
▁pagan	-13731
▁pyram	-13732
▁races	-13733
▁raven	-13734
▁repay	-13735
▁ruler	-13736
▁saith	-13737
▁spoil	-13738
▁stony	-13739
▁tiger	-13740
▁timeâ	-13741
▁tires	-13742
▁unavo	-13743
▁vanqu	-13744
▁vices	-13745
▁wides	-13746
▁wiser	-13747
▁wrest	-13748
Connell	-13749
itative	-13750
jection	-13751
loading	-13752
parable	-13753
servant	-13754
waiting	-13755
▁Albert	-13756
▁Bantam	-13757
▁Either	-13758
▁Foulon	-13759
▁Hardly	-13760
▁Hather	-13761
▁Holder	-13762
▁Krempe	-13763
▁Number	-13764
▁Robert	-13765
▁SECOND	-13766
▁Senate	-13767
▁Sforza	-13768
▁alight	-13769
▁attach	-13770
▁barely	-13771
▁bigger	-13772
▁bowels	-13773
▁breach	-13774
▁bustle	-13775
▁circus	-13776
▁congen	-13777
▁deduce	-13778
▁denial	-13779
▁encomp	-13780
▁fishes	-13781
▁frosty	-13782
▁gaping	-13783
▁garret	-13784
▁greasy	-13785
▁grudge	-13786
▁guards	-13787
▁heated	-13788
▁hinder	-13789
▁immeas	-13790
▁insect	-13791
▁junior	-13792
▁kettle	-13793
▁liable	-13794
▁nursed	-13795
▁pantry	-13796
▁plains	-13797
▁plight	-13798
▁potato	-13799
▁prophe	-13800
▁purity	-13801
▁rascal	-13802
▁recomp	-13803
▁retros	-13804
▁revive	-13805
▁shield	-13806
▁shoved	-13807
▁soothe	-13808
▁spades	-13809
▁stalls	-13810
▁tilted	-13811
▁trains	-13812
▁trench	-13813
▁trunks	-13814
▁veiled	-13815
▁visage	-13816
▁werenâ	-13817
▁whaler	-13818
Whatever	-13819
affected	-13820
stricken	-13821
▁Austenâ	-13822
▁Citizen	-13823
▁Flopson	-13824
▁Further	-13825
▁Holmesâ	-13826
▁Ishmael	-13827
▁Masonic	-13828
▁Mission	-13829
▁Neville	-13830
▁Turning	-13831
▁Vitelli	-13832
▁acquies	-13833
▁alleged	-13834
▁annoyed	-13835
▁betwixt	-13836
▁bounded	-13837
▁challen	-13838
▁cheered	-13839
▁chooses	-13840
▁crowned	-13841
▁cruelly	-13842
▁discomp	-13843
▁dollars	-13844
▁emptied	-13845
▁flashes	-13846
▁halfway	-13847
▁heading	-13848
▁honored	-13849
▁implied	-13850
▁inflict	-13851
▁infring	-13852
▁invalid	-13853
▁languor	-13854
▁lecture	-13855
▁logical	-13856
▁nocturn	-13857
▁oblique	-13858
▁peeping	-13859
▁pillows	-13860
▁pistols	-13861
▁piteous	-13862
▁players	-13863
▁playful	-13864
▁pleases	-13865
▁plunder	-13866
▁product	-13867
▁proverb	-13868
▁pudding	-13869
▁rubbish	-13870
▁scented	-13871
▁scraped	-13872
▁shepher	-13873
▁sleeper	-13874
▁stealth	-13875
▁strayed	-13876
▁sucking	-13877
▁summons	-13878
▁sustain	-13879
▁terrace	-13880
▁tragedy	-13881
▁warrant	-13882
abilities	-13883
▁Theodore	-13884
▁bayonets	-13885
▁bedstead	-13886
▁biscuits	-13887
▁boldness	-13888
▁borrowed	-13889
▁breeding	-13890
▁broadshe	-13891
▁calmness	-13892
▁clasping	-13893
▁conquest	-13894
▁convales	-13895
▁dispatch	-13896
▁disquiet	-13897
▁drenched	-13898
▁feathers	-13899
▁forwards	-13900
▁frontier	-13901
▁gardener	-13902
▁generalâ	-13903
▁headlong	-13904
▁identity	-13905
▁inaccess	-13906
▁incredul	-13907
▁maternal	-13908
▁minutesâ	-13909
▁nightcap	-13910
▁ornament	-13911
▁overtook	-13912
▁puckered	-13913
▁rewarded	-13914
▁sandwich	-13915
▁sensibly	-13916
▁shocking	-13917
▁specimen	-13918
▁teaching	-13919
▁trampled	-13920
▁transfer	-13921
▁universe	-13922
▁unlikely	-13923
▁weakened	-13924
▁whirling	-13925
ographical	-13926
▁Ferdinand	-13927
▁Gardiners	-13928
▁Hatherley	-13929
▁adversary	-13930
▁ascending	-13931
▁civilized	-13932
▁committee	-13933
▁consulted	-13934
▁enveloped	-13935
▁fortified	-13936
▁horrified	-13937
▁ingenious	-13938
▁malicious	-13939
▁misgiving	-13940
▁narration	-13941
▁operation	-13942
▁prejudice	-13943
▁published	-13944
▁reckoning	-13945
▁repressed	-13946
▁resembled	-13947
▁salvation	-13948
▁scratched	-13949
▁sprinkled	-13950
▁starboard	-13951
▁streaming	-13952
▁tooraloom	-13953
▁twinkling	-13954
▁undressed	-13955
▁unsettled	-13956
▁BezÃokhova	-13957
▁Bourienneâ	-13958
▁Florentine	-13959
▁comforting	-13960
▁continuous	-13961
▁convention	-13962
▁deliberate	-13963
▁diffidence	-13964
▁everybodyâ	-13965
▁fatherland	-13966
▁irresolute	-13967
▁meditating	-13968
▁meditation	-13969
▁noticeable	-13970
▁oppressive	-13971
▁possessing	-13972
▁provincial	-13973
▁repugnance	-13974
▁revolution	-13975
▁unquestion	-13976
▁vigorously	-13977
▁widespread	-13978
handkerchief	-13979
▁Mississippi	-13980
▁acquisition	-13981
▁affectation	-13982
▁association	-13983
▁composition	-13984
▁contributed	-13985
▁ingratitude	-13986
▁interpreter	-13987
▁meaningless	-13988
▁neighboring	-13989
▁overflowing	-13990
▁prohibition	-13991
▁steadfastly	-13992
▁unnaturally	-13993
▁explanations	-13994
▁interrupting	-13995
▁philosophers	-13996
▁straightened	-13997
▁contradictory	-13998
▁corresponding	-13999
▁gentlemanlike	-14000
▁investigation	-14001
▁mortification	-14002
▁reminiscences	-14003
▁significantly	-14004
▁insignificance	-14005
▁principalities	-14006
▁reconciliation	-14007
▁accomplishments	-14008
Bl	-14009
DY	-14010
IM	-14011
LD	-14012
Sc	-14013
zÃ	-14014
¡,	-14015
._)	-14016
AVE	-14017
Den	-14018
Put	-14019
VEN	-14020
agn	-14021
avy	-14022
eny	-14023
ige	-14024
thm	-14025
war	-14026
0	-14027
1	-14028
▁5.	-14029
▁FR	-14030
▁Gh	-14031
Mind	-14032
adle	-14033
ateg	-14034
athy	-14035
bank	-14036
been	-14037
bors	-14038
cord	-14039
deep	-14040
dled	-14041
glas	-14042
imil	-14043
isms	-14044
lded	-14045
lius	-14046
loat	-14047
ltry	-14048
olan	-14049
otch	-14050
oyle	-14051
pled	-14052
pots	-14053
prit	-14054
pull	-14055
rial	-14056
shad	-14057
tail	-14058
tell	-14059
ummy	-14060
zina	-14061
),	-14062
▁Abs	-14063
▁Alb	-14064
▁Bab	-14065
▁Bad	-14066
▁Cas	-14067
▁Des	-14068
▁Dog	-14069
▁EXP	-14070
▁FOU	-14071
▁Fun	-14072
▁Ham	-14073
▁Lar	-14074
▁Moo	-14075
▁Pir	-14076
▁Tar	-14077
▁Voy	-14078
▁WOR	-14079
▁Win	-14080
▁[1]	-14081
▁axe	-14082
▁cot	-14083
▁cud	-14084
▁doc	-14085
▁dub	-14086
▁gul	-14087
▁lam	-14088
▁luc	-14089
▁raz	-14090
▁rod	-14091
▁rou	-14092
Biddy	-14093
acent	-14094
achel	-14095
bbers	-14096
etary	-14097
eware	-14098
geons	-14099
groom	-14100
icacy	-14101
inson	-14102
ipper	-14103
rinks	-14104
stown	-14105
tenka	-14106
ushka	-14107
verer	-14108
▁Bart	-14109
▁BerÃ	-14110
▁Carr	-14111
▁Dimm	-14112
▁Fate	-14113
▁Glad	-14114
▁HAVE	-14115
▁Hart	-14116
▁Hugh	-14117
▁Jove	-14118
▁KIND	-14119
▁Kate	-14120
▁Kiev	-14121
▁Nine	-14122
▁OrlÃ	-14123
▁Pull	-14124
▁Scar	-14125
▁Serv	-14126
▁Sold	-14127
▁Tart	-14128
▁Vlad	-14129
▁Yojo	-14130
▁anon	-14131
▁baff	-14132
▁bolt	-14133
▁brut	-14134
▁clad	-14135
▁crop	-14136
▁curt	-14137
▁diab	-14138
▁foes	-14139
▁fuel	-14140
▁furt	-14141
▁gnaw	-14142
▁inve	-14143
▁loft	-14144
▁mask	-14145
▁neut	-14146
▁omin	-14147
▁prox	-14148
▁riot	-14149
▁sauc	-14150
▁stab	-14151
▁tops	-14152
▁trod	-14153
▁wilt	-14154
Excuse	-14155
arding	-14156
atical	-14157
culine	-14158
esides	-14159
fourth	-14160
lihood	-14161
locity	-14162
ocious	-14163
orning	-14164
stones	-14165
tersay	-14166
turned	-14167
uction	-14168
uddled	-14169
window	-14170
▁Beaut	-14171
▁Dough	-14172
▁Guard	-14173
▁Heart	-14174
▁Husse	-14175
▁Loose	-14176
▁Morel	-14177
▁OTHER	-14178
▁Ocean	-14179
▁Peace	-14180
▁Short	-14181
▁Tolly	-14182
▁Turks	-14183
▁Wales	-14184
▁Woman	-14185
▁adopt	-14186
▁advoc	-14187
▁arenâ	-14188
▁arrow	-14189
▁bloss	-14190
▁boysâ	-14191
▁chess	-14192
▁codes	-14193
▁copse	-14194
▁emaci	-14195
▁envoy	-14196
▁flock	-14197
▁folks	-14198
▁giddy	-14199
▁gleam	-14200
▁gravy	-14201
▁grows	-14202
▁inexp	-14203
▁intox	-14204
▁intri	-14205
▁livid	-14206
▁loveâ	-14207
▁metap	-14208
▁noses	-14209
▁olive	-14210
▁pence	-14211
▁penit	-14212
▁petty	-14213
▁plent	-14214
▁rider	-14215
▁ruddy	-14216
▁socks	-14217
▁stark	-14218
▁twist	-14219
▁undes	-14220
▁wills	-14221
▁woven	-14222
bearded	-14223
enerous	-14224
feeling	-14225
iathans	-14226
iminary	-14227
ipotent	-14228
ortable	-14229
racious	-14230
sighted	-14231
urously	-14232
▁Cesare	-14233
▁Florry	-14234
▁Guelph	-14235
▁Ormond	-14236
▁Palace	-14237
▁Taking	-14238
▁Tilsit	-14239
▁Tranqu	-14240
▁Walton	-14241
▁accuse	-14242
▁annual	-14243
▁appare	-14244
▁arises	-14245
▁astron	-14246
▁barren	-14247
▁boiled	-14248
▁borzoi	-14249
▁coiled	-14250
▁confer	-14251
▁covers	-14252
▁dagger	-14253
▁dawned	-14254
▁deceit	-14255
▁decree	-14256
▁disgra	-14257
▁doubly	-14258
▁ending	-14259
▁gaoler	-14260
▁glimps	-14261
▁hushed	-14262
▁insane	-14263
▁jarvey	-14264
▁joints	-14265
▁kisses	-14266
▁laughs	-14267
▁legend	-14268
▁lumber	-14269
▁mantle	-14270
▁oldest	-14271
▁organs	-14272
▁plumes	-14273
▁portly	-14274
▁proves	-14275
▁raises	-14276
▁ranged	-14277
▁redeem	-14278
▁relied	-14279
▁repair	-14280
▁rowing	-14281
▁rudely	-14282
▁saints	-14283
▁sealed	-14284
▁shabby	-14285
▁shaped	-14286
▁shriek	-14287
▁sickly	-14288
▁speedy	-14289
▁stored	-14290
▁stormy	-14291
▁teapot	-14292
▁thrill	-14293
▁tugged	-14294
▁uncont	-14295
▁warned	-14296
▁yelled	-14297
lication	-14298
tempered	-14299
▁Bernard	-14300
▁Douglas	-14301
▁Germany	-14302
▁Justice	-14303
▁KonovnÃ	-14304
▁Moscowâ	-14305
▁Pocketâ	-14306
▁Pratzen	-14307
▁Strange	-14308
▁bearded	-14309
▁caprice	-14310
▁carpets	-14311
▁charity	-14312
▁compose	-14313
▁conserv	-14314
▁coughed	-14315
▁deduced	-14316
▁defense	-14317
▁earthqu	-14318
▁fathoms	-14319
▁folding	-14320
▁ghostly	-14321
▁heights	-14322
▁hellish	-14323
▁highway	-14324
▁irrevoc	-14325
▁meadows	-14326
▁mirrors	-14327
▁monoman	-14328
▁oftener	-14329
▁periods	-14330
▁personâ	-14331
▁phrases	-14332
▁plaster	-14333
▁prisons	-14334
▁prophet	-14335
▁proving	-14336
▁reaches	-14337
▁spectre	-14338
▁stuffed	-14339
▁thickly	-14340
▁tribute	-14341
▁trumpet	-14342
▁tumbler	-14343
▁verdict	-14344
▁verdure	-14345
▁victims	-14346
▁wasting	-14347
▁whipped	-14348
▁whirled	-14349
▁workman	-14350
asionally	-14351
▁Catholic	-14352
▁Majestyâ	-14353
▁Tribunal	-14354
▁TÃoshinâ	-14355
▁accuracy	-14356
▁accursed	-14357
▁adjacent	-14358
▁alighted	-14359
▁applause	-14360
▁applying	-14361
▁calamity	-14362
▁chestnut	-14363
▁choosing	-14364
▁crushing	-14365
▁detailed	-14366
▁disclose	-14367
▁discreet	-14368
▁dividing	-14369
▁doubloon	-14370
▁entailed	-14371
▁entrench	-14372
▁escorted	-14373
▁fearless	-14374
▁grizzled	-14375
▁hoarsely	-14376
▁humility	-14377
▁impelled	-14378
▁implored	-14379
▁includes	-14380
▁ineffect	-14381
▁infernal	-14382
▁interrog	-14383
▁invasion	-14384
▁lanterns	-14385
▁listless	-14386
▁locality	-14387
▁luminous	-14388
▁mystical	-14389
▁newcomer	-14390
▁obliging	-14391
▁opponent	-14392
▁oriental	-14393
▁overtake	-14394
▁planning	-14395
▁plunging	-14396
▁produces	-14397
▁prudence	-14398
▁raptures	-14399
▁repulsed	-14400
▁requires	-14401
▁resulted	-14402
▁retiring	-14403
▁reverber	-14404
▁revolved	-14405
▁scholars	-14406
▁securing	-14407
▁smoothed	-14408
▁tomahawk	-14409
▁unlocked	-14410
▁velocity	-14411
▁vivacity	-14412
▁watchman	-14413
▁afflicted	-14414
▁allusions	-14415
▁attribute	-14416
▁awkwardly	-14417
▁childrenâ	-14418
▁communion	-14419
▁crackling	-14420
▁deformity	-14421
▁deserving	-14422
▁devouring	-14423
▁elevation	-14424
▁endurance	-14425
▁entangled	-14426
▁exercises	-14427
▁glittered	-14428
▁heartless	-14429
▁immovable	-14430
▁impenetra	-14431
▁impercept	-14432
▁informing	-14433
▁integrity	-14434
▁intrigues	-14435
▁latitudes	-14436
▁leisurely	-14437
▁luxurious	-14438
▁merchants	-14439
▁miniature	-14440
▁miserably	-14441
▁neighbors	-14442
▁officials	-14443
▁patiently	-14444
▁perishing	-14445
▁possesses	-14446
▁professed	-14447
▁secretary	-14448
▁seventeen	-14449
▁smothered	-14450
▁stumbling	-14451
▁swiftness	-14452
▁uncovered	-14453
▁weariness	-14454
▁accidental	-14455
▁completion	-14456
▁consisting	-14457
▁conspiracy	-14458
▁consulting	-14459
▁discussing	-14460
▁disengaged	-14461
▁distrusted	-14462
▁estimation	-14463
▁exchanging	-14464
▁extinction	-14465
▁generosity	-14466
▁gratifying	-14467
▁impressive	-14468
▁indication	-14469
▁influenced	-14470
▁instructed	-14471
▁meantersay	-14472
▁population	-14473
▁princesses	-14474
▁reconciled	-14475
▁retirement	-14476
▁sacrificed	-14477
▁staggering	-14478
▁submissive	-14479
▁unaffected	-14480
▁unbuttoned	-14481
▁undressing	-14482
▁accumulated	-14483
▁appearances	-14484
▁circumspect	-14485
▁competition	-14486
▁discoveries	-14487
▁fashionable	-14488
▁magnanimity	-14489
▁magnanimous	-14490
▁possessions	-14491
▁preliminary	-14492
▁prosecution	-14493
▁temporarily	-14494
▁transported	-14495
▁unhappiness	-14496
▁withdrawing	-14497
▁Occasionally	-14498
▁carelessness	-14499
▁commendation	-14500
▁congregation	-14501
▁impertinence	-14502
▁outstretched	-14503
▁preservation	-14504
▁unpleasantly	-14505
▁congratulated	-14506
▁handkerchiefs	-14507
▁impossibility	-14508
▁independently	-14509
▁unintelligible	-14510
.]	-14511
28	-14512
Co	-14513
FU	-14514
_)	-14515
▁&	-14516
ISS	-14517
Joe	-14518
Man	-14519
Nor	-14520
amâ	-14521
aur	-14522
bol	-14523
bot	-14524
des	-14525
ecd	-14526
eel	-14527
gia	-14528
ogh	-14529
osm	-14530
pha	-14531
pul	-14532
uen	-14533
ukÃ	-14534
ula	-14535
vin	-14536
weâ	-14537
▁CR	-14538
▁Ph	-14539
▁SH	-14540
▁bi	-14541
DenÃ	-14542
FORE	-14543
Hand	-14544
ITTY	-14545
King	-14546
Like	-14547
Much	-14548
VENT	-14549
adan	-14550
ainâ	-14551
anth	-14552
arev	-14553
brew	-14554
cock	-14555
ects	-14556
eeee	-14557
gall	-14558
gled	-14559
hear	-14560
igho	-14561
kerâ	-14562
lagÃ	-14563
lyph	-14564
make	-14565
much	-14566
mund	-14567
must	-14568
naim	-14569
nted	-14570
olph	-14571
oody	-14572
pike	-14573
rils	-14574
vais	-14575
--	-14576
▁ARE	-14577
▁Cab	-14578
▁Dev	-14579
▁Gaz	-14580
▁Lew	-14581
▁Sad	-14582
▁Sus	-14583
▁bun	-14584
▁dup	-14585
▁enh	-14586
▁fid	-14587
▁gin	-14588
▁giv	-14589
▁hen	-14590
▁hey	-14591
▁jog	-14592
▁lil	-14593
▁mig	-14594
▁nib	-14595
▁rut	-14596
▁toâ	-14597
▁wal	-14598
Didnâ	-14599
Freem	-14600
TRACT	-14601
Yours	-14602
acies	-14603
acred	-14604
apple	-14605
ascar	-14606
aters	-14607
aults	-14608
blest	-14609
coach	-14610
cribe	-14611
cript	-14612
cules	-14613
dding	-14614
drawn	-14615
estab	-14616
hesis	-14617
icent	-14618
ieves	-14619
ifice	-14620
ights	-14621
inese	-14622
mante	-14623
named	-14624
novsk	-14625
ooped	-14626
opard	-14627
osted	-14628
ratic	-14629
retty	-14630
rippa	-14631
shall	-14632
stood	-14633
stool	-14634
uckoo	-14635
utest	-14636
uther	-14637
▁Arms	-14638
▁Aven	-14639
▁Bell	-14640
▁Clar	-14641
▁Cook	-14642
▁Cost	-14643
▁Erin	-14644
▁Fire	-14645
▁Kolo	-14646
▁Lead	-14647
▁Leon	-14648
▁Play	-14649
▁Prin	-14650
▁Rath	-14651
▁Roch	-14652
▁Send	-14653
▁Show	-14654
▁Skin	-14655
▁Tusc	-14656
▁WORK	-14657
▁XXVI	-14658
▁abbÃ	-14659
▁adro	-14660
▁anci	-14661
▁bitt	-14662
▁cert	-14663
▁cups	-14664
▁duly	-14665
▁earl	-14666
▁eats	-14667
▁epis	-14668
▁exce	-14669
▁gems	-14670
▁glor	-14671
▁guer	-14672
▁impl	-14673
▁lain	-14674
▁lame	-14675
▁laud	-14676
▁piss	-14677
[...]
