<pad>	0
<s>	0
</s>	0
<unk>	0
<|user|>	0
<|assistant|>	0
<|system|>	0
<|json|>	0
<|end|>	0
<0x00>	0
<0x01>	0
<0x02>	0
<0x03>	0
<0x04>	0
<0x05>	0
<0x06>	0
<0x07>	0
<0x08>	0
<0x09>	0
<0x0A>	0
<0x0B>	0
<0x0C>	0
<0x0D>	0
<0x0E>	0
<0x0F>	0
<0x10>	0
<0x11>	0
<0x12>	0
<0x13>	0
<0x14>	0
<0x15>	0
<0x16>	0
<0x17>	0
<0x18>	0
<0x19>	0
<0x1A>	0
<0x1B>	0
<0x1C>	0
<0x1D>	0
<0x1E>	0
<0x1F>	0
<0x20>	0
<0x21>	0
<0x22>	0
<0x23>	0
<0x24>	0
<0x25>	0
<0x26>	0
<0x27>	0
<0x28>	0
<0x29>	0
<0x2A>	0
<0x2B>	0
<0x2C>	0
<0x2D>	0
<0x2E>	0
<0x2F>	0
<0x30>	0
<0x31>	0
<0x32>	0
<0x33>	0
<0x34>	0
<0x35>	0
<0x36>	0
<0x37>	0
<0x38>	0
<0x39>	0
<0x3A>	0
<0x3B>	0
<0x3C>	0
<0x3D>	0
<0x3E>	0
<0x3F>	0
<0x40>	0
<0x41>	0
<0x42>	0
<0x43>	0
<0x44>	0
<0x45>	0
<0x46>	0
<0x47>	0
<0x48>	0
<0x49>	0
<0x4A>	0
<0x4B>	0
<0x4C>	0
<0x4D>	0
<0x4E>	0
<0x4F>	0
<0x50>	0
<0x51>	0
<0x52>	0
<0x53>	0
<0x54>	0
<0x55>	0
<0x56>	0
<0x57>	0
<0x58>	0
<0x59>	0
<0x5A>	0
<0x5B>	0
<0x5C>	0
<0x5D>	0
<0x5E>	0
<0x5F>	0
<0x60>	0
<0x61>	0
<0x62>	0
<0x63>	0
<0x64>	0
<0x65>	0
<0x66>	0
<0x67>	0
<0x68>	0
<0x69>	0
<0x6A>	0
<0x6B>	0
<0x6C>	0
<0x6D>	0
<0x6E>	0
<0x6F>	0
<0x70>	0
<0x71>	0
<0x72>	0
<0x73>	0
<0x74>	0
<0x75>	0
<0x76>	0
<0x77>	0
<0x78>	0
<0x79>	0
<0x7A>	0
<0x7B>	0
<0x7C>	0
<0x7D>	0
<0x7E>	0
<0x7F>	0
<0x80>	0
<0x81>	0
<0x82>	0
<0x83>	0
<0x84>	0
<0x85>	0
<0x86>	0
<0x87>	0
<0x88>	0
<0x89>	0
<0x8A>	0
<0x8B>	0
<0x8C>	0
<0x8D>	0
<0x8E>	0
<0x8F>	0
<0x90>	0
<0x91>	0
<0x92>	0
<0x93>	0
<0x94>	0
<0x95>	0
<0x96>	0
<0x97>	0
<0x98>	0
<0x99>	0
<0x9A>	0
<0x9B>	0
<0x9C>	0
<0x9D>	0
<0x9E>	0
<0x9F>	0
<0xA0>	0
<0xA1>	0
<0xA2>	0
<0xA3>	0
<0xA4>	0
<0xA5>	0
<0xA6>	0
<0xA7>	0
<0xA8>	0
<0xA9>	0
<0xAA>	0
<0xAB>	0
<0xAC>	0
<0xAD>	0
<0xAE>	0
<0xAF>	0
<0xB0>	0
<0xB1>	0
<0xB2>	0
<0xB3>	0
<0xB4>	0
<0xB5>	0
<0xB6>	0
<0xB7>	0
<0xB8>	0
<0xB9>	0
<0xBA>	0
<0xBB>	0
<0xBC>	0
<0xBD>	0
<0xBE>	0
<0xBF>	0
<0xC0>	0
<0xC1>	0
<0xC2>	0
<0xC3>	0
<0xC4>	0
<0xC5>	0
<0xC6>	0
<0xC7>	0
<0xC8>	0
<0xC9>	0
<0xCA>	0
<0xCB>	0
<0xCC>	0
<0xCD>	0
<0xCE>	0
<0xCF>	0
<0xD0>	0
<0xD1>	0
<0xD2>	0
<0xD3>	0
<0xD4>	0
<0xD5>	0
<0xD6>	0
<0xD7>	0
<0xD8>	0
<0xD9>	0
<0xDA>	0
<0xDB>	0
<0xDC>	0
<0xDD>	0
<0xDE>	0
<0xDF>	0
<0xE0>	0
<0xE1>	0
<0xE2>	0
<0xE3>	0
<0xE4>	0
<0xE5>	0
<0xE6>	0
<0xE7>	0
<0xE8>	0
<0xE9>	0
<0xEA>	0
<0xEB>	0
<0xEC>	0
<0xED>	0
<0xEE>	0
<0xEF>	0
<0xF0>	0
<0xF1>	0
<0xF2>	0
<0xF3>	0
<0xF4>	0
<0xF5>	0
<0xF6>	0
<0xF7>	0
<0xF8>	0
<0xF9>	0
<0xFA>	0
<0xFB>	0
<0xFC>	0
<0xFD>	0
<0xFE>	0
<0xFF>	0
▁t	-0
▁a	-1
in	-2
he	-3
re	-4
on	-5
▁s	-6
▁the	-7
er	-8
▁c	-9
at	-10
nd	-11
or	-12
es	-13
en	-14
it	-15
ing	-16
▁w	-17
▁p	-18
▁f	-19
▁o	-20
▁and	-21
al	-22
is	-23
an	-24
ou	-25
ed	-26
▁to	-27
▁m	-28
▁b	-29
▁in	-30
ar	-31
ion	-32
▁d	-33
le	-34
ic	-35
▁of	-36
as	-37
ro	-38
ent	-39
▁e	-40
▁h	-41
▁re	-42
ct	-43
us	-44
▁l	-45
om	-46
▁th	-47
▁T	-48
ve	-49
il	-50
▁n	-51
et	-52
im	-53
ra	-54
ut	-55
▁g	-56
ce	-57
id	-58
el	-59
st	-60
ch	-61
▁st	-62
ur	-63
▁y	-64
ation	-65
▁for	-66
ol	-67
▁I	-68
▁is	-69
ig	-70
▁he	-71
ow	-72
▁S	-73
ers	-74
ot	-75
am	-76
if	-77
▁that	-78
ith	-79
▁you	-80
ir	-81
▁The	-82
ly	-83
ad	-84
▁be	-85
▁pro	-86
ul	-87
▁A	-88
un	-89
▁on	-90
▁with	-91
▁con	-92
ate	-93
se	-94
ay	-95
ver	-96
ment	-97
ess	-98
▁or	-99
ge	-100
▁C	-101
▁it	-102
▁as	-103
um	-104
▁can	-105
▁de	-106
▁ex	-107
od	-108
▁al	-109
▁v	-110
▁an	-111
ab	-112
ure	-113
▁us	-114
qu	-115
pp	-116
ke	-117
▁1	-118
▁-	-119
▁com	-120
ri	-121
▁are	-122
ere	-123
th	-124
pe	-125
ac	-126
ter	-127
▁wh	-128
ore	-129
▁=	-130
ity	-131
her	-132
ist	-133
▁su	-134
ive	-135
est	-136
iv	-137
ort	-138
▁ch	-139
▁H	-140
em	-141
oc	-142
▁en	-143
ain	-144
ies	-145
nt	-146
igh	-147
▁ne	-148
▁your	-149
os	-150
ld	-151
▁se	-152
▁im	-153
op	-154
▁M	-155
ill	-156
▁"	-157
▁B	-158
▁P	-159
▁ha	-160
▁le	-161
ust	-162
ant	-163
ud	-164
iz	-165
res	-166
ction	-167
▁their	-168
▁was	-169
ial	-170
▁`	-171
▁2	-172
all	-173
▁r	-174
pl	-175
pt	-176
▁F	-177
age	-178
art	-179
▁(	-180
ect	-181
▁E	-182
rou	-183
rom	-184
▁imp	-185
▁sh	-186
▁ad	-187
▁wor	-188
▁int	-189
▁W	-190
ight	-191
per	-192
▁by	-193
▁O	-194
▁R	-195
▁D	-196
du	-197
ome	-198
▁pl	-199
and	-200
▁we	-201
ide	-202
able	-203
▁u	-204
ak	-205
▁te	-206
▁Th	-207
og	-208
ag	-209
▁inc	-210
▁from	-211
ould	-212
are	-213
our	-214
out	-215
act	-216
ff	-217
▁her	-218
ine	-219
▁In	-220
ult	-221
orm	-222
▁comp	-223
ie	-224
ue	-225
▁at	-226
gh	-227
ind	-228
ions	-229
▁L	-230
▁un	-231
▁fe	-232
▁3	-233
▁have	-234
te	-235
cc	-236
ime	-237
ip	-238
▁res	-239
ach	-240
ther	-241
ence	-242
▁cl	-243
ack	-244
ance	-245
ign	-246
▁ar	-247
ake	-248
▁ab	-249
▁j	-250
▁hel	-251
▁cont	-252
oo	-253
▁cre	-254
▁if	-255
▁This	-256
form	-257
▁help	-258
ations	-259
▁they	-260
ass	-261
▁not	-262
▁{	-263
ame	-264
ard	-265
▁str	-266
av	-267
ry	-268
low	-269
▁more	-270
▁N	-271
int	-272
urn	-273
ast	-274
ated	-275
so	-276
ical	-277
▁k	-278
▁G	-279
ich	-280
ile	-281
▁me	-282
ost	-283
ib	-284
ne	-285
▁has	-286
ice	-287
ans	-288
ase	-289
ire	-290
▁}	-291
▁this	-292
ous	-293
vel	-294
ces	-295
▁tra	-296
ell	-297
ition	-298
▁em	-299
▁ret	-300
▁app	-301
ks	-302
ep	-303
ace	-304
umb	-305
▁4	-306
▁qu	-307
ress	-308
▁other	-309
▁had	-310
ount	-311
▁them	-312
▁dis	-313
▁J	-314
ail	-315
▁also	-316
▁prov	-317
▁U	-318
ong	-319
get	-320
lement	-321
ific	-322
▁up	-323
▁will	-324
ood	-325
▁pr	-326
▁sp	-327
ents	-328
▁out	-329
▁It	-330
▁add	-331
▁whe	-332
▁man	-333
elf	-334
▁which	-335
▁she	-336
ap	-337
one	-338
lud	-339
ual	-340
▁5	-341
▁spe	-342
xt	-343
▁ro	-344
▁some	-345
ord	-346
▁such	-347
▁but	-348
▁<	-349
▁return	-350
▁#	-351
▁sc	-352
ors	-353
▁tr	-354
▁use	-355
king	-356
ary	-357
▁ev	-358
end	-359
▁li	-360
put	-361
ater	-362
▁Y	-363
▁1.	-364
▁new	-365
ia	-366
);	-367
▁ind	-368
▁pre	-369
▁comm	-370
``	-371
▁2.	-372
▁```	-373
lic	-374
ang	-375
▁fun	-376
fere	-377
▁over	-378
▁his	-379
ating	-380
▁time	-381
▁des	-382
ub	-383
amp	-384
les	-385
▁col	-386
▁3.	-387
▁per	-388
ite	-389
rough	-390
▁includ	-391
ram	-392
ound	-393
ata	-394
▁so	-395
ful	-396
ru	-397
ark	-398
ings	-399
▁acc	-400
▁pe	-401
▁dif	-402
ove	-403
▁rec	-404
▁all	-405
ck	-406
00	-407
▁'	-408
▁its	-409
▁into	-410
ities	-411
ize	-412
▁who	-413
ates	-414
erv	-415
▁eff	-416
▁about	-417
ory	-418
ild	-419
ert	-420
ature	-421
▁val	-422
▁produ	-423
oy	-424
▁like	-425
▁numb	-426
▁off	-427
▁4.	-428
▁function	-429
ari	-430
own	-431
▁through	-432
▁using	-433
ange	-434
▁work	-435
▁exper	-436
ens	-437
▁part	-438
cess	-439
ience	-440
▁[	-441
ustom	-442
▁spec	-443
▁any	-444
▁could	-445
ays	-446
▁sy	-447
ject	-448
▁were	-449
ook	-450
ear	-451
):	-452
alth	-453
▁my	-454
▁Here	-455
row	-456
round	-457
con	-458
▁need	-459
▁each	-460
▁go	-461
very	-462
ode	-463
we	-464
▁St	-465
erg	-466
ov	-467
ob	-468
▁sa	-469
▁def	-470
▁/	-471
ally	-472
pport	-473
▁do	-474
ree	-475
▁make	-476
reat	-477
▁ke	-478
▁sm	-479
ract	-480
aking	-481
chn	-482
ft	-483
ring	-484
▁fl	-485
ick	-486
▁pos	-487
()	-488
eng	-489
ely	-490
▁how	-491
▁rel	-492
▁differe	-493
ility	-494
ices	-495
ments	-496
▁0	-497
ased	-498
ph	-499
▁these	-500
▁prog	-501
▁med	-502
ative	-503
ient	-504
nder	-505
▁As	-506
▁one	-507
ular	-508
ll	-509
velop	-510
ray	-511
als	-512
arn	-513
bs	-514
▁custom	-515
▁used	-516
enc	-517
eth	-518
ise	-519
▁data	-520
▁V	-521
iqu	-522
▁inv	-523
stem	-524
▁pers	-525
▁techn	-526
▁char	-527
▁cons	-528
ness	-529
red	-530
▁health	-531
ish	-532
▁import	-533
▁They	-534
▁5.	-535
▁bet	-536
ower	-537
ample	-538
▁provid	-539
gan	-540
▁been	-541
oth	-542
ax	-543
▁would	-544
▁kn	-545
olog	-546
▁ra	-547
__	-548
▁create	-549
▁+	-550
▁our	-551
ife	-552
▁vari	-553
▁che	-554
ily	-555
its	-556
▁Ch	-557
uring	-558
▁may	-559
ons	-560
▁soc	-561
▁inter	-562
▁develop	-563
lect	-564
hes	-565
▁there	-566
ric	-567
▁set	-568
ef	-569
ade	-570
▁co	-571
ener	-572
▁sign	-573
▁different	-574
▁Ad	-575
▁K	-576
▁list	-577
▁inform	-578
gg	-579
▁rem	-580
▁trans	-581
▁commun	-582
▁number	-583
▁bec	-584
ized	-585
▁el	-586
ential	-587
▁sk	-588
ough	-589
▁//	-590
▁He	-591
▁6	-592
▁product	-593
▁ph	-594
ting	-595
▁program	-596
old	-597
▁am	-598
▁print	-599
ose	-600
▁while	-601
rit	-602
▁mod	-603
▁bu	-604
▁She	-605
▁redu	-606
▁high	-607
▁serv	-608
▁stud	-609
▁loc	-610
ath	-611
▁bl	-612
▁class	-613
▁act	-614
ible	-615
▁det	-616
▁impro	-617
irst	-618
ople	-619
▁find	-620
arch	-621
▁reg	-622
ren	-623
ues	-624
▁when	-625
▁person	-626
up	-627
▁requ	-628
cl	-629
▁opt	-630
ex	-631
ys	-632
▁provide	-633
▁la	-634
self	-635
▁result	-636
ns	-637
rib	-638
▁art	-639
erm	-640
hed	-641
ural	-642
eg	-643
("	-644
▁inst	-645
▁self	-646
anc	-647
▁ag	-648
ergy	-649
dition	-650
▁min	-651
▁way	-652
▁learn	-653
▁well	-654
▁people	-655
▁cur	-656
ict	-657
▁world	-658
▁information	-659
▁under	-660
hip	-661
▁form	-662
ics	-663
▁If	-664
▁play	-665
▁lead	-666
▁effect	-667
▁i	-668
▁start	-669
▁element	-670
▁process	-671
▁po	-672
▁back	-673
▁system	-674
iew	-675
aus	-676
wn	-677
▁mus	-678
▁feel	-679
▁design	-680
iness	-681
olut	-682
▁than	-683
▁life	-684
pect	-685
▁social	-686
▁ty	-687
▁support	-688
▁incre	-689
▁We	-690
▁hand	-691
▁example	-692
."	-693
ds	-694
▁For	-695
▁dec	-696
ality	-697
ify	-698
ious	-699
▁You	-700
arket	-701
ctions	-702
▁where	-703
▁energy	-704
▁att	-705
▁$	-706
itive	-707
▁vis	-708
ten	-709
▁count	-710
▁water	-711
▁comple	-712
fore	-713
▁rep	-714
▁exp	-715
ollow	-716
▁tw	-717
ique	-718
▁ve	-719
riend	-720
▁allow	-721
▁including	-722
ars	-723
▁eng	-724
▁get	-725
▁user	-726
ts	-727
ident	-728
▁input	-729
▁charact	-730
▁impact	-731
▁pot	-732
▁first	-733
▁signific	-734
ever	-735
▁found	-736
▁sur	-737
▁prom	-738
▁ent	-739
ety	-740
▁bus	-741
▁every	-742
▁end	-743
▁let	-744
▁ens	-745
der	-746
uc	-747
▁no	-748
▁ins	-749
▁These	-750
new	-751
ward	-752
▁made	-753
▁ass	-754
ures	-755
▁pub	-756
▁many	-757
omm	-758
▁inf	-759
ertain	-760
ian	-761
iss	-762
▁av	-763
▁most	-764
▁long	-765
▁follow	-766
▁should	-767
led	-768
▁How	-769
rent	-770
▁To	-771
ivid	-772
▁gener	-773
▁rev	-774
ec	-775
ense	-776
▁main	-777
ered	-778
▁const	-779
▁sub	-780
▁7	-781
▁fin	-782
rand	-783
ble	-784
▁small	-785
▁fam	-786
val	-787
ages	-788
vent	-789
",	-790
▁ment	-791
▁string	-792
ethod	-793
▁just	-794
ied	-795
emb	-796
▁even	-797
ines	-798
arm	-799
ween	-800
▁what	-801
▁car	-802
ional	-803
stand	-804
▁perform	-805
any	-806
▁ob	-807
▁sim	-808
▁market	-809
▁ac	-810
▁specific	-811
ning	-812
ror	-813
▁then	-814
▁pract	-815
iven	-816
▁significant	-817
▁between	-818
ix	-819
▁few	-820
▁sal	-821
',	-822
▁*	-823
▁experience	-824
▁power	-825
▁expl	-826
read	-827
ives	-828
yth	-829
▁En	-830
▁pol	-831
▁day	-832
ccess	-833
ology	-834
iron	-835
▁access	-836
▁improve	-837
▁chall	-838
▁implement	-839
pr	-840
ving	-841
▁ref	-842
▁cult	-843
fter	-844
▁feature	-845
roup	-846
word	-847
▁gu	-848
wor	-849
▁array	-850
ples	-851
▁Ste	-852
▁team	-853
els	-854
▁aut	-855
ved	-856
▁cle	-857
▁business	-858
▁An	-859
ocus	-860
▁range	-861
ont	-862
▁method	-863
▁see	-864
ources	-865
▁around	-866
▁text	-867
▁value	-868
ink	-869
▁gre	-870
▁year	-871
▁sent	-872
atch	-873
▁pass	-874
akes	-875
▁know	-876
▁him	-877
▁stru	-878
▁disc	-879
▁before	-880
cept	-881
).	-882
atter	-883
▁real	-884
▁del	-885
▁two	-886
other	-887
▁Sure	-888
▁However	-889
ateg	-890
▁Use	-891
▁key	-892
▁public	-893
viron	-894
▁own	-895
▁cal	-896
▁20	-897
ner	-898
til	-899
ves	-900
▁food	-901
ividual	-902
▁sum	-903
ond	-904
to	-905
ploy	-906
▁media	-907
▁during	-908
ython	-909
▁take	-910
▁down	-911
▁resp	-912
ty	-913
▁both	-914
cul	-915
▁organ	-916
▁gl	-917
▁10	-918
hen	-919
▁grow	-920
ript	-921
▁build	-922
))	-923
▁pop	-924
▁eas	-925
▁ed	-926
ribut	-927
ins	-928
▁individual	-929
ware	-930
line	-931
▁appro	-932
ization	-933
▁6.	-934
▁unique	-935
nce	-936
ier	-937
▁gr	-938
▁call	-939
▁success	-940
ength	-941
▁dist	-942
▁par	-943
▁lar	-944
ining	-945
▁Step	-946
▁making	-947
ants	-948
▁cor	-949
▁focus	-950
ote	-951
▁require	-952
▁environ	-953
▁Ex	-954
▁show	-955
ables	-956
ited	-957
▁pres	-958
▁step	-959
▁8	-960
▁only	-961
▁==	-962
▁until	-963
--	-964
▁group	-965
ause	-966
▁num	-967
▁understand	-968
▁gra	-969
▁By	-970
▁plan	-971
="	-972
▁enc	-973
▁content	-974
ody	-975
ries	-976
ational	-977
nding	-978
▁care	-979
▁include	-980
ients	-981
▁conf	-982
▁contin	-983
ock	-984
ling	-985
aut	-986
▁exam	-987
ash	-988
▁here	-989
app	-990
ider	-991
▁personal	-992
ted	-993
▁activ	-994
▁bre	-995
▁But	-996
▁Over	-997
▁adv	-998
▁current	-999
▁friend	-1000
ather	-1001
oid	-1002
ols	-1003
▁toget	-1004
▁fil	-1005
▁together	-1006
▁offer	-1007
▁Pro	-1008
▁tas	-1009
agement	-1010
cho	-1011
air	-1012
ences	-1013
com	-1014
▁ident	-1015
▁light	-1016
▁partic	-1017
ency	-1018
iel	-1019
▁great	-1020
▁read	-1021
ability	-1022
name	-1023
ism	-1024
arget	-1025
▁music	-1026
▁keep	-1027
▁want	-1028
▁challeng	-1029
ss	-1030
▁ensure	-1031
ills	-1032
▁try	-1033
ways	-1034
▁indust	-1035
▁ben	-1036
),	-1037
erc	-1038
▁environment	-1039
▁often	-1040
▁anal	-1041
▁Re	-1042
▁pur	-1043
▁project	-1044
mer	-1045
▁being	-1046
▁bel	-1047
▁based	-1048
ced	-1049
io	-1050
ips	-1051
▁Yes	-1052
▁code	-1053
port	-1054
ication	-1055
▁reduce	-1056
▁aud	-1057
▁hum	-1058
ets	-1059
▁given	-1060
▁Wh	-1061
▁mon	-1062
▁sec	-1063
ci	-1064
▁potential	-1065
▁ser	-1066
▁addition	-1067
▁ext	-1068
▁right	-1069
▁webs	-1070
ined	-1071
▁level	-1072
▁name	-1073
▁top	-1074
str	-1075
▁prof	-1076
imes	-1077
angu	-1078
▁br	-1079
po	-1080
lu	-1081
ven	-1082
▁op	-1083
▁cr	-1084
▁else	-1085
ically	-1086
▁invol	-1087
▁es	-1088
vers	-1089
▁too	-1090
▁positive	-1091
ee	-1092
▁customer	-1093
▁important	-1094
▁test	-1095
ases	-1096
▁er	-1097
St	-1098
▁ide	-1099
▁sever	-1100
olution	-1101
▁effective	-1102
ah	-1103
▁technology	-1104
avor	-1105
tain	-1106
▁examples	-1107
▁pri	-1108
▁sense	-1109
▁place	-1110
▁One	-1111
cript	-1112
▁equ	-1113
▁lo	-1114
▁Al	-1115
▁tem	-1116
arr	-1117
ared	-1118
▁various	-1119
▁Em	-1120
string	-1121
▁est	-1122
ertainly	-1123
▁poss	-1124
▁There	-1125
▁ess	-1126
1,	-1127
▁store	-1128
ave	-1129
▁development	-1130
▁several	-1131
apt	-1132
▁Con	-1133
por	-1134
aging	-1135
tle	-1136
mon	-1137
▁benef	-1138
▁som	-1139
ps	-1140
▁fact	-1141
▁quest	-1142
irect	-1143
▁rest	-1144
▁Un	-1145
ists	-1146
cing	-1147
▁good	-1148
ream	-1149
▁family	-1150
▁target	-1151
elt	-1152
ple	-1153
▁mess	-1154
▁integ	-1155
oh	-1156
▁oper	-1157
▁hist	-1158
▁best	-1159
erest	-1160
ery	-1161
▁cent	-1162
▁numbers	-1163
▁cost	-1164
ivers	-1165
ieve	-1166
ooking	-1167
▁typ	-1168
▁elements	-1169
▁langu	-1170
▁complex	-1171
▁users	-1172
▁always	-1173
▁Overall	-1174
▁cho	-1175
▁rese	-1176
aterial	-1177
itions	-1178
▁aff	-1179
▁local	-1180
▁features	-1181
▁child	-1182
▁employ	-1183
▁happ	-1184
▁Certainly	-1185
▁beh	-1186
light	-1187
▁met	-1188
az	-1189
atural	-1190
▁9	-1191
ories	-1192
▁emot	-1193
oura	-1194
▁customers	-1195
▁cour	-1196
▁Add	-1197
▁after	-1198
back	-1199
tern	-1200
▁strateg	-1201
pro	-1202
resh	-1203
ush	-1204
▁character	-1205
over	-1206
▁again	-1207
▁que	-1208
ms	-1209
▁tre	-1210
▁website	-1211
▁ach	-1212
way	-1213
joy	-1214
ull	-1215
pped	-1216
ope	-1217
▁chang	-1218
text	-1219
ination	-1220
('	-1221
ital	-1222
▁19	-1223
ew	-1224
▁mind	-1225
▁sol	-1226
▁object	-1227
▁better	-1228
▁experi	-1229
▁soft	-1230
lab	-1231
▁bo	-1232
▁color	-1233
utes	-1234
▁products	-1235
yle	-1236
▁state	-1237
▁community	-1238
ustain	-1239
▁cup	-1240
▁resources	-1241
▁interest	-1242
uch	-1243
▁sentence	-1244
▁sit	-1245
▁fac	-1246
▁without	-1247
usion	-1248
▁invest	-1249
let	-1250
▁material	-1251
atform	-1252
▁mult	-1253
num	-1254
▁home	-1255
sc	-1256
wards	-1257
▁students	-1258
▁And	-1259
▁provides	-1260
▁sure	-1261
▁though	-1262
▁conc	-1263
▁contro	-1264
▁sort	-1265
ately	-1266
▁comb	-1267
work	-1268
▁air	-1269
▁search	-1270
raph	-1271
▁7.	-1272
ditional	-1273
▁max	-1274
▁relations	-1275
play	-1276
▁arr	-1277
▁upd	-1278
</	-1279
ason	-1280
less	-1281
par	-1282
▁detail	-1283
▁industry	-1284
▁city	-1285
ified	-1286
▁point	-1287
▁look	-1288
▁brand	-1289
pportun	-1290
▁contain	-1291
ember	-1292
▁skills	-1293
oss	-1294
▁years	-1295
de	-1296
▁learning	-1297
▁company	-1298
ross	-1299
▁services	-1300
▁|	-1301
▁rele	-1302
▁don	-1303
▁felt	-1304
ator	-1305
python	-1306
cture	-1307
▁love	-1308
▁>	-1309
conom	-1310
▁neg	-1311
ems	-1312
ething	-1313
▁dri	-1314
▁dep	-1315
▁mom	-1316
▁type	-1317
nect	-1318
▁sound	-1319
▁alg	-1320
▁mov	-1321
▁opportun	-1322
▁platform	-1323
▁options	-1324
▁break	-1325
▁prot	-1326
▁knew	-1327
▁iss	-1328
▁relationship	-1329
▁run	-1330
▁proper	-1331
▁camp	-1332
▁natural	-1333
▁file	-1334
▁Fin	-1335
▁move	-1336
▁mental	-1337
ames	-1338
ale	-1339
▁others	-1340
ead	-1341
▁tri	-1342
▁sustain	-1343
▁popular	-1344
ouse	-1345
▁something	-1346
▁effic	-1347
ape	-1348
iving	-1349
▁oil	-1350
▁challenges	-1351
▁di	-1352
▁educ	-1353
▁individuals	-1354
▁those	-1355
▁avail	-1356
▁language	-1357
ger	-1358
▁audience	-1359
orts	-1360
▁ris	-1361
▁phys	-1362
▁minutes	-1363
ually	-1364
▁influ	-1365
▁open	-1366
▁increase	-1367
▁essential	-1368
____	-1369
▁lit	-1370
▁within	-1371
▁change	-1372
▁writ	-1373
▁known	-1374
▁calcul	-1375
ank	-1376
oose	-1377
▁pain	-1378
▁beaut	-1379
▁offers	-1380
rap	-1381
▁research	-1382
▁needs	-1383
pper	-1384
ggest	-1385
▁event	-1386
cial	-1387
▁body	-1388
mb	-1389
▁performance	-1390
▁Ar	-1391
▁init	-1392
▁veget	-1393
▁helps	-1394
▁left	-1395
ze	-1396
ired	-1397
ilities	-1398
▁Im	-1399
::	-1400
▁determ	-1401
▁friends	-1402
▁email	-1403
▁dev	-1404
▁fu	-1405
alse	-1406
▁marketing	-1407
ression	-1408
▁log	-1409
ern	-1410
▁still	-1411
")	-1412
ese	-1413
li	-1414
▁With	-1415
▁does	-1416
▁fore	-1417
ats	-1418
▁characters	-1419
▁suggest	-1420
vert	-1421
In	-1422
▁case	-1423
alk	-1424
▁When	-1425
▁applic	-1426
umber	-1427
orith	-1428
▁ways	-1429
▁creating	-1430
▁less	-1431
lish	-1432
▁traditional	-1433
ditionally	-1434
ton	-1435
duct	-1436
▁never	-1437
▁heart	-1438
▁able	-1439
▁job	-1440
ret	-1441
▁check	-1442
omp	-1443
▁same	-1444
mat	-1445
-1	-1446
iety	-1447
▁head	-1448
The	-1449
▁strong	-1450
▁did	-1451
▁econom	-1452
urs	-1453
ource	-1454
▁Inst	-1455
ield	-1456
▁role	-1457
▁Pl	-1458
au	-1459
▁address	-1460
▁ear	-1461
▁order	-1462
thing	-1463
▁direct	-1464
▁lim	-1465
▁stand	-1466
▁repres	-1467
iques	-1468
▁large	-1469
illed	-1470
▁Sh	-1471
ument	-1472
▁mem	-1473
▁space	-1474
wer	-1475
▁possible	-1476
▁provided	-1477
ivity	-1478
▁following	-1479
▁dig	-1480
ior	-1481
▁z	-1482
ogn	-1483
▁land	-1484
,"	-1485
asing	-1486
▁Additionally	-1487
▁algorith	-1488
▁Out	-1489
oot	-1490
▁anim	-1491
▁words	-1492
be	-1493
▁identify	-1494
▁proble	-1495
▁turn	-1496
],	-1497
lo	-1498
br	-1499
ug	-1500
izing	-1501
▁control	-1502
▁become	-1503
▁events	-1504
▁enjoy	-1505
▁because	-1506
▁analy	-1507
oring	-1508
▁fre	-1509
▁hy	-1510
ision	-1511
▁online	-1512
iment	-1513
list	-1514
▁areas	-1515
▁model	-1516
uss	-1517
▁diff	-1518
▁saf	-1519
weet	-1520
▁low	-1521
ued	-1522
ommend	-1523
▁word	-1524
▁stat	-1525
uce	-1526
▁Tr	-1527
clusion	-1528
▁special	-1529
▁Some	-1530
cond	-1531
ances	-1532
▁maintain	-1533
day	-1534
▁cap	-1535
▁Cre	-1536
▁common	-1537
▁tips	-1538
by	-1539
▁goals	-1540
▁contribut	-1541
▁deep	-1542
▁benefits	-1543
▁much	-1544
▁stay	-1545
▁training	-1546
▁uses	-1547
▁jour	-1548
▁come	-1549
uture	-1550
▁must	-1551
000	-1552
▁mat	-1553
▁additional	-1554
▁story	-1555
▁mot	-1556
aj	-1557
▁might	-1558
▁elect	-1559
ees	-1560
▁clear	-1561
hor	-1562
▁quality	-1563
nds	-1564
land	-1565
▁x	-1566
▁hope	-1567
▁sn	-1568
▁human	-1569
▁activities	-1570
▁values	-1571
aign	-1572
▁patter	-1573
▁depe	-1574
ours	-1575
▁game	-1576
▁growth	-1577
▁systems	-1578
add	-1579
▁п	-1580
urther	-1581
▁negative	-1582
ince	-1583
▁available	-1584
▁quick	-1585
redients	-1586
▁explore	-1587
▁works	-1588
▁techniques	-1589
ney	-1590
▁ey	-1591
▁sw	-1592
▁clean	-1593
ron	-1594
▁Cl	-1595
▁Rem	-1596
ibility	-1597
▁pat	-1598
▁De	-1599
▁past	-1600
▁free	-1601
▁easy	-1602
▁optim	-1603
rain	-1604
▁overall	-1605
▁area	-1606
▁providing	-1607
orpor	-1608
▁wind	-1609
▁remain	-1610
imate	-1611
ER	-1612
▁nut	-1613
▁next	-1614
▁tools	-1615
▁1/	-1616
ystem	-1617
▁Be	-1618
▁occ	-1619
▁mar	-1620
▁regular	-1621
▁management	-1622
▁review	-1623
▁fresh	-1624
▁feed	-1625
fort	-1626
place	-1627
▁steps	-1628
▁recommend	-1629
aring	-1630
();	-1631
▁size	-1632
▁businesses	-1633
▁Sc	-1634
vern	-1635
▁mil	-1636
▁valid	-1637
▁future	-1638
▁service	-1639
▁pow	-1640
ón	-1641
▁allows	-1642
▁study	-1643
▁history	-1644
ibr	-1645
iting	-1646
ann	-1647
▁successful	-1648
▁hard	-1649
▁crit	-1650
▁encoura	-1651
▁exerc	-1652
fect	-1653
▁pie	-1654
20	-1655
care	-1656
▁sat	-1657
lex	-1658
▁sun	-1659
time	-1660
▁dat	-1661
▁imm	-1662
head	-1663
▁vide	-1664
▁view	-1665
▁meas	-1666
labor	-1667
▁profess	-1668
ст	-1669
▁present	-1670
nces	-1671
▁bal	-1672
▁track	-1673
▁Sp	-1674
icate	-1675
▁vers	-1676
▁transport	-1677
▁consider	-1678
▁bro	-1679
ral	-1680
ights	-1681
▁flavor	-1682
▁now	-1683
▁campaign	-1684
▁course	-1685
ording	-1686
esp	-1687
idd	-1688
▁stress	-1689
▁prevent	-1690
ditions	-1691
▁cook	-1692
tt	-1693
▁another	-1694
▁Se	-1695
▁share	-1696
▁message	-1697
▁length	-1698
▁Che	-1699
▁connect	-1700
▁last	-1701
":	-1702
side	-1703
▁term	-1704
▁towards	-1705
aces	-1706
▁govern	-1707
▁physical	-1708
ming	-1709
▁solution	-1710
▁mix	-1711
bo	-1712
me	-1713
pos	-1714
icult	-1715
▁Ind	-1716
▁mean	-1717
ohn	-1718
▁true	-1719
▁prime	-1720
urity	-1721
ention	-1722
▁achieve	-1723
rror	-1724
▁201	-1725
pping	-1726
sh	-1727
reng	-1728
▁1:	-1729
▁side	-1730
">	-1731
▁respons	-1732
action	-1733
itle	-1734
▁net	-1735
ffic	-1736
▁Finally	-1737
inal	-1738
meric	-1739
aves	-1740
▁things	-1741
▁</	-1742
lection	-1743
ration	-1744
irt	-1745
▁programs	-1746
▁dra	-1747
nter	-1748
2,	-1749
▁communication	-1750
af	-1751
cle	-1752
▁amount	-1753
▁promot	-1754
just	-1755
▁post	-1756
▁So	-1757
rect	-1758
▁ans	-1759
rop	-1760
inc	-1761
▁0;	-1762
▁working	-1763
▁meet	-1764
ift	-1765
▁.	-1766
▁necess	-1767
▁+=	-1768
▁leading	-1769
▁materials	-1770
ava	-1771
▁practices	-1772
cks	-1773
▁Output	-1774
data	-1775
▁renew	-1776
▁difficult	-1777
face	-1778
▁approach	-1779
▁line	-1780
ooks	-1781
iction	-1782
▁scho	-1783
▁software	-1784
▁implementation	-1785
▁particular	-1786
ots	-1787
▁Q	-1788
▁give	-1789
▁variety	-1790
▁healthy	-1791
ute	-1792
gin	-1793
▁lik	-1794
▁в	-1795
ium	-1796
ograph	-1797
▁room	-1798
here	-1799
oney	-1800
▁takes	-1801
▁face	-1802
▁strugg	-1803
▁lay	-1804
▁issues	-1805
of	-1806
ene	-1807
▁promote	-1808
▁cultural	-1809
▁sauce	-1810
oes	-1811
▁started	-1812
▁breat	-1813
▁table	-1814
▁smo	-1815
▁compet	-1816
▁dem	-1817
▁includes	-1818
▁changes	-1819
▁rece	-1820
count	-1821
▁Us	-1822
0,	-1823
▁hig	-1824
aster	-1825
▁said	-1826
▁и	-1827
▁streng	-1828
▁2:	-1829
ished	-1830
▁travel	-1831
▁non	-1832
▁flow	-1833
▁experiences	-1834
▁began	-1835
▁&	-1836
▁multip	-1837
▁times	-1838
▁account	-1839
▁pa	-1840
▁red	-1841
anced	-1842
▁perfect	-1843
arent	-1844
▁Create	-1845
▁Once	-1846
▁behav	-1847
onse	-1848
▁prote	-1849
ering	-1850
embers	-1851
ng	-1852
▁levels	-1853
set	-1854
▁consum	-1855
vant	-1856
▁ing	-1857
ber	-1858
▁exc	-1859
▁clos	-1860
▁helped	-1861
oci	-1862
ane	-1863
rast	-1864
▁called	-1865
▁sustainable	-1866
▁reducing	-1867
▁ability	-1868
verage	-1869
▁sens	-1870
yn	-1871
ches	-1872
▁reach	-1873
gar	-1874
ura	-1875
input	-1876
▁across	-1877
▁mag	-1878
based	-1879
ilar	-1880
▁represent	-1881
▁bas	-1882
':	-1883
▁building	-1884
▁iter	-1885
▁old	-1886
++	-1887
izes	-1888
log	-1889
itation	-1890
▁children	-1891
ards	-1892
▁away	-1893
▁Te	-1894
print	-1895
▁returns	-1896
▁%	-1897
▁instru	-1898
ctor	-1899
▁green	-1900
▁opportunities	-1901
rodu	-1902
▁lower	-1903
▁affect	-1904
▁doc	-1905
isf	-1906
tr	-1907
▁culture	-1908
ides	-1909
▁feedback	-1910
co	-1911
`.	-1912
▁avoid	-1913
▁types	-1914
▁8.	-1915
▁book	-1916
▁enh	-1917
perature	-1918
length	-1919
▁education	-1920
tal	-1921
Error	-1922
ently	-1923
▁against	-1924
▁needed	-1925
nov	-1926
▁Eng	-1927
▁heat	-1928
ises	-1929
▁с	-1930
▁Americ	-1931
▁protect	-1932
▁collabor	-1933
▁priv	-1934
▁understanding	-1935
ters	-1936
▁hot	-1937
▁necessary	-1938
▁designed	-1939
▁bi	-1940
ancial	-1941
▁display	-1942
ledge	-1943
ption	-1944
▁warm	-1945
▁second	-1946
▁due	-1947
')	-1948
value	-1949
ground	-1950
String	-1951
▁supp	-1952
▁pack	-1953
for	-1954
▁incorpor	-1955
▁feeling	-1956
inary	-1957
leep	-1958
▁dark	-1959
▁expect	-1960
▁miss	-1961
▁renewable	-1962
osp	-1963
cy	-1964
imum	-1965
▁hold	-1966
▁members	-1967
tend	-1968
▁visual	-1969
sum	-1970
▁efficient	-1971
col	-1972
▁polic	-1973
anies	-1974
▁chick	-1975
▁strategies	-1976
▁fr	-1977
aling	-1978
▁taking	-1979
▁algorithm	-1980
▁error	-1981
gs	-1982
ires	-1983
▁orig	-1984
▁moment	-1985
ни	-1986
▁total	-1987
ones	-1988
▁visit	-1989
▁index	-1990
key	-1991
но	-1992
▁sweet	-1993
▁Sar	-1994
ges	-1995
▁cheese	-1996
])	-1997
▁breath	-1998
▁nature	-1999
▁journey	-2000
▁situ	-2001
▁practice	-2002
▁gar	-2003
▁rout	-2004
▁John	-2005
▁pepper	-2006
▁progress	-2007
ión	-2008
▁along	-2009
▁caus	-2010
▁wee	-2011
▁loop	-2012
▁bir	-2013
▁answer	-2014
▁output	-2015
▁div	-2016
▁len	-2017
izations	-2018
aur	-2019
▁belie	-2020
▁throughout	-2021
▁rand	-2022
▁means	-2023
----	-2024
▁fit	-2025
▁comfort	-2026
▁generate	-2027
▁particip	-2028
▁insp	-2029
ising	-2030
▁pay	-2031
ulation	-2032
▁question	-2033
▁employees	-2034
▁Col	-2035
▁conne	-2036
▁night	-2037
▁adjust	-2038
▁details	-2039
▁ideas	-2040
▁very	-2041
▁further	-2042
orn	-2043
▁intern	-2044
ury	-2045
];	-2046
ners	-2047
ma	-2048
come	-2049
sp	-2050
▁conclusion	-2051
▁simple	-2052
▁little	-2053
ipe	-2054
▁happy	-2055
▁phot	-2056
▁Res	-2057
▁salt	-2058
▁style	-2059
▁multiple	-2060
ening	-2061
▁wom	-2062
▁conditions	-2063
ysis	-2064
ws	-2065
ched	-2066
то	-2067
friend	-2068
ived	-2069
ado	-2070
▁squ	-2071
ml	-2072
▁treat	-2073
▁government	-2074
▁random	-2075
▁dr	-2076
▁sources	-2077
▁sou	-2078
▁handle	-2079
▁colors	-2080
▁structure	-2081
▁frequ	-2082
▁continue	-2083
▁sing	-2084
▁financial	-2085
▁At	-2086
▁Wor	-2087
ott	-2088
▁month	-2089
dd	-2090
▁country	-2091
pty	-2092
▁temperature	-2093
min	-2094
ilt	-2095
itud	-2096
▁und	-2097
▁Z	-2098
▁cream	-2099
▁factors	-2100
▁action	-2101
▁saw	-2102
▁big	-2103
▁results	-2104
▁bring	-2105
ging	-2106
▁ground	-2107
date	-2108
istic	-2109
ests	-2110
▁questions	-2111
▁Check	-2112
▁select	-2113
▁comput	-2114
▁pred	-2115
▁led	-2116
▁satisf	-2117
crib	-2118
▁correct	-2119
▁methods	-2120
▁strength	-2121
▁context	-2122
1.	-2123
pre	-2124
▁recogn	-2125
▁age	-2126
view	-2127
▁knowledge	-2128
▁symb	-2129
ele	-2130
ened	-2131
▁vegetables	-2132
▁risk	-2133
▁Sarah	-2134
▁Int	-2135
ferences	-2136
▁companies	-2137
▁option	-2138
▁nav	-2139
▁three	-2140
▁<<	-2141
sole	-2142
▁mach	-2143
▁relationships	-2144
▁cou	-2145
▁While	-2146
path	-2147
reen	-2148
▁among	-2149
▁After	-2150
▁innov	-2151
son	-2152
fer	-2153
▁put	-2154
gest	-2155
▁season	-2156
alls	-2157
▁autom	-2158
▁Python	-2159
▁vol	-2160
▁field	-2161
▁node	-2162
iful	-2163
▁hours	-2164
▁became	-2165
rite	-2166
▁tool	-2167
ina	-2168
▁purch	-2169
`,	-2170
▁cell	-2171
ра	-2172
ively	-2173
▁transportation	-2174
▁quickly	-2175
▁tasks	-2176
▁security	-2177
oph	-2178
▁economic	-2179
rown	-2180
▁ingredients	-2181
▁involves	-2182
NT	-2183
▁effects	-2184
▁dest	-2185
ification	-2186
▁New	-2187
erse	-2188
▁looking	-2189
enced	-2190
rix	-2191
util	-2192
▁associ	-2193
pri	-2194
▁initial	-2195
▁cru	-2196
ken	-2197
▁path	-2198
▁location	-2199
▁eyes	-2200
▁position	-2201
▁seem	-2202
the	-2203
▁interact	-2204
▁anx	-2205
▁constru	-2206
▁express	-2207
..	-2208
▁required	-2209
▁author	-2210
▁behavior	-2211
▁System	-2212
▁prior	-2213
▁Inc	-2214
▁choose	-2215
▁mention	-2216
▁–	-2217
▁lab	-2218
▁Go	-2219
▁fru	-2220
▁image	-2221
▁increased	-2222
▁sl	-2223
▁application	-2224
▁technolog	-2225
case	-2226
▁estab	-2227
rad	-2228
▁importance	-2229
▁ste	-2230
rehe	-2231
на	-2232
▁relevant	-2233
▁everything	-2234
▁seen	-2235
my	-2236
opt	-2237
plic	-2238
▁black	-2239
LE	-2240
▁capt	-2241
oved	-2242
▁prev	-2243
▁press	-2244
▁days	-2245
und	-2246
uro	-2247
oor	-2248
▁powerful	-2249
▁ble	-2250
▁likely	-2251
▁100	-2252
erson	-2253
ump	-2254
▁response	-2255
room	-2256
▁production	-2257
▁complexity	-2258
▁Her	-2259
▁source	-2260
▁lives	-2261
▁document	-2262
iod	-2263
▁problem	-2264
▁cra	-2265
▁port	-2266
hel	-2267
ked	-2268
ators	-2269
fulness	-2270
▁report	-2271
▁won	-2272
▁thought	-2273
▁Comp	-2274
▁calculate	-2275
▁mo	-2276
▁App	-2277
elves	-2278
▁emotional	-2279
▁arch	-2280
aged	-2281
idence	-2282
▁attention	-2283
poon	-2284
▁patterns	-2285
▁mi	-2286
CT	-2287
▁transl	-2288
▁countries	-2289
▁greater	-2290
▁bar	-2291
ised	-2292
▁exce	-2293
▁modern	-2294
div	-2295
▁short	-2296
overed	-2297
▁!	-2298
igate	-2299
▁gain	-2300
bon	-2301
▁manage	-2302
aving	-2303
▁skin	-2304
imal	-2305
▁butter	-2306
augh	-2307
▁couldn	-2308
▁consist	-2309
▁spir	-2310
▁plant	-2311
▁version	-2312
▁sleep	-2313
char	-2314
▁exist	-2315
selves	-2316
▁discuss	-2317
▁2,	-2318
▁writing	-2319
cking	-2320
ко	-2321
▁bow	-2322
▁full	-2323
▁sorted	-2324
▁gen	-2325
▁adapt	-2326
imately	-2327
▁balance	-2328
elling	-2329
▁Make	-2330
▁requirements	-2331
use	-2332
▁guid	-2333
▁platforms	-2334
▁effectively	-2335
ged	-2336
▁Mar	-2337
ored	-2338
▁pan	-2339
▁chicken	-2340
[0	-2341
5,	-2342
▁items	-2343
init	-2344
▁dish	-2345
▁restaur	-2346
unch	-2347
irtual	-2348
▁12	-2349
▁increasing	-2350
▁going	-2351
itude	-2352
▁garlic	-2353
umn	-2354
words	-2355
▁created	-2356
▁wid	-2357
ception	-2358
istance	-2359
▁convers	-2360
].	-2361
▁glob	-2362
▁usage	-2363
▁background	-2364
erve	-2365
▁slow	-2366
▁higher	-2367
ро	-2368
go	-2369
friendly	-2370
▁Name	-2371
▁yourself	-2372
▁makes	-2373
valid	-2374
▁web	-2375
▁1,	-2376
ids	-2377
▁climate	-2378
▁Set	-2379
▁los	-2380
▁realized	-2381
▁meaning	-2382
▁std	-2383
▁3:	-2384
▁cy	-2385
aries	-2386
▁school	-2387
▁emotions	-2388
not	-2389
icle	-2390
append	-2391
▁period	-2392
icious	-2393
rame	-2394
▁beauty	-2395
▁private	-2396
amed	-2397
▁engaging	-2398
▁healthcare	-2399
Name	-2400
mit	-2401
umbers	-2402
▁foot	-2403
▁emb	-2404
▁Ke	-2405
ili	-2406
▁Jack	-2407
▁et	-2408
pose	-2409
eds	-2410
▁ur	-2411
iced	-2412
ON	-2413
omes	-2414
▁Let	-2415
▁living	-2416
▁una	-2417
▁X	-2418
▁ter	-2419
Ar	-2420
ival	-2421
▁Cons	-2422
▁beautiful	-2423
▁highlight	-2424
▁adding	-2425
abase	-2426
▁cir	-2427
▁motiv	-2428
▁organizations	-2429
▁Tra	-2430
▁analysis	-2431
▁surround	-2432
▁On	-2433
▁waste	-2434
▁install	-2435
▁near	-2436
▁Our	-2437
▁someone	-2438
AR	-2439
▁images	-2440
ule	-2441
▁herself	-2442
itor	-2443
ht	-2444
▁once	-2445
▁engagement	-2446
pecial	-2447
▁tou	-2448
enge	-2449
▁Le	-2450
med	-2451
▁cut	-2452
file	-2453
right	-2454
atic	-2455
▁begin	-2456
▁Cal	-2457
▁jo	-2458
array	-2459
▁anxiety	-2460
▁dise	-2461
hers	-2462
▁tal	-2463
▁enough	-2464
fact	-2465
▁remove	-2466
▁о	-2467
▁surv	-2468
inter	-2469
othes	-2470
▁Imp	-2471
amb	-2472
▁ant	-2473
lude	-2474
▁<=	-2475
▁aware	-2476
▁crucial	-2477
aily	-2478
▁live	-2479
▁hab	-2480
▁communities	-2481
▁reflect	-2482
▁professional	-2483
aw	-2484
▁demon	-2485
▁tour	-2486
lease	-2487
▁similar	-2488
▁took	-2489
▁taste	-2490
▁since	-2491
▁AI	-2492
▁void	-2493
▁video	-2494
▁Bl	-2495
RO	-2496
acy	-2497
▁men	-2498
xture	-2499
part	-2500
aly	-2501
▁related	-2502
eter	-2503
uck	-2504
▁aim	-2505
▁therap	-2506
quality	-2507
▁parent	-2508
▁transform	-2509
iverse	-2510
▁tables	-2511
▁cause	-2512
▁environmental	-2513
▁aspect	-2514
▁subject	-2515
3,	-2516
▁heav	-2517
ops	-2518
oice	-2519
▁base	-2520
uff	-2521
▁Remember	-2522
".	-2523
▁added	-2524
▁thin	-2525
▁maj	-2526
▁sales	-2527
▁9.	-2528
Ch	-2529
▁tree	-2530
▁Another	-2531
▁projects	-2532
▁Is	-2533
▁allowing	-2534
▁libr	-2535
elebr	-2536
itect	-2537
illing	-2538
▁learned	-2539
▁Or	-2540
▁prim	-2541
ows	-2542
▁walk	-2543
▁organization	-2544
▁cool	-2545
▁polit	-2546
▁leg	-2547
▁compon	-2548
▁house	-2549
▁appropri	-2550
px	-2551
▁=>	-2552
▁bowl	-2553
▁page	-2554
▁activity	-2555
▁particularly	-2556
index	-2557
alue	-2558
▁empty	-2559
▁kind	-2560
▁match	-2561
▁costs	-2562
atives	-2563
▁young	-2564
▁film	-2565
▁smooth	-2566
**	-2567
icing	-2568
anger	-2569
sequ	-2570
zz	-2571
()`	-2572
order	-2573
");	-2574
iet	-2575
man	-2576
▁deli	-2577
▁idea	-2578
PI	-2579
▁checks	-2580
▁points	-2581
che	-2582
ik	-2583
▁mob	-2584
na	-2585
olutely	-2586
▁ver	-2587
aches	-2588
▁date	-2589
sort	-2590
▁final	-2591
▁ful	-2592
irl	-2593
▁dam	-2594
▁favor	-2595
reci	-2596
▁para	-2597
▁commit	-2598
▁network	-2599
number	-2600
▁statement	-2601
________	-2602
book	-2603
▁root	-2604
▁console	-2605
▁paper	-2606
olutions	-2607
ung	-2608
▁daily	-2609
▁wa	-2610
▁mixture	-2611
▁arg	-2612
▁18	-2613
▁loss	-2614
▁Soc	-2615
▁recipe	-2616
▁Your	-2617
▁encourage	-2618
▁efforts	-2619
▁didn	-2620
att	-2621
▁ol	-2622
▁terms	-2623
▁engine	-2624
▁enhance	-2625
▁emerg	-2626
▁trying	-2627
oud	-2628
ler	-2629
▁Car	-2630
▁Am	-2631
▁Cont	-2632
phas	-2633
▁United	-2634
td	-2635
▁occur	-2636
▁variable	-2637
▁behind	-2638
ork	-2639
▁wal	-2640
ructure	-2641
▁memory	-2642
AT	-2643
▁egg	-2644
▁determine	-2645
▁associated	-2646
cer	-2647
▁choice	-2648
▁wide	-2649
▁Su	-2650
▁devices	-2651
(1	-2652
ament	-2653
ution	-2654
▁played	-2655
▁instead	-2656
▁rate	-2657
emic	-2658
▁symbol	-2659
▁pair	-2660
▁lif	-2661
▁sty	-2662
▁went	-2663
▁certain	-2664
▁came	-2665
▁colle	-2666
ley	-2667
▁Pr	-2668
▁bud	-2669
▁gard	-2670
▁personalized	-2671
▁digital	-2672
▁Comm	-2673
▁format	-2674
▁slic	-2675
issions	-2676
▁ever	-2677
▁farm	-2678
ties	-2679
▁task	-2680
▁dou	-2681
▁according	-2682
▁1/2	-2683
▁3,	-2684
▁critical	-2685
▁above	-2686
▁bit	-2687
urt	-2688
▁My	-2689
▁groups	-2690
cur	-2691
▁appreci	-2692
▁whether	-2693
▁electric	-2694
uild	-2695
▁extra	-2696
▁original	-2697
▁exec	-2698
▁mill	-2699
][	-2700
▁song	-2701
ager	-2702
те	-2703
▁early	-2704
rie	-2705
▁plants	-2706
▁connection	-2707
▁Ph	-2708
▁themselves	-2709
▁ju	-2710
iency	-2711
▁weight	-2712
▁wood	-2713
▁region	-2714
▁sche	-2715
▁everyone	-2716
▁String	-2717
▁record	-2718
▁dishes	-2719
▁sugar	-2720
▁creature	-2721
▁animals	-2722
▁demonstr	-2723
▁goal	-2724
▁center	-2725
hold	-2726
▁ill	-2727
▁American	-2728
▁architect	-2729
List	-2730
▁leaves	-2731
▁done	-2732
▁Med	-2733
ana	-2734
mary	-2735
▁relax	-2736
▁updated	-2737
aching	-2738
▁respect	-2739
▁False	-2740
▁abs	-2741
astic	-2742
aps	-2743
ference	-2744
▁creative	-2745
▁var	-2746
plit	-2747
▁lost	-2748
▁super	-2749
▁15	-2750
orial	-2751
▁upon	-2752
iveness	-2753
ffee	-2754
ields	-2755
▁technologies	-2756
▁chopped	-2757
▁emphas	-2758
iddle	-2759
▁30	-2760
ogle	-2761
ре	-2762
ready	-2763
ica	-2764
▁id	-2765
load	-2766
▁Desp	-2767
▁(1	-2768
//	-2769
▁exercise	-2770
▁peace	-2771
▁trust	-2772
▁initi	-2773
▁What	-2774
▁say	-2775
▁appropriate	-2776
▁prem	-2777
▁SE	-2778
▁protein	-2779
▁Of	-2780
▁preferences	-2781
▁dream	-2782
▁major	-2783
sub	-2784
size	-2785
▁comes	-2786
▁false	-2787
alu	-2788
▁Abs	-2789
ades	-2790
▁Fr	-2791
▁white	-2792
ands	-2793
▁cu	-2794
▁save	-2795
▁forest	-2796
orage	-2797
▁town	-2798
▁global	-2799
ask	-2800
▁tim	-2801
earch	-2802
▁constant	-2803
▁delicious	-2804
2)	-2805
lying	-2806
▁developing	-2807
▁ri	-2808
▁Sm	-2809
▁improving	-2810
ike	-2811
▁strategy	-2812
▁Despite	-2813
▁involved	-2814
IN	-2815
▁solutions	-2816
▁cooking	-2817
▁stre	-2818
▁celebr	-2819
▁secure	-2820
▁appear	-2821
▁database	-2822
▁Me	-2823
amic	-2824
++)	-2825
▁machine	-2826
▁Red	-2827
alf	-2828
▁link	-2829
▁having	-2830
▁weather	-2831
ulate	-2832
▁Example	-2833
▁Qu	-2834
▁virtual	-2835
ension	-2836
▁meditation	-2837
ai	-2838
vey	-2839
isp	-2840
▁prep	-2841
ains	-2842
hent	-2843
cription	-2844
2.	-2845
itch	-2846
rics	-2847
▁previous	-2848
▁password	-2849
ags	-2850
▁10.	-2851
▁yog	-2852
aken	-2853
being	-2854
▁operations	-2855
▁Id	-2856
ym	-2857
ext	-2858
▁complete	-2859
ites	-2860
▁contact	-2861
▁Com	-2862
▁fib	-2863
▁carbon	-2864
▁already	-2865
▁Absolutely	-2866
ached	-2867
▁integer	-2868
assword	-2869
▁util	-2870
▁implemented	-2871
▁!=	-2872
▁challenging	-2873
▁outside	-2874
▁rich	-2875
hood	-2876
▁separ	-2877
ster	-2878
▁phone	-2879
▁remind	-2880
▁located	-2881
▁easily	-2882
▁Sal	-2883
▁м	-2884
▁:	-2885
▁Part	-2886
▁achie	-2887
▁“	-2888
▁anc	-2889
cent	-2890
roll	-2891
▁describ	-2892
▁Acc	-2893
prime	-2894
▁money	-2895
▁instance	-2896
▁desired	-2897
que	-2898
▁built	-2899
▁least	-2900
ird	-2901
udd	-2902
▁movie	-2903
▁extract	-2904
actions	-2905
▁tomat	-2906
▁rad	-2907
▁decision	-2908
ln	-2909
▁rates	-2910
▁static	-2911
▁speak	-2912
▁ones	-2913
rehens	-2914
▁mentioned	-2915
▁enter	-2916
▁highly	-2917
.,	-2918
▁0.	-2919
▁think	-2920
▁Rec	-2921
▁dress	-2922
▁El	-2923
ensive	-2924
ipment	-2925
ocol	-2926
▁exh	-2927
▁hyp	-2928
icles	-2929
iversity	-2930
▁fig	-2931
board	-2932
▁struct	-2933
▁All	-2934
outh	-2935
▁Sam	-2936
▁histor	-2937
acci	-2938
▁obs	-2939
▁objects	-2940
▁д	-2941
▁longer	-2942
Ex	-2943
▁easier	-2944
unction	-2945
▁stream	-2946
▁Sim	-2947
pend	-2948
▁maximum	-2949
▁200	-2950
Element	-2951
▁Def	-2952
▁touch	-2953
▁challenge	-2954
▁fire	-2955
▁milk	-2956
▁dry	-2957
▁especial	-2958
▁named	-2959
▁attract	-2960
▁valu	-2961
▁careful	-2962
▁ge	-2963
▁safe	-2964
▁fear	-2965
▁Lily	-2966
▁series	-2967
▁engage	-2968
rastructure	-2969
▁career	-2970
asc	-2971
->	-2972
ES	-2973
ancing	-2974
▁imag	-2975
▁Ident	-2976
▁texture	-2977
▁numer	-2978
▁watch	-2979
next	-2980
▁mindfulness	-2981
▁society	-2982
ores	-2983
ison	-2984
▁today	-2985
▁excell	-2986
▁No	-2987
▁[]	-2988
rate	-2989
▁focused	-2990
▁limit	-2991
▁fail	-2992
▁close	-2993
▁Social	-2994
▁Emily	-2995
▁equal	-2996
chan	-2997
▁recurs	-2998
ть	-2999
▁Dis	-3000
apan	-3001
isions	-3002
▁That	-3003
▁stories	-3004
▁blue	-3005
▁entire	-3006
▁opportunity	-3007
mar	-3008
▁True	-3009
▁depending	-3010
rist	-3011
▁typically	-3012
igation	-3013
▁fish	-3014
▁hands	-3015
onacci	-3016
▁introdu	-3017
";	-3018
▁setting	-3019
left	-3020
tings	-3021
://	-3022
▁param	-3023
etic	-3024
▁sav	-3025
▁coffee	-3026
▁shap	-3027
▁powder	-3028
ли	-3029
ictionary	-3030
▁olive	-3031
▁consid	-3032
ww	-3033
oyal	-3034
▁running	-3035
TM	-3036
▁experiment	-3037
▁loved	-3038
▁flex	-3039
ians	-3040
▁pal	-3041
▁Java	-3042
▁matter	-3043
sy	-3044
▁**	-3045
▁Man	-3046
▁card	-3047
▁mel	-3048
▁promoting	-3049
▁playing	-3050
▁conflic	-3051
iles	-3052
▁filled	-3053
▁mobile	-3054
▁contains	-3055
▁sess	-3056
max	-3057
ole	-3058
▁request	-3059
une	-3060
▁accur	-3061
▁Av	-3062
▁States	-3063
ada	-3064
▁trees	-3065
▁ult	-3066
▁wanted	-3067
▁sil	-3068
▁forward	-3069
▁tell	-3070
▁None	-3071
▁requires	-3072
ules	-3073
▁valuable	-3074
▁appe	-3075
▁altern	-3076
▁0:	-3077
▁conduct	-3078
▁evalu	-3079
ried	-3080
▁voice	-3081
▁Implement	-3082
▁continued	-3083
▁except	-3084
▁safety	-3085
▁distance	-3086
▁Reg	-3087
▁attack	-3088
▁->	-3089
▁alm	-3090
▁insights	-3091
Enter	-3092
▁exercises	-3093
tics	-3094
▁smaller	-3095
▁average	-3096
rel	-3097
ны	-3098
asted	-3099
▁analyze	-3100
▁bright	-3101
▁script	-3102
era	-3103
▁comprehens	-3104
▁solar	-3105
▁World	-3106
ación	-3107
▁single	-3108
▁surface	-3109
aff	-3110
▁especially	-3111
▁1/4	-3112
▁Euro	-3113
▁applications	-3114
▁His	-3115
▁shared	-3116
▁wild	-3117
irm	-3118
▁budget	-3119
▁pieces	-3120
▁collect	-3121
life	-3122
▁seemed	-3123
▁ensuring	-3124
▁Af	-3125
▁difference	-3126
istics	-3127
▁distribut	-3128
▁ded	-3129
▁medical	-3130
▁traffic	-3131
▁favorite	-3132
▁infrastructure	-3133
▁Japan	-3134
▁powers	-3135
▁bread	-3136
▁Test	-3137
▁policies	-3138
не	-3139
ological	-3140
▁thoughts	-3141
▁salad	-3142
4,	-3143
lished	-3144
len	-3145
▁boo	-3146
oint	-3147
▁faced	-3148
▁anything	-3149
Pr	-3150
Pro	-3151
▁Choose	-3152
▁strings	-3153
ius	-3154
▁cover	-3155
▁concept	-3156
iling	-3157
▁campaigns	-3158
▁scen	-3159
▁players	-3160
▁allowed	-3161
▁spirit	-3162
▁prec	-3163
▁oven	-3164
down	-3165
▁по	-3166
▁starting	-3167
[]	-3168
▁graph	-3169
ль	-3170
▁las	-3171
▁cam	-3172
▁girl	-3173
▁teas	-3174
ino	-3175
▁fight	-3176
▁games	-3177
▁problems	-3178
▁indic	-3179
culate	-3180
▁Identify	-3181
▁measures	-3182
▁spread	-3183
▁park	-3184
▁student	-3185
ares	-3186
▁woman	-3187
▁dance	-3188
▁specified	-3189
▁scient	-3190
hips	-3191
▁inside	-3192
▁Their	-3193
▁advanced	-3194
numbers	-3195
term	-3196
ault	-3197
ux	-3198
▁English	-3199
?"	-3200
rors	-3201
aught	-3202
▁mount	-3203
▁efficiency	-3204
▁hair	-3205
▁getting	-3206
▁rice	-3207
result	-3208
▁parts	-3209
▁believe	-3210
▁testing	-3211
▁establish	-3212
▁stri	-3213
▁Google	-3214
▁block	-3215
▁artists	-3216
wise	-3217
▁considered	-3218
▁Ret	-3219
10	-3220
▁partners	-3221
▁brown	-3222
comm	-3223
html	-3224
▁clients	-3225
▁equipment	-3226
fs	-3227
▁actions	-3228
user	-3229
▁fall	-3230
50	-3231
rypt	-3232
▁books	-3233
ufact	-3234
▁bra	-3235
ва	-3236
▁Many	-3237
▁routine	-3238
▁recommendations	-3239
▁storage	-3240
▁situation	-3241
ony	-3242
▁chann	-3243
['	-3244
ided	-3245
▁sym	-3246
ND	-3247
oms	-3248
▁danger	-3249
icial	-3250
▁gas	-3251
ying	-3252
']	-3253
icy	-3254
▁worked	-3255
▁4,	-3256
▁baking	-3257
izz	-3258
▁cred	-3259
start	-3260
▁potat	-3261
▁depend	-3262
▁Take	-3263
▁larger	-3264
▁produce	-3265
▁purpose	-3266
▁phr	-3267
▁player	-3268
▁bur	-3269
rem	-3270
▁mechan	-3271
▁Can	-3272
▁shape	-3273
▁Europe	-3274
▁advent	-3275
▁authent	-3276
▁measure	-3277
ena	-3278
▁fra	-3279
▁atm	-3280
agram	-3281
▁suit	-3282
▁Then	-3283
▁Custom	-3284
▁looked	-3285
▁afford	-3286
ban	-3287
ет	-3288
▁developed	-3289
▁echo	-3290
▁lot	-3291
icro	-3292
▁Start	-3293
▁ancient	-3294
ils	-3295
▁Alex	-3296
ser	-3297
▁therapy	-3298
▁political	-3299
▁price	-3300
▁update	-3301
▁Stud	-3302
▁5,	-3303
▁stack	-3304
ection	-3305
▁item	-3306
▁sky	-3307
▁tried	-3308
▁feelings	-3309
($	-3310
▁awareness	-3311
▁Par	-3312
gen	-3313
▁4:	-3314
▁emissions	-3315
hing	-3316
▁resulting	-3317
▁restaurant	-3318
▁properties	-3319
▁whole	-3320
cast	-3321
▁reli	-3322
free	-3323
▁functions	-3324
▁letter	-3325
▁rob	-3326
▁relig	-3327
▁influenc	-3328
▁mid	-3329
▁excellent	-3330
ashion	-3331
▁decor	-3332
▁doing	-3333
▁atmosp	-3334
▁dog	-3335
▁speed	-3336
▁row	-3337
▁productivity	-3338
▁host	-3339
▁taken	-3340
▁fast	-3341
');	-3342
▁Per	-3343
othesis	-3344
▁mor	-3345
▁Des	-3346
Array	-3347
ttps	-3348
▁16	-3349
▁cannot	-3350
Id	-3351
oe	-3352
oming	-3353
▁directly	-3354
▁piece	-3355
▁flav	-3356
!"	-3357
enn	-3358
ission	-3359
▁gold	-3360
▁meal	-3361
▁flo	-3362
▁draw	-3363
▁priorit	-3364
▁soil	-3365
▁demand	-3366
uration	-3367
▁expression	-3368
▁tail	-3369
▁complet	-3370
▁combination	-3371
ball	-3372
ume	-3373
▁four	-3374
yond	-3375
▁cases	-3376
▁esc	-3377
Th	-3378
▁stra	-3379
▁Through	-3380
resp	-3381
▁leaders	-3382
▁sets	-3383
▁lack	-3384
▁movement	-3385
▁Don	-3386
▁API	-3387
▁-1	-3388
enue	-3389
▁guide	-3390
▁sequ	-3391
idge	-3392
▁May	-3393
▁species	-3394
▁Co	-3395
▁categ	-3396
▁ele	-3397
▁finally	-3398
▁Now	-3399
oll	-3400
▁hor	-3401
▁From	-3402
▁medium	-3403
▁roll	-3404
▁__	-3405
▁processes	-3406
su	-3407
inks	-3408
▁pattern	-3409
▁frame	-3410
▁lat	-3411
▁war	-3412
▁stir	-3413
▁Each	-3414
node	-3415
▁mass	-3416
▁Pe	-3417
gr	-3418
▁tur	-3419
▁serve	-3420
alid	-3421
▁List	-3422
▁harm	-3423
▁sand	-3424
▁got	-3425
▁thing	-3426
uly	-3427
▁interests	-3428
▁comfortable	-3429
▁general	-3430
▁soon	-3431
cont	-3432
ky	-3433
ricult	-3434
bre	-3435
▁purchase	-3436
▁thick	-3437
▁juice	-3438
▁Afric	-3439
aced	-3440
unte	-3441
▁limited	-3442
▁creates	-3443
▁align	-3444
▁dyn	-3445
▁communicate	-3446
▁detect	-3447
▁improved	-3448
▁news	-3449
▁Ag	-3450
▁push	-3451
othing	-3452
▁diet	-3453
inner	-3454
ography	-3455
▁sus	-3456
▁shows	-3457
▁far	-3458
element	-3459
ister	-3460
▁library	-3461
▁matrix	-3462
▁receive	-3463
▁manufact	-3464
▁fest	-3465
ри	-3466
ighb	-3467
▁catch	-3468
▁helping	-3469
nown	-3470
▁Develop	-3471
▁overcome	-3472
▁concer	-3473
▁videos	-3474
▁abilities	-3475
▁Tw	-3476
го	-3477
eters	-3478
▁expert	-3479
▁months	-3480
▁Trans	-3481
▁rock	-3482
▁blood	-3483
▁wasn	-3484
odes	-3485
utton	-3486
▁onto	-3487
idden	-3488
▁famous	-3489
▁fields	-3490
▁Mon	-3491
▁summary	-3492
▁offering	-3493
▁stop	-3494
▁article	-3495
▁pressure	-3496
▁La	-3497
▁forms	-3498
▁presence	-3499
▁optimize	-3500
▁subs	-3501
imize	-3502
▁server	-3503
comes	-3504
▁Prov	-3505
▁cat	-3506
▁circ	-3507
▁alone	-3508
▁prompt	-3509
ronic	-3510
▁liter	-3511
▁week	-3512
▁sea	-3513
▁0)	-3514
▁flour	-3515
▁US	-3516
house	-3517
▁Tom	-3518
▁threat	-3519
▁acad	-3520
ios	-3521
▁du	-3522
▁comprehensive	-3523
▁0,	-3524
▁expected	-3525
ocolate	-3526
▁employee	-3527
▁contribute	-3528
▁predict	-3529
▁@	-3530
▁styles	-3531
▁veh	-3532
AS	-3533
▁bott	-3534
▁dictionary	-3535
▁command	-3536
eper	-3537
lick	-3538
▁Therefore	-3539
▁models	-3540
point	-3541
atitude	-3542
▁advance	-3543
▁deb	-3544
▁dom	-3545
▁refer	-3546
▁influence	-3547
ply	-3548
▁device	-3549
ourage	-3550
println	-3551
ses	-3552
rench	-3553
▁1)	-3554
ellig	-3555
ervation	-3556
▁smart	-3557
fl	-3558
▁involve	-3559
ilies	-3560
▁hypothesis	-3561
7,	-3562
▁raise	-3563
▁Ass	-3564
cending	-3565
▁implementing	-3566
▁Consider	-3567
▁Ing	-3568
encies	-3569
dom	-3570
dule	-3571
▁ban	-3572
▁meat	-3573
▁shown	-3574
▁decisions	-3575
▁beyond	-3576
▁fitness	-3577
▁treatment	-3578
ка	-3579
▁cop	-3580
▁bed	-3581
▁why	-3582
▁finding	-3583
▁loyal	-3584
abilities	-3585
▁tax	-3586
▁Gr	-3587
▁attend	-3588
▁premise	-3589
ither	-3590
To	-3591
ype	-3592
▁snack	-3593
▁significantly	-3594
▁First	-3595
icks	-3596
▁parents	-3597
▁dead	-3598
unning	-3599
▁subst	-3600
▁Person	-3601
▁load	-3602
▁Det	-3603
▁damage	-3604
iring	-3605
▁collection	-3606
▁coc	-3607
essage	-3608
color	-3609
▁death	-3610
▁advert	-3611
ula	-3612
rought	-3613
▁Keep	-3614
▁experienced	-3615
▁Gu	-3616
oon	-3617
▁concerns	-3618
▁atmosphere	-3619
eria	-3620
▁poll	-3621
▁Other	-3622
▁obst	-3623
▁rain	-3624
▁teaspoon	-3625
ID	-3626
▁studies	-3627
▁navigate	-3628
▁classes	-3629
▁cand	-3630
▁patient	-3631
▁fruit	-3632
email	-3633
▁resil	-3634
0.	-3635
oves	-3636
▁height	-3637
▁Ro	-3638
lower	-3639
▁creatures	-3640
-3	-3641
▁garden	-3642
▁designs	-3643
ffect	-3644
▁frequency	-3645
inct	-3646
▁depth	-3647
▁identity	-3648
▁double	-3649
artment	-3650
▁According	-3651
body	-3652
▁computer	-3653
more	-3654
▁ice	-3655
▁investment	-3656
▁Gree	-3657
▁recent	-3658
▁economy	-3659
▁landsc	-3660
▁condition	-3661
▁perspect	-3662
▁satisfaction	-3663
▁planning	-3664
Number	-3665
tra	-3666
▁box	-3667
▁discovered	-3668
▁outcomes	-3669
cean	-3670
▁на	-3671
▁soup	-3672
ding	-3673
▁adds	-3674
▁mit	-3675
▁Instru	-3676
▁largest	-3677
▁architecture	-3678
ST	-3679
▁suggestions	-3680
uments	-3681
▁Christ	-3682
▁issue	-3683
▁reality	-3684
▁ready	-3685
test	-3686
▁ann	-3687
▁Market	-3688
▁>=	-3689
▁Art	-3690
▁leave	-3691
▁ask	-3692
ле	-3693
▁sounds	-3694
▁regularly	-3695
▁collaboration	-3696
now	-3697
▁elif	-3698
▁flavors	-3699
▁feet	-3700
By	-3701
label	-3702
▁binary	-3703
▁advant	-3704
▁passion	-3705
LECT	-3706
rupt	-3707
▁Ingredients	-3708
3.	-3709
equ	-3710
▁drive	-3711
▁road	-3712
requ	-3713
▁Expl	-3714
▁visitors	-3715
ycl	-3716
sych	-3717
▁helpful	-3718
▁Ear	-3719
▁glass	-3720
▁rather	-3721
osing	-3722
▁himself	-3723
hest	-3724
ativity	-3725
▁impacts	-3726
ello	-3727
▁maintaining	-3728
▁interactive	-3729
▁inj	-3730
ROM	-3731
▁hyd	-3732
▁outd	-3733
▁plans	-3734
▁states	-3735
nal	-3736
fit	-3737
▁inde	-3738
▁slight	-3739
table	-3740
▁client	-3741
arian	-3742
▁held	-3743
▁front	-3744
▁doesn	-3745
▁1;	-3746
▁Fe	-3747
▁property	-3748
▁25	-3749
ellow	-3750
▁decre	-3751
▁fashion	-3752
▁technique	-3753
▁section	-3754
oke	-3755
▁joy	-3756
▁replace	-3757
TML	-3758
rated	-3759
▁square	-3760
▁chat	-3761
▁filter	-3762
aim	-3763
▁talk	-3764
▁neighb	-3765
▁assess	-3766
▁serving	-3767
▁innovative	-3768
angle	-3769
▁Pre	-3770
illa	-3771
▁accept	-3772
▁convert	-3773
rig	-3774
▁cells	-3775
ibonacci	-3776
▁files	-3777
▁Health	-3778
▁detailed	-3779
▁processing	-3780
▁FROM	-3781
▁responsible	-3782
▁sports	-3783
▁solve	-3784
▁spaces	-3785
password	-3786
▁obstac	-3787
())	-3788
▁agricult	-3789
▁deeper	-3790
mod	-3791
▁layer	-3792
▁apart	-3793
▁expand	-3794
arc	-3795
▁regard	-3796
▁retrie	-3797
▁spent	-3798
attle	-3799
Int	-3800
▁updates	-3801
▁industries	-3802
works	-3803
▁Fl	-3804
▁profession	-3805
ded	-3806
▁blend	-3807
25	-3808
▁ball	-3809
▁carry	-3810
▁effort	-3811
▁classic	-3812
overy	-3813
▁seg	-3814
▁sharing	-3815
▁cuis	-3816
tic	-3817
▁vict	-3818
iding	-3819
▁aspects	-3820
▁deg	-3821
():	-3822
osed	-3823
ifications	-3824
▁cooked	-3825
▁incred	-3826
▁ang	-3827
▁teac	-3828
rition	-3829
▁lemon	-3830
ero	-3831
▁vegan	-3832
rome	-3833
▁Cent	-3834
ek	-3835
opping	-3836
';	-3837
▁remember	-3838
▁themes	-3839
▁screen	-3840
▁vi	-3841
edi	-3842
title	-3843
▁dire	-3844
fficient	-3845
▁interested	-3846
▁repe	-3847
▁half	-3848
▁Analy	-3849
style	-3850
▁worth	-3851
▁explain	-3852
▁""	-3853
▁trends	-3854
Col	-3855
▁button	-3856
▁seeds	-3857
▁itself	-3858
oin	-3859
like	-3860
ocal	-3861
▁Remove	-3862
9,	-3863
lean	-3864
▁cold	-3865
▁growing	-3866
▁risks	-3867
▁construction	-3868
▁algorithms	-3869
▁train	-3870
▁earth	-3871
▁gradu	-3872
etimes	-3873
[0]	-3874
▁Init	-3875
▁recip	-3876
▁international	-3877
inated	-3878
Ind	-3879
▁eye	-3880
▁science	-3881
ales	-3882
▁families	-3883
reg	-3884
▁fund	-3885
ás	-3886
▁walking	-3887
▁onion	-3888
sm	-3889
▁million	-3890
▁ec	-3891
option	-3892
▁National	-3893
▁cast	-3894
▁poem	-3895
▁Sw	-3896
idents	-3897
▁practical	-3898
▁query	-3899
▁honey	-3900
▁reduced	-3901
▁pars	-3902
▁Est	-3903
Con	-3904
arp	-3905
▁Vis	-3906
otal	-3907
ka	-3908
▁ultimately	-3909
▁initiatives	-3910
▁scene	-3911
Value	-3912
ía	-3913
gram	-3914
▁later	-3915
step	-3916
▁components	-3917
▁reason	-3918
▁middle	-3919
▁prefer	-3920
▁fully	-3921
▁compared	-3922
▁interface	-3923
▁decl	-3924
Data	-3925
▁disease	-3926
▁affordable	-3927
▁vary	-3928
ox	-3929
▁heard	-3930
▁turned	-3931
▁Define	-3932
▁Conclusion	-3933
▁patients	-3934
▁names	-3935
▁hom	-3936
overs	-3937
▁Nor	-3938
uth	-3939
▁errors	-3940
itary	-3941
▁decided	-3942
uous	-3943
▁flowers	-3944
▁gather	-3945
type	-3946
▁unc	-3947
▁supply	-3948
▁sliced	-3949
▁ran	-3950
▁map	-3951
▁diverse	-3952
Node	-3953
pec	-3954
▁batter	-3955
▁reverse	-3956
▁ord	-3957
▁blog	-3958
Cont	-3959
▁lines	-3960
▁remote	-3961
▁anyone	-3962
ara	-3963
▁becomes	-3964
▁INT	-3965
▁workout	-3966
▁column	-3967
▁win	-3968
enses	-3969
▁conver	-3970
iled	-3971
atory	-3972
▁hol	-3973
ured	-3974
▁Instructions	-3975
RE	-3976
▁academic	-3977
▁por	-3978
▁reve	-3979
▁exploring	-3980
▁suggests	-3981
Cl	-3982
▁basic	-3983
oun	-3984
▁Just	-3985
zy	-3986
▁Get	-3987
Invalid	-3988
▁revenue	-3989
▁Enjoy	-3990
▁believed	-3991
It	-3992
▁Soph	-3993
▁French	-3994
▁force	-3995
▁grand	-3996
▁handling	-3997
▁assign	-3998
ifically	-3999
usive	-4000
▁truly	-4001
anation	-4002
▁Face	-4003
conds	-4004
ache	-4005
used	-4006
▁sentiment	-4007
inst	-4008
[1	-4009
ppers	-4010
▁Techn	-4011
▁included	-4012
zing	-4013
▁cross	-4014
ums	-4015
▁stret	-4016
▁numerous	-4017
▁intellig	-4018
▁note	-4019
▁write	-4020
iration	-4021
iter	-4022
ok	-4023
--------	-4024
tenance	-4025
erge	-4026
ormal	-4027
▁heavy	-4028
▁evidence	-4029
▁gratitude	-4030
▁quant	-4031
▁instructions	-4032
▁hear	-4033
▁Br	-4034
ought	-4035
▁grew	-4036
inn	-4037
▁century	-4038
▁depression	-4039
unt	-4040
▁divis	-4041
▁places	-4042
NA	-4043
▁appl	-4044
HER	-4045
▁served	-4046
▁Pract	-4047
▁primary	-4048
lines	-4049
▁title	-4050
lete	-4051
force	-4052
▁assist	-4053
▁Enc	-4054
year	-4055
ervice	-4056
wh	-4057
▁release	-4058
▁continues	-4059
▁women	-4060
▁leaving	-4061
▁More	-4062
current	-4063
acity	-4064
▁volunte	-4065
▁moments	-4066
12	-4067
▁wonder	-4068
▁creativity	-4069
▁status	-4070
▁planet	-4071
▁population	-4072
chen	-4073
▁giving	-4074
▁brain	-4075
▁During	-4076
▁buildings	-4077
ivil	-4078
▁б	-4079
verse	-4080
▁Based	-4081
▁hidden	-4082
▁thinking	-4083
onut	-4084
▁sustainability	-4085
▁apply	-4086
▁define	-4087
▁teams	-4088
▁University	-4089
▁band	-4090
▁intric	-4091
▁Note	-4092
▁shel	-4093
▁Every	-4094
▁convey	-4095
onding	-4096
▁opp	-4097
во	-4098
ini	-4099
empt	-4100
▁active	-4101
▁hon	-4102
▁||	-4103
race	-4104
▁calls	-4105
▁Act	-4106
▁received	-4107
eries	-4108
inations	-4109
▁pet	-4110
▁cuisine	-4111
enly	-4112
▁pict	-4113
▁&&	-4114
ognitive	-4115
▁accessible	-4116
▁either	-4117
▁board	-4118
▁leads	-4119
▁ic	-4120
▁propos	-4121
▁cups	-4122
▁repl	-4123
▁painting	-4124
ulner	-4125
pen	-4126
Tr	-4127
▁chocolate	-4128
▁latest	-4129
iff	-4130
find	-4131
porary	-4132
▁programming	-4133
▁represents	-4134
▁caused	-4135
ugh	-4136
▁Pol	-4137
▁regions	-4138
isms	-4139
▁Off	-4140
▁myself	-4141
▁monitor	-4142
▁messages	-4143
agon	-4144
▁pod	-4145
dis	-4146
urch	-4147
▁complement	-4148
▁animal	-4149
▁tracking	-4150
inger	-4151
ateful	-4152
▁Using	-4153
▁determined	-4154
iam	-4155
▁existing	-4156
coming	-4157
uracy	-4158
rs	-4159
▁CO	-4160
▁config	-4161
▁rise	-4162
▁mother	-4163
▁tea	-4164
ested	-4165
▁integers	-4166
▁arri	-4167
▁stronger	-4168
flow	-4169
▁yet	-4170
▁Commun	-4171
uries	-4172
▁changing	-4173
▁vibr	-4174
▁really	-4175
▁mist	-4176
▁slightly	-4177
▁trade	-4178
▁wine	-4179
▁throw	-4180
▁Dr	-4181
▁multi	-4182
▁Research	-4183
▁font	-4184
▁brought	-4185
include	-4186
▁site	-4187
iation	-4188
▁reading	-4189
▁courses	-4190
ief	-4191
▁usually	-4192
▁consequ	-4193
error	-4194
▁});	-4195
▁Node	-4196
▁kit	-4197
▁weeks	-4198
▁craft	-4199
▁Ne	-4200
▁schedule	-4201
▁simply	-4202
▁asked	-4203
oman	-4204
▁pued	-4205
class	-4206
▁ensures	-4207
ompl	-4208
▁cities	-4209
▁channels	-4210
▁remaining	-4211
▁plastic	-4212
Script	-4213
ien	-4214
▁effectiveness	-4215
▁contrast	-4216
▁incorporate	-4217
▁Up	-4218
SS	-4219
▁wat	-4220
▁immedi	-4221
▁High	-4222
▁shad	-4223
itter	-4224
apter	-4225
▁discount	-4226
__(	-4227
▁tomatoes	-4228
▁accurate	-4229
▁vulner	-4230
▁50	-4231
▁moving	-4232
▁consistent	-4233
▁===	-4234
▁passed	-4235
▁workers	-4236
▁meets	-4237
umin	-4238
▁deliver	-4239
▁evol	-4240
▁Ben	-4241
▁situations	-4242
▁alternative	-4243
1)	-4244
▁Thank	-4245
▁Emma	-4246
ки	-4247
ros	-4248
▁Please	-4249
▁pick	-4250
▁muse	-4251
▁incorporating	-4252
▁sequence	-4253
UT	-4254
▁mission	-4255
imp	-4256
▁mark	-4257
change	-4258
▁Ge	-4259
▁Facebook	-4260
▁chem	-4261
ialize	-4262
▁Further	-4263
▁Introdu	-4264
▁attribut	-4265
RL	-4266
▁schools	-4267
rict	-4268
▁son	-4269
▁showcase	-4270
▁street	-4271
▁variables	-4272
▁analytics	-4273
▁efficiently	-4274
▁topics	-4275
yd	-4276
▁14	-4277
▁desp	-4278
▁member	-4279
ulations	-4280
▁herbs	-4281
▁accompl	-4282
▁null	-4283
▁wr	-4284
.")	-4285
▁fab	-4286
oration	-4287
▁{}	-4288
▁door	-4289
▁burn	-4290
agn	-4291
▁overw	-4292
icated	-4293
та	-4294
▁Since	-4295
cal	-4296
ensity	-4297
▁South	-4298
▁mut	-4299
▁generated	-4300
▁monit	-4301
▁nutri	-4302
]:	-4303
▁round	-4304
▁sides	-4305
▁hop	-4306
▁Gener	-4307
▁linked	-4308
▁SELECT	-4309
▁successfully	-4310
▁Max	-4311
▁eco	-4312
▁tele	-4313
▁fix	-4314
▁Earth	-4315
▁policy	-4316
8,	-4317
▁grateful	-4318
▁structures	-4319
random	-4320
▁discover	-4321
▁fro	-4322
▁Aut	-4323
▁Data	-4324
fu	-4325
▁Tim	-4326
▁War	-4327
▁stores	-4328
ло	-4329
▁law	-4330
known	-4331
▁eggs	-4332
bl	-4333
▁Gl	-4334
че	-4335
bal	-4336
raw	-4337
▁staff	-4338
ressive	-4339
▁habit	-4340
anging	-4341
HERE	-4342
entence	-4343
lt	-4344
▁spices	-4345
▁becoming	-4346
host	-4347
▁bound	-4348
▁advertising	-4349
IT	-4350
▁Mod	-4351
ipped	-4352
▁recycl	-4353
▁causing	-4354
osition	-4355
▁Rep	-4356
▁ir	-4357
AL	-4358
▁_	-4359
▁third	-4360
▁cultures	-4361
▁ocean	-4362
▁chain	-4363
▁Opt	-4364
▁benefit	-4365
▁resilience	-4366
='	-4367
▁click	-4368
▁incent	-4369
▁prioritize	-4370
comp	-4371
▁clim	-4372
▁vegetable	-4373
▁Germ	-4374
▁emp	-4375
Prime	-4376
pected	-4377
▁intricate	-4378
▁5:	-4379
▁competition	-4380
isk	-4381
▁boost	-4382
etry	-4383
▁memories	-4384
bject	-4385
▁nothing	-4386
▁tone	-4387
idad	-4388
▁datas	-4389
raft	-4390
▁creation	-4391
▁professionals	-4392
oad	-4393
▁chance	-4394
▁snow	-4395
▁City	-4396
▁office	-4397
▁five	-4398
▁•	-4399
▁ко	-4400
▁bird	-4401
dict	-4402
asons	-4403
▁Bar	-4404
▁India	-4405
rops	-4406
▁partner	-4407
▁remains	-4408
ctors	-4409
vest	-4410
▁written	-4411
Count	-4412
▁gent	-4413
atively	-4414
fig	-4415
▁historical	-4416
▁dough	-4417
▁Instagram	-4418
▁party	-4419
▁Char	-4420
ube	-4421
▁photos	-4422
▁organic	-4423
▁metrics	-4424
OR	-4425
▁influenced	-4426
▁encount	-4427
oving	-4428
▁weak	-4429
▁mood	-4430
▁stunning	-4431
▁Mus	-4432
ublic	-4433
button	-4434
▁religious	-4435
iver	-4436
▁delivery	-4437
▁carefully	-4438
Index	-4439
eral	-4440
ifying	-4441
▁calm	-4442
▁figure	-4443
▁fuel	-4444
▁hosp	-4445
▁exhib	-4446
▁potatoes	-4447
▁plays	-4448
));	-4449
99	-4450
▁novel	-4451
▁differences	-4452
▁fat	-4453
split	-4454
▁trip	-4455
▁affected	-4456
▁vill	-4457
ounter	-4458
▁tablespoon	-4459
▁earn	-4460
though	-4461
▁magic	-4462
▁income	-4463
▁crisp	-4464
▁retail	-4465
itut	-4466
inate	-4467
▁vac	-4468
anth	-4469
▁amb	-4470
▁Ve	-4471
▁walls	-4472
izer	-4473
▁dim	-4474
▁settings	-4475
▁apps	-4476
▁ahead	-4477
▁insert	-4478
root	-4479
▁Do	-4480
▁York	-4481
▁useful	-4482
dig	-4483
▁AND	-4484
▁WHERE	-4485
▁Intern	-4486
▁adventure	-4487
▁Greek	-4488
▁maintenance	-4489
▁beef	-4490
idth	-4491
▁overwhel	-4492
▁sympt	-4493
ractions	-4494
за	-4495
▁stage	-4496
▁operation	-4497
▁isol	-4498
urance	-4499
▁starts	-4500
▁cognitive	-4501
▁completely	-4502
▁Try	-4503
▁Mix	-4504
▁specifically	-4505
process	-4506
▁boy	-4507
▁driving	-4508
onic	-4509
▁eating	-4510
▁Not	-4511
▁spot	-4512
water	-4513
ти	-4514
initely	-4515
▁fruits	-4516
▁vow	-4517
▁consequences	-4518
▁fa	-4519
▁psych	-4520
▁Return	-4521
▁yoga	-4522
▁capital	-4523
▁menu	-4524
▁cancer	-4525
▁modified	-4526
▁gave	-4527
▁followed	-4528
▁enab	-4529
▁faster	-4530
▁clothing	-4531
▁beans	-4532
item	-4533
arily	-4534
▁expertise	-4535
▁appreciate	-4536
▁17	-4537
ercase	-4538
▁Sub	-4539
asure	-4540
▁reviews	-4541
▁closer	-4542
Input	-4543
▁meals	-4544
ocks	-4545
▁bill	-4546
▁bottom	-4547
▁loyalty	-4548
avas	-4549
▁pu	-4550
▁humans	-4551
▁Calculate	-4552
▁military	-4553
▁foods	-4554
ibilities	-4555
▁Aust	-4556
▁perm	-4557
▁amaz	-4558
▁coord	-4559
▁scenari	-4560
▁JavaScript	-4561
des	-4562
▁hous	-4563
▁agree	-4564
▁twist	-4565
▁late	-4566
▁uns	-4567
rief	-4568
▁revers	-4569
▁pun	-4570
AC	-4571
indrome	-4572
ls	-4573
ront	-4574
ups	-4575
▁Find	-4576
▁attempt	-4577
duc	-4578
▁Instead	-4579
▁posts	-4580
▁lighting	-4581
QL	-4582
tered	-4583
▁corresp	-4584
▁van	-4585
anner	-4586
▁};	-4587
▁electricity	-4588
▁eat	-4589
▁mis	-4590
▁broad	-4591
▁reb	-4592
iers	-4593
▁sold	-4594
▁guidance	-4595
▁symptoms	-4596
▁accuracy	-4597
▁independ	-4598
▁movements	-4599
efore	-4600
▁funding	-4601
▁width	-4602
ugg	-4603
icip	-4604
▁sessions	-4605
▁np	-4606
▁visually	-4607
▁Furthermore	-4608
sec	-4609
▁keeping	-4610
().	-4611
-2	-4612
▁sentences	-4613
▁vine	-4614
▁properly	-4615
oper	-4616
itors	-4617
yl	-4618
▁eventually	-4619
▁hit	-4620
search	-4621
▁container	-4622
▁languages	-4623
box	-4624
avascript	-4625
aste	-4626
▁changed	-4627
▁Brit	-4628
orders	-4629
▁prices	-4630
▁landscape	-4631
▁views	-4632
▁coming	-4633
▁Incre	-4634
▁follows	-4635
▁Ab	-4636
▁conflict	-4637
itute	-4638
AY	-4639
▁viol	-4640
((	-4641
▁outdoor	-4642
ico	-4643
▁deal	-4644
uten	-4645
▁separate	-4646
eless	-4647
▁secret	-4648
6,	-4649
fast	-4650
▁theme	-4651
▁Under	-4652
▁seconds	-4653
▁technical	-4654
▁Title	-4655
▁diseases	-4656
▁innovation	-4657
ey	-4658
cles	-4659
ля	-4660
▁Place	-4661
▁die	-4662
▁coconut	-4663
▁iterate	-4664
▁reliable	-4665
▁island	-4666
▁component	-4667
Time	-4668
ctu	-4669
Your	-4670
▁strange	-4671
▁gram	-4672
top	-4673
▁HTML	-4674
▁intelligence	-4675
▁lowercase	-4676
▁invent	-4677
▁der	-4678
▁functionality	-4679
xy	-4680
▁tsp	-4681
elines	-4682
:",	-4683
▁Park	-4684
hand	-4685
▁stars	-4686
▁execut	-4687
▁iterates	-4688
▁peppers	-4689
eling	-4690
where	-4691
▁11	-4692
▁topic	-4693
▁walked	-4694
▁Ed	-4695
▁fair	-4696
▁breathing	-4697
▁AS	-4698
▁Prom	-4699
▁resource	-4700
▁recognition	-4701
▁consumption	-4702
▁educational	-4703
athe	-4704
▁highest	-4705
▁vast	-4706
▁manip	-4707
▁tow	-4708
ocado	-4709
▁obstacles	-4710
▁showc	-4711
▁Value	-4712
▁immers	-4713
▁pages	-4714
▁payment	-4715
▁distinct	-4716
▁ap	-4717
oli	-4718
▁assistance	-4719
▁bold	-4720
▁improvement	-4721
gy	-4722
▁Serve	-4723
▁urban	-4724
▁seek	-4725
▁connected	-4726
30	-4727
Wh	-4728
ме	-4729
▁window	-4730
▁Program	-4731
▁suitable	-4732
sq	-4733
ся	-4734
ref	-4735
▁slowly	-4736
▁combined	-4737
▁не	-4738
assion	-4739
▁respond	-4740
▁tight	-4741
ATE	-4742
poons	-4743
▁civil	-4744
▁Avoid	-4745
▁standard	-4746
Em	-4747
▁diced	-4748
▁ideal	-4749
▁como	-4750
▁entre	-4751
▁struggles	-4752
▁laugh	-4753
▁compare	-4754
▁managing	-4755
▁buy	-4756
IC	-4757
▁wear	-4758
▁score	-4759
ipping	-4760
▁coll	-4761
▁Mind	-4762
akers	-4763
▁camera	-4764
▁meeting	-4765
▁returned	-4766
▁struggling	-4767
▁(20	-4768
SON	-4769
ably	-4770
ails	-4771
onom	-4772
rooms	-4773
umbled	-4774
▁brow	-4775
▁dru	-4776
▁Will	-4777
itate	-4778
▁gift	-4779
▁willing	-4780
▁listen	-4781
▁participate	-4782
▁confidence	-4783
▁bell	-4784
▁jobs	-4785
▁waves	-4786
▁listening	-4787
▁Net	-4788
▁websites	-4789
acing	-4790
▁confident	-4791
gener	-4792
▁Inter	-4793
▁gentle	-4794
▁rot	-4795
▁excited	-4796
▁shopping	-4797
▁float	-4798
▁requests	-4799
▁enable	-4800
▁wall	-4801
▁lifest	-4802
▁ath	-4803
▁commitment	-4804
▁nutrition	-4805
▁serves	-4806
▁commonly	-4807
▁nuts	-4808
▁shift	-4809
▁[1,	-4810
rew	-4811
▁reached	-4812
▁birds	-4813
▁cloud	-4814
▁vibrant	-4815
▁longest	-4816
▁af	-4817
▁transition	-4818
Exception	-4819
going	-4820
▁pul	-4821
▁official	-4822
▁fulf	-4823
▁alb	-4824
vere	-4825
ida	-4826
iate	-4827
▁universe	-4828
ny	-4829
▁Its	-4830
ibly	-4831
▁Japanese	-4832
▁national	-4833
sol	-4834
▁magn	-4835
▁actual	-4836
aked	-4837
▁conven	-4838
▁claim	-4839
vis	-4840
▁rows	-4841
▁parameters	-4842
amm	-4843
▁North	-4844
main	-4845
▁morning	-4846
▁recommended	-4847
▁significance	-4848
▁occas	-4849
abet	-4850
▁filling	-4851
▁cleaning	-4852
ech	-4853
▁qual	-4854
▁escape	-4855
▁Initialize	-4856
ender	-4857
▁observ	-4858
javascript	-4859
uilding	-4860
erts	-4861
▁James	-4862
itage	-4863
▁capture	-4864
json	-4865
la	-4866
▁cher	-4867
illet	-4868
▁summer	-4869
▁thread	-4870
etime	-4871
▁battle	-4872
▁engaged	-4873
▁pap	-4874
ushed	-4875
▁artist	-4876
▁minimum	-4877
▁Sophie	-4878
▁almost	-4879
▁module	-4880
▁entertain	-4881
▁traditions	-4882
▁},	-4883
▁crow	-4884
aze	-4885
▁micro	-4886
met	-4887
inf	-4888
▁sched	-4889
agraph	-4890
IM	-4891
eline	-4892
▁star	-4893
▁logic	-4894
ama	-4895
▁package	-4896
▁wealth	-4897
▁directory	-4898
▁Count	-4899
▁participants	-4900
umes	-4901
▁China	-4902
iny	-4903
▁Cook	-4904
inating	-4905
▁alive	-4906
де	-4907
▁pricing	-4908
▁ep	-4909
▁monitoring	-4910
▁Indian	-4911
▁worksh	-4912
▁Dav	-4913
▁pollution	-4914
▁sometimes	-4915
▁cit	-4916
▁nearby	-4917
Hello	-4918
ael	-4919
▁send	-4920
▁moist	-4921
▁surpr	-4922
inese	-4923
▁connections	-4924
Date	-4925
fered	-4926
▁fost	-4927
▁transfer	-4928
▁contem	-4929
off	-4930
▁Rob	-4931
▁mixed	-4932
▁rh	-4933
▁Sl	-4934
▁beach	-4935
▁accordingly	-4936
▁beliefs	-4937
ipp	-4938
apping	-4939
chool	-4940
▁breaks	-4941
▁factor	-4942
Comp	-4943
▁offered	-4944
▁у	-4945
▁noise	-4946
▁Plan	-4947
▁Moreover	-4948
▁Ens	-4949
▁motivated	-4950
▁spiritual	-4951
ceed	-4952
▁skill	-4953
▁compar	-4954
▁bike	-4955
▁Provide	-4956
aming	-4957
▁pand	-4958
acter	-4959
▁resol	-4960
iones	-4961
ocation	-4962
▁prints	-4963
60	-4964
▁vehicles	-4965
▁2)	-4966
▁combine	-4967
ла	-4968
ait	-4969
making	-4970
▁medic	-4971
world	-4972
▁aims	-4973
▁restaurants	-4974
▁surrounding	-4975
▁lived	-4976
rt	-4977
▁construct	-4978
url	-4979
igen	-4980
related	-4981
▁father	-4982
▁watching	-4983
itam	-4984
▁disapp	-4985
amon	-4986
▁Look	-4987
▁college	-4988
EN	-4989
▁influencers	-4990
▁dangerous	-4991
▁roasted	-4992
AN	-4993
▁goods	-4994
Char	-4995
▁encountered	-4996
iors	-4997
▁Main	-4998
▁suff	-4999
▁description	-5000
▁expectations	-5001
▁aw	-5002
ensions	-5003
▁carro	-5004
getElement	-5005
▁fasc	-5006
▁destination	-5007
▁State	-5008
▁tender	-5009
▁wrong	-5010
▁thr	-5011
▁validate	-5012
bit	-5013
▁neighbor	-5014
▁looks	-5015
▁spr	-5016
▁readers	-5017
▁forg	-5018
▁Introduction	-5019
▁farmers	-5020
▁advantage	-5021
ми	-5022
berries	-5023
▁master	-5024
izza	-5025
▁Str	-5026
js	-5027
▁stretch	-5028
▁7,	-5029
▁spend	-5030
▁prepare	-5031
da	-5032
antic	-5033
▁skillet	-5034
▁alph	-5035
"]	-5036
lay	-5037
▁spin	-5038
▁label	-5039
▁wel	-5040
▁tut	-5041
▁intervent	-5042
▁Pres	-5043
([	-5044
lier	-5045
phone	-5046
▁standing	-5047
▁leader	-5048
▁matches	-5049
▁letters	-5050
▁shapes	-5051
▁storm	-5052
▁yogurt	-5053
▁recipes	-5054
▁exact	-5055
product	-5056
▁Determ	-5057
iant	-5058
▁leadership	-5059
do	-5060
▁advice	-5061
▁widely	-5062
▁seeking	-5063
▁reput	-5064
▁Cut	-5065
▁god	-5066
AD	-5067
▁club	-5068
▁rent	-5069
11	-5070
▁Ang	-5071
▁informed	-5072
width	-5073
▁bul	-5074
▁Impro	-5075
▁passage	-5076
▁Water	-5077
▁magical	-5078
anch	-5079
rest	-5080
ams	-5081
▁relaxation	-5082
▁Open	-5083
▁highlights	-5084
45	-5085
▁rules	-5086
▁dynamic	-5087
▁stored	-5088
▁talent	-5089
▁automation	-5090
▁tension	-5091
▁interesting	-5092
▁mush	-5093
found	-5094
▁interview	-5095
azon	-5096
ternal	-5097
▁Energy	-5098
▁den	-5099
bed	-5100
etch	-5101
▁ease	-5102
▁cry	-5103
antha	-5104
▁followers	-5105
▁scientific	-5106
▁roles	-5107
▁Har	-5108
▁Before	-5109
onent	-5110
erce	-5111
▁counter	-5112
▁Day	-5113
▁homes	-5114
▁6,	-5115
▁perspective	-5116
arsh	-5117
osure	-5118
ansion	-5119
rating	-5120
▁broth	-5121
▁Jane	-5122
▁achieving	-5123
▁Ac	-5124
aul	-5125
iking	-5126
▁adult	-5127
▁dreams	-5128
pes	-5129
▁spending	-5130
▁conversation	-5131
▁divid	-5132
▁199	-5133
kes	-5134
▁choices	-5135
airs	-5136
▁correctly	-5137
да	-5138
▁kept	-5139
itement	-5140
▁Exper	-5141
▁flu	-5142
▁TO	-5143
▁sitting	-5144
▁refers	-5145
▁Samantha	-5146
▁Marketing	-5147
▁cas	-5148
▁Educ	-5149
▁24	-5150
▁dried	-5151
▁rating	-5152
ppercase	-5153
▁missing	-5154
▁exciting	-5155
________________	-5156
▁beginning	-5157
▁completed	-5158
▁Air	-5159
bing	-5160
▁excess	-5161
▁direction	-5162
▁selection	-5163
▁edge	-5164
▁America	-5165
AM	-5166
▁Lear	-5167
emy	-5168
▁tag	-5169
We	-5170
▁['	-5171
▁jud	-5172
▁digit	-5173
▁fabric	-5174
▁birth	-5175
▁occurren	-5176
ira	-5177
▁Fibonacci	-5178
▁URL	-5179
▁mas	-5180
mp	-5181
▁calculates	-5182
mental	-5183
oding	-5184
▁established	-5185
▁sector	-5186
map	-5187
▁focusing	-5188
zzle	-5189
▁distribution	-5190
asts	-5191
▁ple	-5192
+1	-5193
▁hes	-5194
ве	-5195
▁inspired	-5196
▁quiet	-5197
▁Hand	-5198
▁practicing	-5199
pathy	-5200
www	-5201
▁increasingly	-5202
fil	-5203
rial	-5204
Sum	-5205
▁rom	-5206
▁Time	-5207
▁interactions	-5208
▁availability	-5209
rip	-5210
▁stick	-5211
rees	-5212
trans	-5213
▁User	-5214
▁equation	-5215
▁reduction	-5216
pack	-5217
amples	-5218
with	-5219
▁Design	-5220
▁vinegar	-5221
▁202	-5222
▁Whe	-5223
▁onions	-5224
weight	-5225
▁cake	-5226
▁Explanation	-5227
▁determination	-5228
▁inner	-5229
▁smell	-5230
▁dedicated	-5231
odies	-5232
▁(2	-5233
▁Function	-5234
True	-5235
▁cere	-5236
▁kitchen	-5237
ivot	-5238
▁dura	-5239
osystem	-5240
▁competitive	-5241
rade	-5242
ords	-5243
▁Sort	-5244
▁scul	-5245
▁padd	-5246
can	-5247
▁songs	-5248
▁forget	-5249
▁metal	-5250
ffective	-5251
▁temp	-5252
▁expenses	-5253
▁colorful	-5254
▁guests	-5255
▁мо	-5256
▁African	-5257
▁excitement	-5258
join	-5259
▁sculpt	-5260
▁sor	-5261
▁keywords	-5262
▁prepared	-5263
▁survive	-5264
SE	-5265
insert	-5266
▁forever	-5267
▁holding	-5268
backs	-5269
▁corresponding	-5270
▁tall	-5271
▁central	-5272
▁Good	-5273
umns	-5274
lessly	-5275
▁struggle	-5276
▁essay	-5277
▁sac	-5278
'.	-5279
▁8,	-5280
▁odd	-5281
▁dataset	-5282
▁chemical	-5283
▁reversed	-5284
▁Bus	-5285
▁floor	-5286
5)	-5287
▁ч	-5288
▁Bre	-5289
▁demonstrate	-5290
▁lifestyle	-5291
▁golden	-5292
▁notes	-5293
▁habits	-5294
▁accomplish	-5295
▁Mich	-5296
▁internet	-5297
▁agriculture	-5298
▁Amazon	-5299
▁controll	-5300
▁unex	-5301
▁Twitter	-5302
▁despite	-5303
ental	-5304
▁exchange	-5305
▁validation	-5306
▁phrase	-5307
▁protection	-5308
80	-5309
orus	-5310
▁constantly	-5311
inking	-5312
▁cars	-5313
▁jump	-5314
▁vision	-5315
ae	-5316
bsp	-5317
enty	-5318
▁sizes	-5319
▁appealing	-5320
ById	-5321
▁Read	-5322
▁ongoing	-5323
▁decimal	-5324
▁math	-5325
▁evaluate	-5326
▁brands	-5327
▁taught	-5328
▁bag	-5329
II	-5330
▁targeted	-5331
anish	-5332
aby	-5333
▁Great	-5334
▁Employ	-5335
▁stock	-5336
active	-5337
▁ecosystem	-5338
▁obtain	-5339
▁percent	-5340
▁researc	-5341
unting	-5342
▁inspire	-5343
oles	-5344
gon	-5345
osen	-5346
▁potentially	-5347
▁reson	-5348
▁immediately	-5349
icking	-5350
▁caught	-5351
▁Chinese	-5352
▁authentication	-5353
▁shall	-5354
ido	-5355
gers	-5356
▁Russ	-5357
(),	-5358
▁vital	-5359
▁comments	-5360
▁args	-5361
▁pasta	-5362
inkle	-5363
▁tend	-5364
▁race	-5365
ague	-5366
▁acqu	-5367
▁environments	-5368
ints	-5369
▁weap	-5370
▁luck	-5371
▁rights	-5372
▁checking	-5373
ned	-5374
▁Play	-5375
▁rust	-5376
▁greenhouse	-5377
▁supporting	-5378
inked	-5379
script	-5380
ificial	-5381
ED	-5382
wide	-5383
▁sight	-5384
▁pairs	-5385
▁locations	-5386
▁tablespoons	-5387
▁facil	-5388
▁más	-5389
▁synt	-5390
▁seems	-5391
▁belong	-5392
leg	-5393
▁crust	-5394
agers	-5395
aint	-5396
же	-5397
▁fold	-5398
clusive	-5399
▁Ensure	-5400
Re	-5401
▁criteria	-5402
def	-5403
▁underg	-5404
▁Sec	-5405
▁lux	-5406
iox	-5407
▁--	-5408
▁switch	-5409
LL	-5410
▁Both	-5411
▁tang	-5412
▁wit	-5413
ij	-5414
▁below	-5415
py	-5416
▁owners	-5417
ulated	-5418
▁Green	-5419
▁paint	-5420
tes	-5421
istration	-5422
▁generation	-5423
▁extend	-5424
▁Practice	-5425
▁Mark	-5426
▁cert	-5427
▁residents	-5428
iture	-5429
TP	-5430
▁gro	-5431
▁sample	-5432
holders	-5433
ommod	-5434
cre	-5435
Of	-5436
▁consult	-5437
▁struggled	-5438
itutions	-5439
iller	-5440
iences	-5441
▁impl	-5442
▁tbsp	-5443
▁interp	-5444
image	-5445
▁flat	-5446
▁join	-5447
▁waiting	-5448
▁ign	-5449
▁creamy	-5450
▁noticed	-5451
▁border	-5452
▁heritage	-5453
▁Apple	-5454
▁almond	-5455
▁fiber	-5456
▁capacity	-5457
▁prepar	-5458
▁mountain	-5459
▁king	-5460
lear	-5461
ния	-5462
▁sudd	-5463
aren	-5464
▁drink	-5465
▁heavily	-5466
kay	-5467
▁narr	-5468
9.	-5469
▁shop	-5470
code	-5471
▁Math	-5472
ila	-5473
Form	-5474
▁plot	-5475
▁digits	-5476
pid	-5477
inci	-5478
▁minced	-5479
▁glow	-5480
otes	-5481
▁Determine	-5482
▁contributed	-5483
▁stake	-5484
▁templ	-5485
▁British	-5486
▁merge	-5487
▁translation	-5488
omb	-5489
▁dressing	-5490
matrix	-5491
▁Mary	-5492
▁stability	-5493
▁wed	-5494
asting	-5495
▁opin	-5496
▁brush	-5497
▁DAY	-5498
level	-5499
▁memor	-5500
plicates	-5501
ashing	-5502
▁resistance	-5503
▁launch	-5504
▁swe	-5505
▁King	-5506
▁festival	-5507
33	-5508
▁1000	-5509
▁ValueError	-5510
kin	-5511
▁displ	-5512
▁divisible	-5513
https	-5514
▁manufacturing	-5515
▁sharp	-5516
ци	-5517
wood	-5518
▁investing	-5519
▁objectives	-5520
▁lists	-5521
▁phrases	-5522
▁descript	-5523
getElementById	-5524
ended	-5525
▁hotel	-5526
▁clar	-5527
▁dess	-5528
▁э	-5529
Type	-5530
▁Chapter	-5531
car	-5532
▁analyzing	-5533
▁prop	-5534
▁trou	-5535
▁facing	-5536
▁conducted	-5537
▁"""	-5538
▁feels	-5539
▁sour	-5540
▁Roman	-5541
▁Pri	-5542
▁session	-5543
▁continuous	-5544
▁Personal	-5545
▁inspiration	-5546
▁merg	-5547
▁bad	-5548
▁trig	-5549
aled	-5550
itar	-5551
alian	-5552
▁default	-5553
strings	-5554
▁Encourage	-5555
zen	-5556
▁chatb	-5557
Sub	-5558
chain	-5559
ру	-5560
▁integration	-5561
encing	-5562
▁concepts	-5563
▁paragraph	-5564
▁Black	-5565
▁"$	-5566
▁focuses	-5567
File	-5568
agonist	-5569
▁argument	-5570
craft	-5571
▁flexibility	-5572
▁illust	-5573
working	-5574
uge	-5575
▁surrounded	-5576
▁researchers	-5577
▁Min	-5578
▁markets	-5579
▁revolution	-5580
nesses	-5581
▁managed	-5582
this	-5583
lim	-5584
▁https	-5585
▁Print	-5586
▁unexpected	-5587
▁Perform	-5588
mal	-5589
aper	-5590
▁legal	-5591
▁corn	-5592
raid	-5593
▁solid	-5594
iliar	-5595
ifies	-5596
▁God	-5597
▁avocado	-5598
és	-5599
▁normal	-5600
▁consumers	-5601
▁frequently	-5602
▁selected	-5603
▁sell	-5604
▁happened	-5605
▁grav	-5606
hern	-5607
▁Similar	-5608
ET	-5609
emade	-5610
▁feat	-5611
▁Organ	-5612
▁$1	-5613
items	-5614
▁darkness	-5615
▁JSON	-5616
pow	-5617
▁conv	-5618
▁category	-5619
▁java	-5620
▁definitely	-5621
0000	-5622
▁knowing	-5623
aks	-5624
▁conservation	-5625
▁produced	-5626
▁museum	-5627
▁TV	-5628
message	-5629
▁hour	-5630
▁labor	-5631
uts	-5632
▁cycle	-5633
▁musical	-5634
rive	-5635
pace	-5636
instance	-5637
iday	-5638
▁engineering	-5639
▁developers	-5640
▁performances	-5641
5.	-5642
▁etc	-5643
++;	-5644
dep	-5645
▁intense	-5646
▁friendly	-5647
▁da	-5648
по	-5649
▁Company	-5650
▁fill	-5651
▁BY	-5652
▁six	-5653
▁supports	-5654
ruct	-5655
▁ads	-5656
▁literature	-5657
eras	-5658
▁athlet	-5659
▁finish	-5660
▁European	-5661
▁furn	-5662
▁wait	-5663
▁covered	-5664
▁published	-5665
...	-5666
▁identifying	-5667
▁scent	-5668
▁organized	-5669
▁\	-5670
▁straight	-5671
▁Mex	-5672
▁sorting	-5673
▁grid	-5674
▁defined	-5675
ighter	-5676
▁wire	-5677
orough	-5678
▁meant	-5679
lst	-5680
▁refresh	-5681
▁journal	-5682
achel	-5683
standing	-5684
lies	-5685
▁truth	-5686
innamon	-5687
mented	-5688
▁Luc	-5689
ounds	-5690
▁1]	-5691
▁Dec	-5692
▁tough	-5693
▁flexible	-5694
▁bot	-5695
uddenly	-5696
▁asking	-5697
▁advancements	-5698
▁13	-5699
ket	-5700
▁pivot	-5701
▁reasons	-5702
▁sad	-5703
▁Iter	-5704
▁emotion	-5705
▁admin	-5706
▁meaningful	-5707
una	-5708
efficient	-5709
▁tu	-5710
▁messaging	-5711
мо	-5712
org	-5713
erate	-5714
▁soul	-5715
▁rely	-5716
▁incredible	-5717
▁carrots	-5718
▁recursive	-5719
▁mur	-5720
▁pizza	-5721
verty	-5722
▁tomato	-5723
▁transp	-5724
▁scale	-5725
▁emerged	-5726
▁Italian	-5727
▁inh	-5728
▁audio	-5729
▁accommod	-5730
▁pour	-5731
▁beg	-5732
▁ends	-5733
▁ID	-5734
ander	-5735
▁modify	-5736
▁afraid	-5737
Line	-5738
▁Regular	-5739
▁formula	-5740
anges	-5741
▁credit	-5742
▁Sol	-5743
▁exposure	-5744
Sort	-5745
atus	-5746
▁yellow	-5747
▁protagonist	-5748
▁poverty	-5749
▁aid	-5750
ously	-5751
▁winter	-5752
4.	-5753
▁arms	-5754
▁reward	-5755
fully	-5756
roud	-5757
▁Suddenly	-5758
▁generally	-5759
java	-5760
▁fans	-5761
▁vir	-5762
long	-5763
▁cab	-5764
▁jew	-5765
▁alt	-5766
▁paid	-5767
▁told	-5768
▁spicy	-5769
▁CSS	-5770
▁album	-5771
▁capable	-5772
▁goes	-5773
▁har	-5774
▁contemporary	-5775
▁poor	-5776
▁addiction	-5777
▁recovery	-5778
prene	-5779
▁gives	-5780
▁empathy	-5781
inoa	-5782
▁International	-5783
dat	-5784
ando	-5785
agues	-5786
ether	-5787
▁disrupt	-5788
▁reports	-5789
▁simpl	-5790
rets	-5791
sorted	-5792
▁evenly	-5793
▁streets	-5794
▁hash	-5795
▁Inf	-5796
base	-5797
OT	-5798
▁happiness	-5799
▁reminder	-5800
ographic	-5801
▁Although	-5802
▁disorders	-5803
▁capabilities	-5804
▁Product	-5805
page	-5806
▁speaker	-5807
▁Austral	-5808
▁ра	-5809
▁bub	-5810
▁(!	-5811
connect	-5812
lar	-5813
▁Lena	-5814
ias	-5815
▁kids	-5816
▁swim	-5817
▁moved	-5818
▁expensive	-5819
chol	-5820
▁providers	-5821
rec	-5822
▁muscle	-5823
▁vegetarian	-5824
range	-5825
▁Pat	-5826
▁rural	-5827
output	-5828
▁approx	-5829
▁($	-5830
eric	-5831
(1,	-5832
▁univers	-5833
aten	-5834
▁nested	-5835
▁Spanish	-5836
▁copy	-5837
View	-5838
▁packaging	-5839
▁Tod	-5840
▁David	-5841
▁talking	-5842
▁enables	-5843
▁absor	-5844
reme	-5845
▁barri	-5846
formation	-5847
▁conversion	-5848
▁generations	-5849
▁Tur	-5850
▁river	-5851
eger	-5852
▁retrieve	-5853
▁chili	-5854
▁lights	-5855
custom	-5856
▁currently	-5857
▁core	-5858
▁adm	-5859
▁gluten	-5860
▁nutrients	-5861
▁infl	-5862
▁про	-5863
▁tact	-5864
▁temperatures	-5865
▁Pot	-5866
▁achieved	-5867
▁pros	-5868
▁factorial	-5869
▁libraries	-5870
valu	-5871
▁Port	-5872
▁opened	-5873
▁deploy	-5874
▁40	-5875
▁mitigate	-5876
8.	-5877
▁Next	-5878
▁vitam	-5879
example	-5880
▁chronic	-5881
.)	-5882
},	-5883
▁Salt	-5884
▁rhyth	-5885
▁please	-5886
iance	-5887
nums	-5888
ви	-5889
grad	-5890
▁responsibility	-5891
▁encourages	-5892
▁layers	-5893
▁operator	-5894
▁forces	-5895
▁chart	-5896
▁committed	-5897
▁contributions	-5898
hus	-5899
▁sunlight	-5900
▁incentives	-5901
▁mig	-5902
▁compl	-5903
▁displays	-5904
bar	-5905
▁possess	-5906
▁police	-5907
tml	-5908
first	-5909
▁searching	-5910
▁immersive	-5911
▁inventory	-5912
▁translated	-5913
ogether	-5914
▁workshops	-5915
▁(`	-5916
▁nerv	-5917
▁concent	-5918
▁fo	-5919
▁Ult	-5920
Res	-5921
ette	-5922
▁bond	-5923
▁department	-5924
estern	-5925
ossible	-5926
▁handles	-5927
▁scr	-5928
▁reader	-5929
▁descending	-5930
gypt	-5931
▁containing	-5932
aker	-5933
oop	-5934
▁finds	-5935
▁Wind	-5936
▁Business	-5937
▁released	-5938
roid	-5939
uma	-5940
▁San	-5941
▁newfound	-5942
estion	-5943
▁mentions	-5944
▁opening	-5945
▁visited	-5946
azz	-5947
Sc	-5948
unk	-5949
▁Cr	-5950
▁rein	-5951
▁hero	-5952
▁dial	-5953
Text	-5954
▁scre	-5955
▁deeply	-5956
▁Convert	-5957
▁crops	-5958
check	-5959
▁drop	-5960
▁School	-5961
▁survival	-5962
▁conflicts	-5963
▁chest	-5964
▁networks	-5965
fe	-5966
▁ride	-5967
▁mole	-5968
▁Follow	-5969
▁showed	-5970
sv	-5971
▁zero	-5972
▁printing	-5973
▁mechanisms	-5974
▁performing	-5975
▁considering	-5976
▁ce	-5977
Man	-5978
▁footprint	-5979
▁proud	-5980
▁Analyze	-5981
▁Iterate	-5982
▁bank	-5983
▁ghost	-5984
▁mixing	-5985
▁apple	-5986
ita	-5987
▁chips	-5988
▁cultiv	-5989
▁appearance	-5990
otic	-5991
▁plenty	-5992
▁freed	-5993
▁prob	-5994
▁sem	-5995
Se	-5996
ressed	-5997
▁recognize	-5998
▁Ins	-5999
onial	-6000
▁adoption	-6001
▁manufacture	-6002
▁Africa	-6003
veys	-6004
▁sheet	-6005
▁notable	-6006
▁records	-6007
ola	-6008
inch	-6009
cknow	-6010
▁rapid	-6011
men	-6012
▁experts	-6013
▁internal	-6014
state	-6015
zer	-6016
▁advoc	-6017
▁quite	-6018
▁shr	-6019
▁ine	-6020
writ	-6021
plications	-6022
▁doub	-6023
vas	-6024
▁coast	-6025
ras	-6026
▁justice	-6027
▁firm	-6028
▁standards	-6029
▁strengths	-6030
nc	-6031
▁passing	-6032
▁Dep	-6033
▁guidelines	-6034
ados	-6035
▁со	-6036
istant	-6037
inciples	-6038
▁Egypt	-6039
▁teachers	-6040
▁elim	-6041
pecific	-6042
▁amazing	-6043
andom	-6044
▁bon	-6045
▁ceremon	-6046
ryption	-6047
▁realize	-6048
▁photo	-6049
▁accounts	-6050
▁rewards	-6051
▁candid	-6052
den	-6053
wers	-6054
▁doll	-6055
▁reduces	-6056
▁refrig	-6057
▁download	-6058
▁furniture	-6059
▁gradually	-6060
▁personality	-6061
());	-6062
▁older	-6063
income	-6064
▁representation	-6065
▁arm	-6066
▁causes	-6067
▁earlier	-6068
▁clothes	-6069
▁json	-6070
rab	-6071
eli	-6072
tem	-6073
▁embrace	-6074
▁notice	-6075
overn	-6076
▁minimize	-6077
▁coaching	-6078
▁thorough	-6079
▁arts	-6080
▁former	-6081
><	-6082
rup	-6083
▁indicating	-6084
▁inputs	-6085
▁centuries	-6086
pred	-6087
orrect	-6088
▁functional	-6089
FF	-6090
▁60	-6091
▁articles	-6092
▁depends	-6093
▁corner	-6094
▁lessons	-6095
▁massive	-6096
▁tourism	-6097
▁chosen	-6098
▁Michael	-6099
▁facilities	-6100
▁grown	-6101
▁glad	-6102
▁keys	-6103
▁supplies	-6104
▁attacks	-6105
▁peaceful	-6106
▁neighborhood	-6107
▁soy	-6108
▁proced	-6109
▁Sur	-6110
▁institutions	-6111
▁partnerships	-6112
apple	-6113
ouble	-6114
ercial	-6115
▁featuring	-6116
▁за	-6117
▁parties	-6118
▁motivation	-6119
▁foreign	-6120
content	-6121
▁Muse	-6122
▁VR	-6123
▁к	-6124
▁pump	-6125
▁stood	-6126
▁vanilla	-6127
▁workplace	-6128
▁Bro	-6129
▁appreciation	-6130
▁html	-6131
▁myth	-6132
▁guided	-6133
▁optimization	-6134
▁Even	-6135
▁speaking	-6136
▁Post	-6137
▁stakeholders	-6138
ancy	-6139
▁choosing	-6140
▁minimal	-6141
▁Bo	-6142
▁profound	-6143
▁mode	-6144
▁relief	-6145
▁movies	-6146
▁trained	-6147
exp	-6148
erving	-6149
▁Users	-6150
▁pandemic	-6151
▁reputation	-6152
std	-6153
▁behaviors	-6154
ulating	-6155
▁columns	-6156
▁rose	-6157
▁muscles	-6158
▁AR	-6159
▁fle	-6160
▁Incorpor	-6161
["	-6162
▁Focus	-6163
▁parameter	-6164
ohol	-6165
▁6:	-6166
▁tick	-6167
7.	-6168
▁cinnamon	-6169
▁breakfast	-6170
▁liqu	-6171
▁?	-6172
▁orange	-6173
▁wellness	-6174
under	-6175
▁warn	-6176
▁performed	-6177
push	-6178
▁principles	-6179
alle	-6180
▁diagn	-6181
scale	-6182
▁ut	-6183
▁10,	-6184
field	-6185
▁serious	-6186
lin	-6187
▁adop	-6188
-9	-6189
▁covers	-6190
▁watched	-6191
▁fears	-6192
.”	-6193
cout	-6194
ipl	-6195
▁concern	-6196
ta	-6197
▁seam	-6198
▁profile	-6199
-4	-6200
▁colleagues	-6201
▁frust	-6202
You	-6203
▁teach	-6204
tending	-6205
ctuation	-6206
▁accurately	-6207
▁purs	-6208
pop	-6209
▁Customer	-6210
query	-6211
▁emphasizes	-6212
Im	-6213
mark	-6214
AB	-6215
ille	-6216
▁obj	-6217
▁Collabor	-6218
atur	-6219
rical	-6220
▁nodes	-6221
ние	-6222
▁savings	-6223
fall	-6224
▁ten	-6225
ographics	-6226
▁desire	-6227
nel	-6228
atically	-6229
▁addressing	-6230
▁primarily	-6231
▁mushrooms	-6232
▁People	-6233
▁emails	-6234
▁emergency	-6235
▁periods	-6236
▁recursively	-6237
▁smiled	-6238
▁memorable	-6239
▁introduced	-6240
6.	-6241
ppings	-6242
▁ber	-6243
cohol	-6244
▁versat	-6245
▁podcast	-6246
iche	-6247
▁teaching	-6248
▁installation	-6249
▁flood	-6250
▁worldwide	-6251
▁customize	-6252
▁uppercase	-6253
(2,	-6254
dri	-6255
rypted	-6256
▁housing	-6257
▁dram	-6258
▁compassion	-6259
▁IN	-6260
▁split	-6261
▁exit	-6262
▁sites	-6263
▁enthus	-6264
▁")	-6265
▁cha	-6266
▁acid	-6267
▁myst	-6268
▁margin	-6269
ruction	-6270
▁contract	-6271
▁authentic	-6272
}")	-6273
▁teacher	-6274
▁func	-6275
▁compost	-6276
▁Ir	-6277
▁kindness	-6278
▁dedication	-6279
▁Sk	-6280
mber	-6281
▁shelter	-6282
afe	-6283
ilant	-6284
function	-6285
▁Cur	-6286
▁les	-6287
▁Food	-6288
Case	-6289
angers	-6290
▁extensive	-6291
▁exploration	-6292
CO	-6293
Map	-6294
▁closely	-6295
cher	-6296
real	-6297
UR	-6298
▁token	-6299
dec	-6300
PE	-6301
▁Joh	-6302
▁jewel	-6303
solving	-6304
▁suc	-6305
▁symbols	-6306
▁village	-6307
-1]	-6308
▁crispy	-6309
▁wider	-6310
▁depict	-6311
▁vector	-6312
▁spark	-6313
address	-6314
▁external	-6315
dy	-6316
▁Similarly	-6317
▁substring	-6318
▁impressive	-6319
▁operating	-6320
▁gone	-6321
▁experiencing	-6322
▁shif	-6323
▁vent	-6324
▁grass	-6325
llo	-6326
format	-6327
▁Center	-6328
▁ship	-6329
asters	-6330
▁divide	-6331
▁decrease	-6332
▁bath	-6333
▁gently	-6334
▁William	-6335
▁(201	-6336
▁pure	-6337
▁Media	-6338
▁Jour	-6339
▁describe	-6340
▁studying	-6341
▁supportive	-6342
incip	-6343
▁gained	-6344
▁cater	-6345
▁unw	-6346
anted	-6347
▁audiences	-6348
Length	-6349
▁pursu	-6350
▁indicate	-6351
▁pool	-6352
▁entertainment	-6353
▁placed	-6354
▁Best	-6355
▁Date	-6356
▁padding	-6357
▁enjoyed	-6358
ora	-6359
▁Key	-6360
▁hydro	-6361
▁inse	-6362
ishes	-6363
▁described	-6364
▁tofu	-6365
Sh	-6366
▁hiking	-6367
▁delete	-6368
▁ginger	-6369
anks	-6370
hetic	-6371
▁");	-6372
▁queue	-6373
▁об	-6374
▁impacted	-6375
yme	-6376
berry	-6377
▁cart	-6378
▁Work	-6379
▁vegg	-6380
▁trail	-6381
ailed	-6382
▁os	-6383
▁Bra	-6384
▁manner	-6385
itual	-6386
▁Mc	-6387
ди	-6388
▁Store	-6389
▁otherwise	-6390
▁Micro	-6391
▁]	-6392
ato	-6393
train	-6394
▁cards	-6395
▁arguments	-6396
▁mountains	-6397
▁vulnerable	-6398
▁aimed	-6399
▁Mag	-6400
▁Met	-6401
▁signs	-6402
▁raised	-6403
▁stumbled	-6404
abil	-6405
▁Write	-6406
▁enabling	-6407
▁estim	-6408
▁fert	-6409
▁framework	-6410
▁197	-6411
ifier	-6412
▁flavorful	-6413
sl	-6414
▁Pal	-6415
▁smile	-6416
An	-6417
▁identified	-6418
Ins	-6419
▁regarding	-6420
▁Log	-6421
▁layout	-6422
▁poetry	-6423
telling	-6424
▁severe	-6425
▁gran	-6426
▁hospital	-6427
▁fi	-6428
▁lon	-6429
▁Mor	-6430
iforn	-6431
▁iconic	-6432
▁motion	-6433
ais	-6434
▁entreprene	-6435
isis	-6436
▁dates	-6437
▁secrets	-6438
▁Bal	-6439
▁hob	-6440
soft	-6441
▁shot	-6442
▁tailored	-6443
▁generates	-6444
▁limitations	-6445
▁Mal	-6446
▁machines	-6447
▁defe	-6448
▁fine	-6449
ttp	-6450
▁volume	-6451
▁victim	-6452
cel	-6453
▁collaborate	-6454
▁Support	-6455
▁Sum	-6456
▁Last	-6457
reet	-6458
▁une	-6459
▁speech	-6460
OS	-6461
▁Prehe	-6462
▁Ultimately	-6463
▁Today	-6464
▁writer	-6465
This	-6466
▁brief	-6467
▁curs	-6468
▁battery	-6469
asp	-6470
▁impossible	-6471
osit	-6472
Mod	-6473
▁tests	-6474
ры	-6475
▁born	-6476
▁harsh	-6477
idential	-6478
▁Preheat	-6479
php	-6480
child	-6481
▁parse	-6482
▁phil	-6483
▁vend	-6484
▁fier	-6485
▁tutorial	-6486
▁explores	-6487
▁artificial	-6488
▁Sentence	-6489
▁discounts	-6490
▁Ant	-6491
▁acknow	-6492
▁accident	-6493
▁sensitive	-6494
roy	-6495
ifornia	-6496
ма	-6497
▁staying	-6498
▁disaster	-6499
▁Hol	-6500
▁West	-6501
▁legs	-6502
▁Music	-6503
ads	-6504
▁funds	-6505
▁immune	-6506
▁succeed	-6507
▁courage	-6508
▁graphics	-6509
then	-6510
ocking	-6511
▁citiz	-6512
▁skilled	-6513
▁é	-6514
▁pointer	-6515
▁recognized	-6516
▁wave	-6517
▁customized	-6518
IP	-6519
cell	-6520
▁Form	-6521
▁Share	-6522
▁subt	-6523
▁entered	-6524
▁forced	-6525
▁scientists	-6526
▁boundaries	-6527
ync	-6528
▁engines	-6529
▁scenarios	-6530
▁era	-6531
za	-6532
▁11.	-6533
▁spinach	-6534
vision	-6535
▁primes	-6536
▁via	-6537
▁begins	-6538
▁applied	-6539
raction	-6540
▁remained	-6541
▁interpret	-6542
▁homemade	-6543
▁presentation	-6544
peat	-6545
▁arrived	-6546
▁neck	-6547
values	-6548
▁freedom	-6549
▁realistic	-6550
▁nums	-6551
▁approaches	-6552
IS	-6553
▁shadows	-6554
commerce	-6555
▁statements	-6556
rika	-6557
▁Jake	-6558
▁spirits	-6559
▁commercial	-6560
opped	-6561
▁warmth	-6562
lets	-6563
▁voc	-6564
▁lst	-6565
▁electronic	-6566
▁balanced	-6567
▁encounter	-6568
peas	-6569
▁improvements	-6570
▁runs	-6571
▁navigation	-6572
Key	-6573
▁isinstance	-6574
▁alert	-6575
▁picture	-6576
64	-6577
flo	-6578
▁River	-6579
▁Chorus	-6580
▁critic	-6581
poses	-6582
▁reported	-6583
▁Val	-6584
ename	-6585
▁France	-6586
rates	-6587
▁faces	-6588
ervices	-6589
acon	-6590
▁recycling	-6591
hemat	-6592
▁Exp	-6593
▁broken	-6594
▁reflects	-6595
▁visibility	-6596
3)	-6597
uit	-6598
▁Rachel	-6599
▁Emp	-6600
igenous	-6601
▁potato	-6602
▁profit	-6603
▁interaction	-6604
▁stim	-6605
▁duration	-6606
Add	-6607
▁representing	-6608
▁approximately	-6609
Set	-6610
▁fly	-6611
ishing	-6612
▁dinner	-6613
▁SQL	-6614
▁Smith	-6615
▁orders	-6616
▁unit	-6617
▁Museum	-6618
▁Wal	-6619
Un	-6620
▁sacr	-6621
▁promin	-6622
▁mac	-6623
▁unf	-6624
▁House	-6625
▁slices	-6626
00,	-6627
▁pictures	-6628
▁statistics	-6629
▁consistency	-6630
▁Cost	-6631
vol	-6632
CH	-6633
▁baby	-6634
▁mal	-6635
▁lime	-6636
▁arrays	-6637
._	-6638
▁sle	-6639
▁rocks	-6640
▁9,	-6641
▁Array	-6642
▁mathemat	-6643
▁guard	-6644
▁calling	-6645
▁failure	-6646
▁Education	-6647
▁incredibly	-6648
▁II	-6649
▁Ref	-6650
▁Scene	-6651
▁bags	-6652
▁wildlife	-6653
▁surroundings	-6654
▁susp	-6655
elements	-6656
▁wra	-6657
▁purposes	-6658
▁appears	-6659
▁healing	-6660
▁says	-6661
▁sandw	-6662
бо	-6663
plicate	-6664
▁surviv	-6665
▁boolean	-6666
calculate	-6667
Ph	-6668
stract	-6669
▁indicates	-6670
▁Ty	-6671
▁festiv	-6672
▁populations	-6673
▁technological	-6674
▁2020	-6675
▁hasht	-6676
▁adults	-6677
const	-6678
▁drug	-6679
32	-6680
▁Are	-6681
never	-6682
igating	-6683
alph	-6684
▁manager	-6685
aughter	-6686
▁positions	-6687
total	-6688
rol	-6689
▁clin	-6690
▁links	-6691
▁instruments	-6692
▁Rel	-6693
▁constra	-6694
bles	-6695
▁Bel	-6696
andon	-6697
reeze	-6698
▁seasoning	-6699
▁Paris	-6700
▁tours	-6701
ession	-6702
▁Enter	-6703
▁Pay	-6704
▁upl	-6705
eta	-6706
(0,	-6707
▁cub	-6708
▁foss	-6709
▁Govern	-6710
▁fn	-6711
ogue	-6712
▁tower	-6713
▁billion	-6714
ifact	-6715
▁brings	-6716
▁kne	-6717
▁dro	-6718
xygen	-6719
▁refreshing	-6720
▁amounts	-6721
▁isolation	-6722
▁gun	-6723
▁reviewer	-6724
State	-6725
▁iron	-6726
▁unable	-6727
endar	-6728
▁eleg	-6729
▁gall	-6730
▁jewelry	-6731
▁specialized	-6732
unique	-6733
▁miles	-6734
▁shoes	-6735
▁sensors	-6736
▁documents	-6737
▁faith	-6738
▁toppings	-6739
▁healthier	-6740
contain	-6741
▁crop	-6742
ста	-6743
▁Hum	-6744
▁scal	-6745
▁closed	-6746
▁California	-6747
▁grace	-6748
▁degree	-6749
▁breaking	-6750
▁beneficial	-6751
▁cel	-6752
osis	-6753
▁busy	-6754
create	-6755
▁myster	-6756
▁Ren	-6757
▁Spe	-6758
▁turb	-6759
▁exceptional	-6760
John	-6761
▁Group	-6762
band	-6763
eles	-6764
▁laun	-6765
mus	-6766
▁pen	-6767
primes	-6768
▁fragr	-6769
ha	-6770
▁formed	-6771
▁stone	-6772
▁communic	-6773
0)	-6774
▁entity	-6775
▁satisfied	-6776
▁Have	-6777
▁artistic	-6778
▁reaching	-6779
({	-6780
gu	-6781
ante	-6782
remove	-6783
▁uncertain	-6784
User	-6785
▁domain	-6786
What	-6787
▁formation	-6788
▁survey	-6789
▁genre	-6790
75	-6791
▁displayed	-6792
▁German	-6793
▁extreme	-6794
mid	-6795
erved	-6796
2:	-6797
▁submit	-6798
umps	-6799
▁IP	-6800
▁Tips	-6801
▁encouraging	-6802
▁Linked	-6803
anged	-6804
▁computing	-6805
sal	-6806
▁Invest	-6807
from	-6808
▁centers	-6809
▁priority	-6810
▁comparison	-6811
olf	-6812
▁rule	-6813
▁characterized	-6814
faces	-6815
requency	-6816
mentation	-6817
").	-6818
No	-6819
ruit	-6820
▁ritual	-6821
▁cycl	-6822
▁cutting	-6823
▁Comb	-6824
▁exists	-6825
▁Pan	-6826
▁Project	-6827
▁treatments	-6828
▁Mount	-6829
▁decline	-6830
▁cryst	-6831
reement	-6832
▁Technology	-6833
▁Gra	-6834
▁Content	-6835
▁household	-6836
▁exclusive	-6837
▁wrap	-6838
▁snacks	-6839
▁Alice	-6840
▁Object	-6841
▁moisture	-6842
сти	-6843
Color	-6844
▁station	-6845
olk	-6846
afood	-6847
▁upper	-6848
▁consumer	-6849
▁rub	-6850
high	-6851
ão	-6852
▁laws	-6853
▁smallest	-6854
▁Class	-6855
▁Er	-6856
vector	-6857
sequence	-6858
▁arrange	-6859
▁resulted	-6860
▁resolution	-6861
▁Es	-6862
lock	-6863
▁nuc	-6864
direct	-6865
▁Whether	-6866
▁convenient	-6867
▁Union	-6868
▁expressions	-6869
oom	-6870
uing	-6871
▁occasion	-6872
▁removing	-6873
▁Lim	-6874
▁influencer	-6875
▁vehicle	-6876
▁grilled	-6877
▁salary	-6878
izable	-6879
▁circle	-6880
▁syrup	-6881
ounce	-6882
▁Anna	-6883
▁Lila	-6884
▁delicate	-6885
dir	-6886
▁Top	-6887
▁however	-6888
▁gets	-6889
▁fighting	-6890
▁animation	-6891
gent	-6892
night	-6893
▁attach	-6894
uel	-6895
▁Som	-6896
▁radius	-6897
▁Second	-6898
▁Ver	-6899
estic	-6900
▁compos	-6901
▁showing	-6902
erie	-6903
▁hardware	-6904
rows	-6905
▁societ	-6906
▁circum	-6907
▁counts	-6908
▁["	-6909
▁liquid	-6910
▁schedul	-6911
▁wearing	-6912
▁none	-6913
▁Ol	-6914
inates	-6915
▁defin	-6916
▁Review	-6917
▁Learning	-6918
abor	-6919
▁drinks	-6920
={	-6921
opy	-6922
Table	-6923
▁vowels	-6924
▁а	-6925
▁cout	-6926
▁negot	-6927
▁printed	-6928
▁invalid	-6929
ella	-6930
Message	-6931
ondon	-6932
▁Maria	-6933
▁Offer	-6934
▁filtered	-6935
▁calculated	-6936
such	-6937
)):	-6938
▁Pour	-6939
▁ther	-6940
holder	-6941
▁dust	-6942
▁crack	-6943
▁storytelling	-6944
▁Event	-6945
▁shaping	-6946
▁Ext	-6947
▁desk	-6948
▁basil	-6949
▁turning	-6950
▁intensity	-6951
▁blank	-6952
orrow	-6953
▁aside	-6954
▁occurrences	-6955
▁wings	-6956
▁refriger	-6957
(1)	-6958
▁subscrib	-6959
▁increases	-6960
▁grab	-6961
▁promotions	-6962
▁variations	-6963
CD	-6964
▁Mat	-6965
▁crunch	-6966
▁medicine	-6967
aust	-6968
▁cozy	-6969
▁cloves	-6970
▁childhood	-6971
most	-6972
▁fem	-6973
marks	-6974
spe	-6975
▁Sun	-6976
▁cuc	-6977
▁flight	-6978
▁foundation	-6979
▁1):	-6980
▁gender	-6981
▁festivals	-6982
▁nood	-6983
▁repair	-6984
▁Management	-6985
mission	-6986
"))	-6987
uster	-6988
▁oxygen	-6989
mas	-6990
▁si	-6991
Class	-6992
▁Jess	-6993
▁insurance	-6994
▁selecting	-6995
▁astr	-6996
▁panels	-6997
▁contributing	-6998
▁Oh	-6999
▁вы	-7000
▁tast	-7001
score	-7002
▁couns	-7003
▁Replace	-7004
encia	-7005
▁edges	-7006
▁quinoa	-7007
▁concise	-7008
▁agg	-7009
▁thous	-7010
▁occurs	-7011
▁meetings	-7012
ria	-7013
orge	-7014
▁retention	-7015
fix	-7016
alax	-7017
▁calories	-7018
▁enjoying	-7019
▁discovery	-7020
▁aest	-7021
▁terror	-7022
▁artifact	-7023
▁crime	-7024
▁parsley	-7025
▁princip	-7026
▁interventions	-7027
atin	-7028
▁processed	-7029
employ	-7030
▁shred	-7031
▁syn	-7032
person	-7033
ambda	-7034
▁precision	-7035
▁affects	-7036
▁guitar	-7037
▁cos	-7038
▁что	-7039
▁overwhelming	-7040
▁characteristics	-7041
▁Child	-7042
▁sport	-7043
"></	-7044
▁worry	-7045
▁OR	-7046
▁berries	-7047
uy	-7048
▁arom	-7049
▁bene	-7050
▁turns	-7051
powered	-7052
▁bringing	-7053
▁mistakes	-7054
▁dynam	-7055
▁familiar	-7056
▁humor	-7057
▁Generate	-7058
▁classical	-7059
▁Ans	-7060
▁tap	-7061
▁happen	-7062
anes	-7063
ippet	-7064
parse	-7065
Path	-7066
math	-7067
').	-7068
ham	-7069
▁exception	-7070
▁transformed	-7071
▁saved	-7072
▁governments	-7073
▁Select	-7074
▁cookies	-7075
▁ка	-7076
▁abandon	-7077
1:	-7078
▁upcoming	-7079
Object	-7080
▁figures	-7081
▁*/	-7082
▁Hot	-7083
atching	-7084
▁Repeat	-7085
Al	-7086
egin	-7087
▁fuels	-7088
▁frozen	-7089
ME	-7090
▁fossil	-7091
▁moon	-7092
He	-7093
▁comment	-7094
:**	-7095
▁ascending	-7096
omet	-7097
▁cul	-7098
▁puede	-7099
▁flower	-7100
▁labels	-7101
▁Rest	-7102
-19	-7103
▁pursue	-7104
▁theory	-7105
▁ti	-7106
▁Johns	-7107
▁marks	-7108
▁sod	-7109
▁logo	-7110
▁repeat	-7111
▁veggies	-7112
▁competitors	-7113
ensor	-7114
▁bodies	-7115
▁schol	-7116
▁paprika	-7117
arg	-7118
height	-7119
ING	-7120
▁mir	-7121
▁ske	-7122
▁luxury	-7123
position	-7124
▁football	-7125
mut	-7126
▁Sn	-7127
▁{'	-7128
MA	-7129
▁insight	-7130
▁Aud	-7131
click	-7132
▁Community	-7133
▁Creating	-7134
esan	-7135
inant	-7136
▁append	-7137
▁artwork	-7138
olute	-7139
gl	-7140
▁Mr	-7141
amel	-7142
gend	-7143
▁installed	-7144
▁notifications	-7145
ION	-7146
model	-7147
▁injury	-7148
▁Error	-7149
reverse	-7150
▁tactics	-7151
price	-7152
▁neut	-7153
bur	-7154
acer	-7155
tons	-7156
▁responses	-7157
▁sett	-7158
▁dessert	-7159
Item	-7160
▁encouraged	-7161
123	-7162
▁thank	-7163
▁proposed	-7164
ool	-7165
bies	-7166
▁horiz	-7167
gex	-7168
▁crim	-7169
phones	-7170
Product	-7171
▁perspectives	-7172
args	-7173
▁lib	-7174
▁alcohol	-7175
semb	-7176
lands	-7177
cious	-7178
▁Usage	-7179
▁Const	-7180
▁saying	-7181
IG	-7182
Or	-7183
df	-7184
▁bear	-7185
rich	-7186
istry	-7187
▁mouth	-7188
én	-7189
eem	-7190
▁Web	-7191
▁raw	-7192
▁films	-7193
▁filters	-7194
▁Update	-7195
▁celebrate	-7196
ocr	-7197
sqrt	-7198
▁generating	-7199
▁okay	-7200
▁portray	-7201
▁seafood	-7202
grade	-7203
▁emphasis	-7204
▁Jan	-7205
▁rhythm	-7206
чи	-7207
2):	-7208
▁threats	-7209
▁weapons	-7210
▁demonstrates	-7211
▁relatively	-7212
uk	-7213
anguage	-7214
▁basket	-7215
▁treasure	-7216
▁whisk	-7217
alindrome	-7218
At	-7219
▁hurt	-7220
author	-7221
▁Science	-7222
Valid	-7223
▁jack	-7224
▁encryption	-7225
▁Colle	-7226
▁cumin	-7227
▁route	-7228
▁imagery	-7229
rapy	-7230
▁retain	-7231
ilantro	-7232
▁repeated	-7233
▁musicians	-7234
▁Otherwise	-7235
▁viewers	-7236
▁highlighting	-7237
1>	-7238
▁elev	-7239
▁gaming	-7240
▁independent	-7241
err	-7242
oral	-7243
Event	-7244
▁Asia	-7245
▁tire	-7246
area	-7247
▁spo	-7248
▁countless	-7249
▁distractions	-7250
ye	-7251
▁optimal	-7252
Str	-7253
▁popularity	-7254
]+	-7255
▁...	-7256
▁organize	-7257
▁execution	-7258
▁ax	-7259
▁san	-7260
▁incl	-7261
▁chickpeas	-7262
▁tort	-7263
▁couple	-7264
▁textures	-7265
va	-7266
▁SEO	-7267
▁supported	-7268
Le	-7269
no	-7270
▁stands	-7271
▁rect	-7272
▁historic	-7273
▁intended	-7274
▁iteration	-7275
ucch	-7276
▁puts	-7277
▁anticip	-7278
▁clearly	-7279
▁Hel	-7280
▁legacy	-7281
▁Visual	-7282
▁pull	-7283
▁melted	-7284
▁enjoyable	-7285
▁Access	-7286
▁hur	-7287
▁tells	-7288
▁integrate	-7289
▁East	-7290
▁categories	-7291
▁automatically	-7292
▁percentage	-7293
▁tit	-7294
▁Maya	-7295
▁athletes	-7296
utter	-7297
▁beneath	-7298
▁Call	-7299
▁presented	-7300
▁tun	-7301
▁anti	-7302
▁Public	-7303
89	-7304
ingu	-7305
▁CUT	-7306
▁Tre	-7307
▁frequent	-7308
chars	-7309
▁shell	-7310
▁President	-7311
▁triangle	-7312
▁от	-7313
▁tags	-7314
▁Empire	-7315
nic	-7316
ccoli	-7317
▁execute	-7318
▁designers	-7319
▁12.	-7320
lla	-7321
▁virus	-7322
erver	-7323
▁pine	-7324
▁trend	-7325
▁transformation	-7326
iner	-7327
▁hun	-7328
armesan	-7329
▁appoint	-7330
▁agricultural	-7331
▁Vol	-7332
▁previously	-7333
▁Roasted	-7334
empl	-7335
last	-7336
ruption	-7337
▁integrated	-7338
▁breeze	-7339
▁actually	-7340
▁privacy	-7341
▁Resp	-7342
ago	-7343
orter	-7344
Manager	-7345
replace	-7346
zed	-7347
Content	-7348
specific	-7349
▁evolved	-7350
net	-7351
▁beat	-7352
iments	-7353
▁Number	-7354
▁queries	-7355
▁visiting	-7356
▁2;	-7357
▁Evalu	-7358
▁occurred	-7359
▁RO	-7360
arter	-7361
▁bars	-7362
ican	-7363
othe	-7364
stream	-7365
▁pride	-7366
▁strategic	-7367
▁descriptions	-7368
inem	-7369
▁intu	-7370
sw	-7371
▁enhancing	-7372
▁Att	-7373
▁Dear	-7374
anches	-7375
▁marine	-7376
▁Associ	-7377
▁streaming	-7378
UP	-7379
▁Kore	-7380
▁charge	-7381
▁Display	-7382
▁Power	-7383
▁seeing	-7384
▁keyword	-7385
▁В	-7386
orest	-7387
▁soph	-7388
▁au	-7389
▁resc	-7390
▁London	-7391
▁diss	-7392
iances	-7393
▁everyday	-7394
▁Christian	-7395
▁savory	-7396
As	-7397
▁)	-7398
▁Budd	-7399
▁Together	-7400
▁Code	-7401
▁Stay	-7402
▁Contin	-7403
▁advantages	-7404
Qu	-7405
▁incorporated	-7406
utive	-7407
▁citizens	-7408
mo	-7409
TTP	-7410
▁JO	-7411
▁Blue	-7412
▁stable	-7413
▁Clean	-7414
▁detection	-7415
▁Break	-7416
▁fort	-7417
▁Also	-7418
▁partnership	-7419
▁NU	-7420
▁lose	-7421
▁blockchain	-7422
▁combinations	-7423
▁bottle	-7424
▁cooper	-7425
▁Jen	-7426
▁actively	-7427
▁reference	-7428
▁Climate	-7429
▁Students	-7430
▁punctuation	-7431
[1]	-7432
param	-7433
▁scheme	-7434
▁quantum	-7435
izers	-7436
▁Fire	-7437
▁Stand	-7438
до	-7439
digit	-7440
▁trib	-7441
▁Click	-7442
▁shipping	-7443
▁ago	-7444
▁kid	-7445
▁при	-7446
-10	-7447
▁blocks	-7448
▁suggested	-7449
KE	-7450
▁lasting	-7451
acters	-7452
▁grill	-7453
▁romantic	-7454
▁attributes	-7455
▁greens	-7456
▁channel	-7457
▁unknown	-7458
PS	-7459
▁tor	-7460
▁philos	-7461
▁fascinating	-7462
▁export	-7463
▁Smart	-7464
▁confront	-7465
▁rare	-7466
ribute	-7467
▁spons	-7468
40	-7469
▁crisis	-7470
▁responsive	-7471
▁nice	-7472
(&	-7473
anut	-7474
▁underst	-7475
▁initially	-7476
▁mindset	-7477
▁initiative	-7478
adow	-7479
▁recon	-7480
▁Virtual	-7481
pan	-7482
▁Johnson	-7483
rations	-7484
▁extended	-7485
▁";	-7486
▁crew	-7487
target	-7488
▁palindrome	-7489
asy	-7490
▁Elect	-7491
▁persist	-7492
▁selling	-7493
ango	-7494
And	-7495
celer	-7496
hors	-7497
^2	-7498
▁initialize	-7499
yan	-7500
▁Chick	-7501
▁Inside	-7502
predict	-7503
▁prompts	-7504
▁vivid	-7505
▁signal	-7506
ala	-7507
▁corpor	-7508
▁psychological	-7509
▁wants	-7510
Password	-7511
▁difficulty	-7512
drop	-7513
▁Install	-7514
▁lic	-7515
▁daughter	-7516
apes	-7517
▁illness	-7518
DO	-7519
хо	-7520
▁href	-7521
▁compat	-7522
taking	-7523
▁dining	-7524
rency	-7525
▁pound	-7526
username	-7527
▁destroy	-7528
ua	-7529
run	-7530
▁printf	-7531
▁achievements	-7532
prev	-7533
▁Dig	-7534
▁batt	-7535
▁fibonacci	-7536
iento	-7537
ourse	-7538
▁insect	-7539
▁wash	-7540
▁optimized	-7541
▁preference	-7542
.");	-7543
▁scared	-7544
▁toss	-7545
▁lun	-7546
atever	-7547
▁versatile	-7548
effective	-7549
▁Nut	-7550
▁approached	-7551
gment	-7552
▁moves	-7553
▁genres	-7554
▁storing	-7555
▁soldiers	-7556
▁sprinkle	-7557
▁entrepreneurs	-7558
▁revised	-7559
▁containers	-7560
▁Year	-7561
▁visuals	-7562
▁Los	-7563
▁rough	-7564
▁launched	-7565
omen	-7566
▁Real	-7567
▁tweet	-7568
▁py	-7569
▁injuries	-7570
▁promotes	-7571
▁purchasing	-7572
▁wife	-7573
▁Online	-7574
▁investigation	-7575
▁entry	-7576
oup	-7577
column	-7578
ucchini	-7579
▁sensory	-7580
olic	-7581
▁lent	-7582
▁wooden	-7583
▁rat	-7584
▁roots	-7585
сто	-7586
▁simmer	-7587
var	-7588
athered	-7589
▁wet	-7590
front	-7591
▁foster	-7592
▁avoiding	-7593
▁jar	-7594
▁grated	-7595
▁motor	-7596
▁survivors	-7597
-20	-7598
▁tab	-7599
▁fing	-7600
▁limits	-7601
▁England	-7602
▁swap	-7603
▁university	-7604
ных	-7605
bers	-7606
▁walks	-7607
info	-7608
▁friendship	-7609
▁implications	-7610
▁configuration	-7611
api	-7612
ports	-7613
▁Address	-7614
conomic	-7615
▁desert	-7616
▁targets	-7617
▁disasters	-7618
▁Development	-7619
▁fierce	-7620
▁до	-7621
▁pushing	-7622
▁tradition	-7623
▁duplicate	-7624
kend	-7625
▁hal	-7626
▁epis	-7627
▁verb	-7628
▁Mindfulness	-7629
▁terrain	-7630
67	-7631
▁е	-7632
tail	-7633
▁awe	-7634
▁merged	-7635
▁chatbot	-7636
ocket	-7637
▁sending	-7638
▁fundament	-7639
▁Germany	-7640
▁confirm	-7641
erals	-7642
▁chaos	-7643
▁evolution	-7644
▁millions	-7645
▁shoot	-7646
true	-7647
▁fats	-7648
▁targeting	-7649
quare	-7650
▁YouT	-7651
▁Apply	-7652
balance	-7653
▁degrees	-7654
▁drawing	-7655
▁cilantro	-7656
▁rising	-7657
▁DI	-7658
▁198	-7659
▁scan	-7660
▁plate	-7661
▁Agreement	-7662
▁Cam	-7663
▁curr	-7664
itable	-7665
reed	-7666
▁Life	-7667
▁coat	-7668
select	-7669
icit	-7670
▁2-3	-7671
profit	-7672
▁Host	-7673
▁thyme	-7674
▁describes	-7675
Insert	-7676
▁Answer	-7677
Max	-7678
apped	-7679
▁grammar	-7680
▁Sy	-7681
▁Hist	-7682
▁guess	-7683
▁eth	-7684
▁Big	-7685
▁perfectly	-7686
ESS	-7687
imizing	-7688
aver	-7689
▁woods	-7690
▁origin	-7691
▁restrict	-7692
▁reus	-7693
▁Mem	-7694
▁greatest	-7695
▁retailers	-7696
▁explored	-7697
▁nod	-7698
▁fixed	-7699
▁Camp	-7700
▁kingdom	-7701
▁rooms	-7702
▁Que	-7703
▁cloth	-7704
▁featured	-7705
▁Fil	-7706
▁Self	-7707
urpose	-7708
▁fant	-7709
▁Verse	-7710
▁attendees	-7711
eren	-7712
itivity	-7713
iders	-7714
▁combat	-7715
▁composition	-7716
▁adopt	-7717
Company	-7718
▁buying	-7719
ano	-7720
▁endless	-7721
▁Australia	-7722
▁sin	-7723
attern	-7724
▁Found	-7725
▁networking	-7726
fol	-7727
airy	-7728
▁witness	-7729
App	-7730
▁shredded	-7731
▁transactions	-7732
arrow	-7733
▁3)	-7734
▁incorrect	-7735
▁UK	-7736
ells	-7737
▁intel	-7738
▁killer	-7739
▁saving	-7740
▁purchases	-7741
ugged	-7742
itution	-7743
▁reaches	-7744
rc	-7745
▁Div	-7746
▁award	-7747
▁Western	-7748
▁Conf	-7749
▁Strateg	-7750
▁entirely	-7751
Numbers	-7752
▁(19	-7753
otion	-7754
▁annual	-7755
▁routes	-7756
▁dp	-7757
▁Adv	-7758
status	-7759
▁Franc	-7760
▁steel	-7761
▁apples	-7762
▁Building	-7763
▁finished	-7764
▁Yog	-7765
▁Allow	-7766
▁branches	-7767
PT	-7768
ections	-7769
ocated	-7770
▁fer	-7771
▁garn	-7772
▁Season	-7773
▁minute	-7774
▁то	-7775
▁inqu	-7776
▁Journal	-7777
▁mild	-7778
▁Compare	-7779
▁-=	-7780
▁Hold	-7781
▁calming	-7782
15	-7783
▁substitute	-7784
▁outcome	-7785
▁windows	-7786
IL	-7787
Email	-7788
▁Email	-7789
▁durable	-7790
▁photography	-7791
▁wond	-7792
▁mindful	-7793
▁visible	-7794
▁Nav	-7795
▁visualization	-7796
ederal	-7797
▁falling	-7798
hr	-7799
▁blender	-7800
▁investors	-7801
▁paintings	-7802
▁pray	-7803
alysis	-7804
▁deals	-7805
▁fewer	-7806
Size	-7807
▁Cult	-7808
▁Stir	-7809
[:	-7810
lor	-7811
▁pork	-7812
▁Transl	-7813
ario	-7814
▁provider	-7815
▁saut	-7816
Image	-7817
▁toys	-7818
▁surprise	-7819
-15	-7820
emon	-7821
▁snippet	-7822
▁performs	-7823
cuss	-7824
▁shake	-7825
rane	-7826
▁court	-7827
▁alle	-7828
▁paths	-7829
▁teamwork	-7830
span	-7831
▁converted	-7832
config	-7833
suming	-7834
▁White	-7835
▁utiliz	-7836
▁Mil	-7837
uest	-7838
▁Hy	-7839
▁100%	-7840
▁outl	-7841
▁Renew	-7842
▁fought	-7843
▁biggest	-7844
▁existence	-7845
▁Home	-7846
▁lever	-7847
▁employment	-7848
▁wedding	-7849
▁shrimp	-7850
)`	-7851
books	-7852
▁conversations	-7853
object	-7854
▁sauté	-7855
smiling	-7856
through	-7857
▁fishing	-7858
oa	-7859
▁Canada	-7860
▁barriers	-7861
▁scenes	-7862
atures	-7863
▁territ	-7864
▁applying	-7865
▁happening	-7866
▁Middle	-7867
▁noodles	-7868
▁Examples	-7869
ship	-7870
▁plug	-7871
▁prominent	-7872
▁units	-7873
▁Increased	-7874
▁conscious	-7875
▁producing	-7876
▁compelling	-7877
▁Information	-7878
amily	-7879
▁Like	-7880
▁oils	-7881
▁answers	-7882
▁enthusi	-7883
▁overwhelmed	-7884
oded	-7885
▁aqu	-7886
group	-7887
choice	-7888
▁losing	-7889
▁subjects	-7890
со	-7891
▁heap	-7892
filter	-7893
▁preferred	-7894
SV	-7895
UNT	-7896
learn	-7897
▁Cor	-7898
▁DNA	-7899
▁<!	-7900
▁bust	-7901
▁owner	-7902
▁tiss	-7903
▁calendar	-7904
▁attribute	-7905
▁regardless	-7906
▁YouTube	-7907
▁ourselves	-7908
▁appeal	-7909
▁failed	-7910
ona	-7911
▁possibilities	-7912
sk	-7913
▁spl	-7914
▁agreement	-7915
▁thrive	-7916
▁roof	-7917
▁holds	-7918
▁indices	-7919
▁Throughout	-7920
▁Cat	-7921
▁Gold	-7922
▁spoke	-7923
amente	-7924
▁template	-7925
=$	-7926
▁poems	-7927
▁repet	-7928
▁loud	-7929
▁tangy	-7930
-8	-7931
ador	-7932
ommy	-7933
▁Ber	-7934
▁Show	-7935
oub	-7936
▁Grand	-7937
▁shares	-7938
▁holiday	-7939
▁showcasing	-7940
▁End	-7941
▁Environ	-7942
US	-7943
▁Head	-7944
▁harder	-7945
customer	-7946
▁genetic	-7947
▁pra	-7948
▁pink	-7949
▁respectively	-7950
irth	-7951
▁vert	-7952
▁evening	-7953
▁sweetness	-7954
ги	-7955
▁7:	-7956
▁arise	-7957
▁Church	-7958
▁predators	-7959
▁finance	-7960
▁trapped	-7961
▁circumst	-7962
▁terr	-7963
▁writers	-7964
▁zu	-7965
cular	-7966
▁spect	-7967
New	-7968
sing	-7969
▁assert	-7970
0,000	-7971
sized	-7972
▁procedures	-7973
▁80	-7974
▁Reduc	-7975
Integer	-7976
MS	-7977
ya	-7978
▁Sch	-7979
counts	-7980
▁Coc	-7981
▁Love	-7982
▁Mart	-7983
▁slice	-7984
▁attractions	-7985
)]	-7986
udent	-7987
▁dict	-7988
▁smoothie	-7989
▁Microsoft	-7990
▁industrial	-7991
▁manual	-7992
▁destruction	-7993
▁Integ	-7994
▁Altern	-7995
▁lunch	-7996
rian	-7997
▁dogs	-7998
▁Console	-7999
pie	-8000
▁gear	-8001
▁boil	-8002
▁farming	-8003
▁fan	-8004
optional	-8005
▁Isl	-8006
▁paste	-8007
sentence	-8008
VID	-8009
▁Light	-8010
▁overl	-8011
▁Service	-8012
endl	-8013
▁Valid	-8014
▁hearts	-8015
зо	-8016
ocate	-8017
ocument	-8018
▁resolve	-8019
▁thoroughly	-8020
storm	-8021
arding	-8022
▁toy	-8023
▁straw	-8024
▁removed	-8025
▁translate	-8026
req	-8027
▁strengthen	-8028
▁je	-8029
▁mystery	-8030
ady	-8031
▁sear	-8032
500	-8033
▁Mach	-8034
▁radio	-8035
De	-8036
▁ly	-8037
▁accessories	-8038
▁wis	-8039
iov	-8040
acher	-8041
▁rush	-8042
▁nervous	-8043
aws	-8044
▁Exerc	-8045
▁Without	-8046
▁brother	-8047
insp	-8048
▁scholars	-8049
allel	-8050
▁prey	-8051
▁Build	-8052
▁adapted	-8053
▁Cloud	-8054
▁Monitor	-8055
▁Search	-8056
match	-8057
▁yes	-8058
▁lean	-8059
▁recently	-8060
▁optimizing	-8061
ше	-8062
reshold	-8063
▁implies	-8064
eting	-8065
▁spray	-8066
osion	-8067
▁thousands	-8068
ча	-8069
▁Handle	-8070
-0	-8071
▁See	-8072
▁male	-8073
▁angle	-8074
▁constraints	-8075
▁Mo	-8076
points	-8077
▁median	-8078
▁alphabet	-8079
▁respective	-8080
post	-8081
▁inn	-8082
▁hall	-8083
▁stepped	-8084
inse	-8085
everance	-8086
▁overview	-8087
▁vot	-8088
▁intent	-8089
▁preventing	-8090
ald	-8091
▁/*	-8092
Code	-8093
▁Indust	-8094
▁medit	-8095
unately	-8096
bash	-8097
▁honor	-8098
estamp	-8099
▁grade	-8100
▁exhaust	-8101
alsa	-8102
▁scenario	-8103
itesp	-8104
▁Bake	-8105
▁civilization	-8106
rence	-8107
esteem	-8108
▁driver	-8109
▁findings	-8110
▁Jul	-8111
▁sought	-8112
▁swimming	-8113
▁Analytics	-8114
▁stain	-8115
▁Mult	-8116
▁Super	-8117
▁pace	-8118
си	-8119
▁Aug	-8120
▁Image	-8121
uple	-8122
▁NULL	-8123
▁leaf	-8124
▁abstract	-8125
nger	-8126
▁username	-8127
cery	-8128
▁vel	-8129
▁Well	-8130
ammation	-8131
bris	-8132
Phone	-8133
hesis	-8134
▁operate	-8135
▁",	-8136
▁bool	-8137
obile	-8138
▁teen	-8139
▁robust	-8140
▁addresses	-8141
▁narrative	-8142
▁Color	-8143
▁welcome	-8144
▁disorder	-8145
▁depart	-8146
db	-8147
▁Care	-8148
▁Dist	-8149
▁Autom	-8150
▁opinions	-8151
▁conclude	-8152
▁stirring	-8153
▁offerings	-8154
gn	-8155
▁cash	-8156
▁dispos	-8157
▁lesson	-8158
▁Star	-8159
worth	-8160
▁participation	-8161
ду	-8162
▁Ma	-8163
▁curse	-8164
▁weights	-8165
▁equipped	-8166
▁environmentally	-8167
▁Veget	-8168
▁crowd	-8169
▁haz	-8170
▁url	-8171
▁trial	-8172
ouds	-8173
▁emerging	-8174
▁distributed	-8175
edy	-8176
bin	-8177
imeter	-8178
▁collected	-8179
▁informative	-8180
▁chances	-8181
▁attempts	-8182
▁instant	-8183
ferent	-8184
▁understood	-8185
▁Del	-8186
▁LinkedIn	-8187
bn	-8188
draw	-8189
▁Rev	-8190
▁fur	-8191
▁Chall	-8192
ascular	-8193
▁rul	-8194
roph	-8195
▁pip	-8196
monds	-8197
▁tracks	-8198
▁Sing	-8199
▁increment	-8200
▁à	-8201
▁React	-8202
▁flash	-8203
▁classroom	-8204
▁та	-8205
▁attending	-8206
▁inequality	-8207
▁>>	-8208
cules	-8209
▁metap	-8210
></	-8211
event	-8212
▁Material	-8213
▁Ev	-8214
▁Rich	-8215
▁fell	-8216
▁whisp	-8217
▁Russian	-8218
made	-8219
▁makeup	-8220
source	-8221
▁Benef	-8222
▁Training	-8223
]]	-8224
▁;	-8225
▁nor	-8226
▁Prof	-8227
▁coverage	-8228
▁manipulate	-8229
▁${	-8230
▁react	-8231
▁nutrient	-8232
ще	-8233
▁bake	-8234
▁zone	-8235
▁drawn	-8236
natural	-8237
▁Renewable	-8238
▁caut	-8239
Write	-8240
▁Adding	-8241
▁Mac	-8242
eding	-8243
▁JAS	-8244
abel	-8245
Button	-8246
▁Mental	-8247
▁я	-8248
▁preserve	-8249
▁Experiment	-8250
▁cabin	-8251
▁bubble	-8252
▁enabled	-8253
perty	-8254
▁hole	-8255
▁bridge	-8256
▁volunteer	-8257
month	-8258
▁Thom	-8259
-5	-8260
▁banana	-8261
sem	-8262
ping	-8263
▁stead	-8264
▁celebrated	-8265
▁consistently	-8266
▁во	-8267
▁aer	-8268
`)	-8269
▁jazz	-8270
▁gest	-8271
▁cow	-8272
ading	-8273
▁clarity	-8274
▁Improved	-8275
▁keeps	-8276
▁debris	-8277
while	-8278
▁hospit	-8279
▁agencies	-8280
pa	-8281
▁Back	-8282
▁Fresh	-8283
▁tech	-8284
ometric	-8285
▁regulation	-8286
radius	-8287
▁humanity	-8288
▁Gar	-8289
indu	-8290
▁beer	-8291
letter	-8292
luding	-8293
▁productive	-8294
▁Je	-8295
nection	-8296
▁cherry	-8297
▁absolute	-8298
▁evaluation	-8299
▁circumstances	-8300
▁Dif	-8301
▁brew	-8302
▁accessibility	-8303
лю	-8304
appy	-8305
▁whose	-8306
▁Bob	-8307
Result	-8308
▁consists	-8309
ideo	-8310
▁Process	-8311
isa	-8312
▁ST	-8313
arency	-8314
▁introduction	-8315
rust	-8316
▁subtle	-8317
▁replaced	-8318
(2	-8319
chron	-8320
▁narrow	-8321
1[	-8322
▁dow	-8323
▁hier	-8324
zil	-8325
lymp	-8326
▁Heat	-8327
▁George	-8328
▁native	-8329
▁exactly	-8330
ford	-8331
▁hyper	-8332
▁talked	-8333
▁sculpture	-8334
▁mes	-8335
▁affecting	-8336
▁Gard	-8337
▁Connect	-8338
▁protecting	-8339
HP	-8340
▁Po	-8341
▁cope	-8342
▁philosoph	-8343
▁um	-8344
adas	-8345
▁Bay	-8346
▁gardens	-8347
directory	-8348
▁Combine	-8349
▁Bas	-8350
▁fees	-8351
▁broader	-8352
▁putting	-8353
▁showcases	-8354
hist	-8355
▁hus	-8356
submit	-8357
----------------	-8358
lib	-8359
▁HTTP	-8360
orient	-8361
:</	-8362
▁duplicates	-8363
cil	-8364
▁21	-8365
imonial	-8366
ograp	-8367
salary	-8368
Math	-8369
▁shadow	-8370
▁multipl	-8371
▁fetch	-8372
▁College	-8373
your	-8374
▁dialogue	-8375
▁regulate	-8376
▁Fest	-8377
▁tears	-8378
store	-8379
▁Hope	-8380
driven	-8381
▁Brand	-8382
▁hesit	-8383
▁suddenly	-8384
▁для	-8385
▁UN	-8386
▁embra	-8387
▁pit	-8388
▁Estab	-8389
display	-8390
keys	-8391
mes	-8392
▁sen	-8393
ancer	-8394
▁leather	-8395
ipher	-8396
▁ages	-8397
amount	-8398
▁sections	-8399
▁testament	-8400
ción	-8401
isco	-8402
21	-8403
DER	-8404
▁cache	-8405
▁overs	-8406
▁canvas	-8407
My	-8408
tery	-8409
utch	-8410
▁belief	-8411
▁alongside	-8412
▁particles	-8413
▁reflection	-8414
▁niche	-8415
Rec	-8416
obj	-8417
▁melody	-8418
▁robots	-8419
▁stopped	-8420
▁inflammation	-8421
сть	-8422
▁violence	-8423
▁Sil	-8424
ioxid	-8425
▁represented	-8426
plot	-8427
▁Turn	-8428
▁charity	-8429
▁horm	-8430
▁consumed	-8431
▁Phys	-8432
▁wellbeing	-8433
▁lift	-8434
▁tiny	-8435
▁accomp	-8436
▁harmony	-8437
meg	-8438
▁trauma	-8439
-7	-8440
False	-8441
▁intake	-8442
atisf	-8443
▁discipl	-8444
▁expansion	-8445
gi	-8446
response	-8447
▁editing	-8448
▁shoulder	-8449
rape	-8450
▁Dan	-8451
▁certainly	-8452
ку	-8453
csv	-8454
rid	-8455
▁mort	-8456
▁Small	-8457
▁nation	-8458
othermal	-8459
stack	-8460
▁investig	-8461
##	-8462
ba	-8463
▁90	-8464
▁Bur	-8465
enery	-8466
▁linear	-8467
▁dragon	-8468
▁Olymp	-8469
▁robot	-8470
▁portion	-8471
▁nutritional	-8472
▁Lead	-8473
▁pushed	-8474
▁Bring	-8475
▁driven	-8476
▁gathered	-8477
osh	-8478
Page	-8479
▁Cap	-8480
▁Jim	-8481
▁dip	-8482
immer	-8483
▁forests	-8484
▁dietary	-8485
▁reps	-8486
▁EX	-8487
cend	-8488
▁greatly	-8489
▁Security	-8490
▁loops	-8491
▁whatever	-8492
▁seed	-8493
▁Services	-8494
▁gym	-8495
▁Local	-8496
▁lengths	-8497
▁Association	-8498
▁Most	-8499
▁abandoned	-8500
▁estimated	-8501
▁ecosystems	-8502
▁mysterious	-8503
ctic	-8504
▁Input	-8505
▁knife	-8506
▁plt	-8507
orship	-8508
▁mansion	-8509
OST	-8510
token	-8511
aciones	-8512
▁refused	-8513
▁Joe	-8514
inder	-8515
▁backgrounds	-8516
▁learners	-8517
▁bio	-8518
write	-8519
▁JASON	-8520
▁Pop	-8521
▁falls	-8522
letters	-8523
▁hoping	-8524
EF	-8525
▁Bank	-8526
▁locals	-8527
▁traveling	-8528
▁ru	-8529
▁sq	-8530
▁vo	-8531
▁400	-8532
▁Long	-8533
▁parks	-8534
▁introduce	-8535
▁panel	-8536
CA	-8537
inding	-8538
▁pointers	-8539
▁chair	-8540
▁burst	-8541
▁offic	-8542
▁executed	-8543
rea	-8544
ioxide	-8545
acc	-8546
ampions	-8547
▁Digital	-8548
▁reporting	-8549
▁ON	-8550
▁rapidly	-8551
▁proteins	-8552
▁quote	-8553
Com	-8554
cha	-8555
enny	-8556
▁weaknesses	-8557
▁consume	-8558
▁broccoli	-8559
▁quantity	-8560
▁passeng	-8561
power	-8562
▁Studies	-8563
▁whenever	-8564
▁booking	-8565
▁uncover	-8566
▁workouts	-8567
vo	-8568
▁Text	-8569
▁mustard	-8570
bility	-8571
▁Prior	-8572
pending	-8573
▁scores	-8574
▁adjustments	-8575
▁perseverance	-8576
▁Narr	-8577
herent	-8578
▁eager	-8579
▁victory	-8580
▁automated	-8581
fortunately	-8582
▁это	-8583
▁younger	-8584
▁conqu	-8585
▁"))	-8586
▁Sand	-8587
▁coping	-8588
▁revealed	-8589
All	-8590
▁agency	-8591
▁thus	-8592
▁honest	-8593
▁inches	-8594
▁intuitive	-8595
▁dioxide	-8596
istr	-8597
▁recycled	-8598
▁mechanism	-8599
▁П	-8600
ные	-8601
▁caf	-8602
▁norm	-8603
▁enters	-8604
▁neural	-8605
▁initializes	-8606
▁explanation	-8607
itespace	-8608
▁ej	-8609
tw	-8610
▁bite	-8611
▁decide	-8612
▁activation	-8613
OM	-8614
iva	-8615
▁Fit	-8616
▁Grilled	-8617
▁minerals	-8618
▁galax	-8619
heit	-8620
inte	-8621
close	-8622
▁antioxid	-8623
▁appeared	-8624
▁reusable	-8625
ño	-8626
▁scanner	-8627
▁tutorials	-8628
▁television	-8629
▁те	-8630
▁NOT	-8631
▁adequ	-8632
▁dealing	-8633
▁completing	-8634
▁volunteers	-8635
arse	-8636
▁transaction	-8637
]);	-8638
▁branch	-8639
▁divers	-8640
▁acceler	-8641
▁concentration	-8642
▁кото	-8643
▁aligns	-8644
▁clouds	-8645
▁devast	-8646
▁involvement	-8647
▁lock	-8648
▁surveys	-8649
iovascular	-8650
▁cycling	-8651
▁dense	-8652
▁refrigerator	-8653
▁nom	-8654
▁formats	-8655
▁converts	-8656
▁sex	-8657
dim	-8658
mic	-8659
▁Soft	-8660
▁phen	-8661
▁zucchini	-8662
▁debt	-8663
▁assum	-8664
▁spice	-8665
▁shaped	-8666
▁precise	-8667
.*	-8668
ну	-8669
xic	-8670
▁Lastly	-8671
cd	-8672
▁Tem	-8673
▁Native	-8674
▁render	-8675
▁invested	-8676
▁Ask	-8677
▁subarray	-8678
▁Haw	-8679
▁boat	-8680
▁flakes	-8681
▁facilit	-8682
▁comparing	-8683
▁promotion	-8684
нно	-8685
▁shops	-8686
vantages	-8687
▁Communication	-8688
▁Two	-8689
▁nuclear	-8690
▁singing	-8691
▁dash	-8692
▁twisted	-8693
ambi	-8694
Lower	-8695
queue	-8696
▁Target	-8697
▁Book	-8698
▁Lucy	-8699
▁regul	-8700
service	-8701
generate	-8702
▁migration	-8703
▁[[	-8704
▁sudden	-8705
▁distances	-8706
▁physics	-8707
▁segment	-8708
isPrime	-8709
ositive	-8710
ifts	-8711
▁vacc	-8712
▁apartment	-8713
▁therapist	-8714
txt	-8715
▁eld	-8716
▁cleaner	-8717
▁Understanding	-8718
DI	-8719
▁Mexico	-8720
▁carried	-8721
▁molecules	-8722
ют	-8723
'))	-8724
Age	-8725
ounced	-8726
▁prison	-8727
▁Si	-8728
obal	-8729
ulum	-8730
▁tip	-8731
Service	-8732
Requ	-8733
▁evil	-8734
▁whis	-8735
ursive	-8736
▁neuro	-8737
▁computers	-8738
▁deadlines	-8739
▁hip	-8740
▁Util	-8741
parent	-8742
▁occup	-8743
19	-8744
None	-8745
▁wand	-8746
▁baked	-8747
rying	-8748
▁Adjust	-8749
▁Benefits	-8750
▁Italy	-8751
▁valued	-8752
▁Employee	-8753
▁Arab	-8754
orthern	-8755
▁disp	-8756
▁flag	-8757
▁fundra	-8758
▁silver	-8759
▁carrying	-8760
▁division	-8761
▁electrical	-8762
▁phase	-8763
ivo	-8764
▁Rub	-8765
▁salmon	-8766
▁heal	-8767
▁habitats	-8768
▁grocery	-8769
▁sole	-8770
▁investments	-8771
YPE	-8772
och	-8773
unc	-8774
kens	-8775
▁designing	-8776
Sp	-8777
rey	-8778
inity	-8779
▁senses	-8780
ML	-8781
Custom	-8782
▁hotels	-8783
▁possibility	-8784
folio	-8785
▁fulfill	-8786
substring	-8787
▁schedules	-8788
▁continuously	-8789
}"	-8790
ür	-8791
cpp	-8792
▁literary	-8793
largest	-8794
▁recursion	-8795
▁instruction	-8796
elcome	-8797
▁specify	-8798
▁assessment	-8799
▁Acad	-8800
▁maze	-8801
▁abuse	-8802
▁remark	-8803
▁reinforce	-8804
▁sorry	-8805
redient	-8806
▁ending	-8807
▁Include	-8808
▁vendors	-8809
▁ф	-8810
ostream	-8811
▁hearing	-8812
IE	-8813
▁fingers	-8814
ja	-8815
▁kick	-8816
▁Conduct	-8817
▁collaborative	-8818
▁Ble	-8819
▁silence	-8820
edia	-8821
Is	-8822
sql	-8823
▁Sustain	-8824
▁electron	-8825
▁Jes	-8826
▁mask	-8827
▁curry	-8828
▁header	-8829
ugar	-8830
▁Impact	-8831
▁murder	-8832
▁upload	-8833
distance	-8834
▁underlying	-8835
▁packages	-8836
▁forecast	-8837
▁payments	-8838
▁measuring	-8839
▁scar	-8840
zA	-8841
▁spring	-8842
▁satisfying	-8843
▁Vegan	-8844
▁rolling	-8845
▁relaxing	-8846
▁Establish	-8847
▁Scott	-8848
▁vowel	-8849
▁protected	-8850
▁Type	-8851
▁bands	-8852
▁drinking	-8853
▁landing	-8854
▁produces	-8855
▁physically	-8856
abetes	-8857
▁doctor	-8858
▁decreased	-8859
▁Ent	-8860
▁lake	-8861
▁stretching	-8862
igor	-8863
▁1-2	-8864
▁leverage	-8865
▁od	-8866
▁бы	-8867
mente	-8868
▁45	-8869
▁marked	-8870
▁receiving	-8871
ending	-8872
▁structured	-8873
conf	-8874
▁stew	-8875
▁facilitate	-8876
▁rej	-8877
▁solo	-8878
▁trails	-8879
▁turbines	-8880
cr	-8881
▁500	-8882
unted	-8883
Random	-8884
▁colon	-8885
version	-8886
▁delivering	-8887
▁196	-8888
frame	-8889
▁shut	-8890
▁participating	-8891
fo	-8892
лу	-8893
Search	-8894
▁delay	-8895
4)	-8896
liers	-8897
▁circular	-8898
▁inspiring	-8899
▁Run	-8900
▁Writ	-8901
▁defines	-8902
DB	-8903
▁racing	-8904
isible	-8905
issance	-8906
▁scream	-8907
osa	-8908
Comm	-8909
haps	-8910
resent	-8911
▁shades	-8912
▁Christmas	-8913
▁Brazil	-8914
▁religion	-8915
ucks	-8916
▁inch	-8917
▁Narrator	-8918
▁managers	-8919
▁[2,	-8920
▁husband	-8921
cket	-8922
Read	-8923
phony	-8924
ritious	-8925
▁theater	-8926
oses	-8927
▁hummus	-8928
▁stages	-8929
oto	-8930
cessary	-8931
▁ва	-8932
espread	-8933
▁advers	-8934
▁ranking	-8935
▁Hash	-8936
▁stro	-8937
▁Robert	-8938
▁comprom	-8939
▁authority	-8940
▁logistics	-8941
▁Department	-8942
common	-8943
▁fraud	-8944
▁pumpkin	-8945
UM	-8946
SQL	-8947
▁Eth	-8948
second	-8949
▁extension	-8950
tex	-8951
uses	-8952
▁irr	-8953
▁huge	-8954
▁temporary	-8955
yles	-8956
▁helper	-8957
▁Ap	-8958
▁Leg	-8959
▁Central	-8960
▁transparency	-8961
▁interior	-8962
▁preserving	-8963
▁Dri	-8964
▁Lay	-8965
astern	-8966
aped	-8967
▁preparing	-8968
HTML	-8969
▁auto	-8970
▁interviews	-8971
With	-8972
ventional	-8973
▁из	-8974
▁Mad	-8975
▁pose	-8976
▁closing	-8977
tim	-8978
▁culinary	-8979
▁documentation	-8980
▁basis	-8981
HE	-8982
dev	-8983
▁cro	-8984
▁isn	-8985
▁heating	-8986
▁integral	-8987
▁sed	-8988
▁expressed	-8989
▁widespread	-8990
жи	-8991
▁pil	-8992
▁hide	-8993
▁Optimize	-8994
▁Particip	-8995
▁anywhere	-8996
▁vocal	-8997
▁sister	-8998
iostream	-8999
16	-9000
▁commands	-9001
Ad	-9002
▁browser	-9003
▁doors	-9004
▁utilizing	-9005
Log	-9006
nam	-9007
▁Bet	-9008
▁removes	-9009
▁encrypted	-9010
▁indigenous	-9011
eah	-9012
urb	-9013
▁Sen	-9014
otton	-9015
▁controlled	-9016
};	-9017
▁Sout	-9018
▁Cover	-9019
▁maximize	-9020
▁implements	-9021
Field	-9022
▁Team	-9023
▁Bridge	-9024
▁estate	-9025
▁discussions	-9026
brid	-9027
▁sorts	-9028
iano	-9029
▁wish	-9030
▁Timmy	-9031
▁unfor	-9032
▁medication	-9033
▁backup	-9034
▁fridge	-9035
▁Firstly	-9036
names	-9037
▁cock	-9038
▁frag	-9039
▁herb	-9040
▁packed	-9041
▁acknowled	-9042
▁Rom	-9043
▁ench	-9044
▁poly	-9045
▁Table	-9046
▁shade	-9047
▁Direct	-9048
ville	-9049
▁Reduce	-9050
▁sectors	-9051
▁nutritious	-9052
abs	-9053
outs	-9054
▁resist	-9055
▁disappoint	-9056
▁Word	-9057
▁minor	-9058
▁dancing	-9059
▁Paul	-9060
▁Vict	-9061
▁Solar	-9062
▁negatively	-9063
55	-9064
bor	-9065
rote	-9066
▁fellow	-9067
IV	-9068
▁Non	-9069
▁Pet	-9070
▁flying	-9071
vin	-9072
▁Ze	-9073
▁Mia	-9074
▁cyber	-9075
▁lightweight	-9076
▁peers	-9077
▁achievement	-9078
itational	-9079
▁obstacle	-9080
oors	-9081
▁drugs	-9082
▁mer	-9083
ahren	-9084
▁unne	-9085
urrent	-9086
▁timeline	-9087
▁Rome	-9088
▁neutral	-9089
▁patience	-9090
▁Jew	-9091
▁Frank	-9092
▁missed	-9093
ROUP	-9094
well	-9095
wareness	-9096
▁breathtaking	-9097
reach	-9098
▁landmarks	-9099
▁Incorporate	-9100
▁guest	-9101
▁museums	-9102
▁discussion	-9103
▁criminal	-9104
▁parallel	-9105
2;	-9106
AP	-9107
▁Ice	-9108
▁bare	-9109
▁login	-9110
▁giant	-9111
▁emphasize	-9112
▁fundamental	-9113
льно	-9114
connected	-9115
▁expressing	-9116
▁ring	-9117
▁brave	-9118
▁shock	-9119
▁vitamins	-9120
▁Institute	-9121
▁inher	-9122
▁rescue	-9123
▁Bi	-9124
▁Lou	-9125
▁ay	-9126
ente	-9127
▁died	-9128
▁maple	-9129
elihood	-9130
▁beings	-9131
▁objective	-9132
▁convenience	-9133
▁drag	-9134
▁lots	-9135
▁locally	-9136
▁bat	-9137
eping	-9138
▁rental	-9139
exec	-9140
▁elabor	-9141
▁regional	-9142
▁Case	-9143
▁diam	-9144
▁joint	-9145
▁spoon	-9146
▁Nature	-9147
allow	-9148
using	-9149
▁soda	-9150
▁extrem	-9151
▁shoulders	-9152
▁Sales	-9153
ско	-9154
▁positively	-9155
▁buff	-9156
▁decorative	-9157
abul	-9158
▁Pers	-9159
aved	-9160
ooth	-9161
▁lies	-9162
▁ended	-9163
acteria	-9164
▁desper	-9165
▁crystal	-9166
pril	-9167
▁tourists	-9168
CE	-9169
▁q	-9170
▁buttons	-9171
▁passionate	-9172
▁Engine	-9173
▁Exercise	-9174
▁ultimate	-9175
▁volunteering	-9176
img	-9177
▁CR	-9178
▁está	-9179
▁beginners	-9180
YZ	-9181
ota	-9182
▁13.	-9183
▁cucumber	-9184
det	-9185
▁exposed	-9186
▁speakers	-9187
wind	-9188
▁holes	-9189
▁rituals	-9190
▁legend	-9191
▁curious	-9192
▁Any	-9193
▁Brown	-9194
anqu	-9195
apse	-9196
▁sick	-9197
▁Method	-9198
▁strain	-9199
ши	-9200
▁strict	-9201
▁dimensions	-9202
▁destinations	-9203
▁COUNT	-9204
▁Jessica	-9205
24	-9206
▁Space	-9207
▁burning	-9208
▁Base	-9209
entials	-9210
▁peanut	-9211
▁distant	-9212
olt	-9213
▁bacon	-9214
▁Comput	-9215
▁ре	-9216
▁explicit	-9217
▁Model	-9218
▁coach	-9219
▁Begin	-9220
vow	-9221
▁dut	-9222
▁blow	-9223
▁Beaut	-9224
▁perce	-9225
▁reform	-9226
▁thanks	-9227
umble	-9228
▁stuff	-9229
▁almonds	-9230
▁DIY	-9231
▁logical	-9232
вать	-9233
▁soap	-9234
▁syntax	-9235
▁trigger	-9236
ADE	-9237
rot	-9238
rete	-9239
▁paying	-9240
▁warning	-9241
frequency	-9242
▁có	-9243
▁assets	-9244
Listener	-9245
▁predictions	-9246
SD	-9247
▁gate	-9248
▁formal	-9249
▁Understand	-9250
%.	-9251
▁scope	-9252
▁milest	-9253
▁screens	-9254
▁hashtags	-9255
▁connecting	-9256
▁rail	-9257
isticated	-9258
▁alter	-9259
▁shower	-9260
validate	-9261
▁worn	-9262
▁plain	-9263
▁intervention	-9264
▁!==	-9265
▁sobre	-9266
▁divided	-9267
▁habitat	-9268
mates	-9269
▁graphic	-9270
▁Washing	-9271
▁cooperation	-9272
grid	-9273
▁church	-9274
▁oz	-9275
oven	-9276
WS	-9277
)))	-9278
arant	-9279
▁Land	-9280
itting	-9281
▁autonom	-9282
oria	-9283
▁wheat	-9284
building	-9285
▁manufacturer	-9286
iend	-9287
▁Tree	-9288
▁cond	-9289
health	-9290
zes	-9291
▁cave	-9292
▁Change	-9293
▁contributes	-9294
city	-9295
▁Dem	-9296
▁Wood	-9297
▁charging	-9298
▁processor	-9299
bow	-9300
▁Join	-9301
▁downt	-9302
▁signals	-9303
fly	-9304
▁''	-9305
▁Mel	-9306
depth	-9307
tical	-9308
▁Visit	-9309
▁plane	-9310
▁instances	-9311
BC	-9312
▁castle	-9313
▁Sometimes	-9314
га	-9315
Acc	-9316
tein	-9317
▁celery	-9318
▁Question	-9319
hav	-9320
irts	-9321
lers	-9322
▁crypt	-9323
▁Parmesan	-9324
▁attractive	-9325
▁likelihood	-9326
▁authorities	-9327
▁enemy	-9328
▁laughter	-9329
▁ist	-9330
▁safely	-9331
▁typing	-9332
▁hobbies	-9333
▁incident	-9334
▁intellect	-9335
▁Old	-9336
feren	-9337
▁indeed	-9338
▁tries	-9339
▁referral	-9340
ulf	-9341
▁mant	-9342
▁Jason	-9343
▁customs	-9344
▁dangers	-9345
▁distract	-9346
▁adventures	-9347
▁reflecting	-9348
AV	-9349
▁()	-9350
▁hex	-9351
emies	-9352
▁seat	-9353
attered	-9354
▁shorter	-9355
idity	-9356
▁ampl	-9357
generated	-9358
▁Slow	-9359
▁gods	-9360
2[	-9361
ris	-9362
▁Island	-9363
▁branding	-9364
▁officials	-9365
▁durability	-9366
nav	-9367
▁ис	-9368
▁County	-9369
се	-9370
istan	-9371
▁hack	-9372
▁knows	-9373
▁talks	-9374
▁Mexican	-9375
▁instrument	-9376
AX	-9377
strip	-9378
orious	-9379
▁influences	-9380
archy	-9381
iosity	-9382
▁Street	-9383
▁waters	-9384
▁confusion	-9385
▁cultivate	-9386
anting	-9387
▁demographics	-9388
▁Arch	-9389
▁COVID	-9390
▁universities	-9391
▁subscribers	-9392
100	-9393
Get	-9394
▁Subject	-9395
▁Mong	-9396
▁qualities	-9397
▁sophisticated	-9398
▁IT	-9399
▁combines	-9400
▁cardiovascular	-9401
▁О	-9402
even	-9403
▁hat	-9404
empty	-9405
▁Eliz	-9406
update	-9407
▁coding	-9408
▁promise	-9409
▁Different	-9410
sting	-9411
▁hesitate	-9412
AI	-9413
▁PHP	-9414
▁captiv	-9415
ride	-9416
▁turkey	-9417
▁imagination	-9418
uls	-9419
pool	-9420
▁Spr	-9421
ashed	-9422
clear	-9423
▁seamless	-9424
▁gathering	-9425
**:	-9426
ector	-9427
▁influential	-9428
▁unnecessary	-9429
▁File	-9430
▁Friend	-9431
▁temple	-9432
▁demands	-9433
▁tack	-9434
▁salsa	-9435
▁spots	-9436
▁JOIN	-9437
ders	-9438
▁Mah	-9439
▁peel	-9440
▁matching	-9441
▁developments	-9442
▁CE	-9443
bled	-9444
unks	-9445
tends	-9446
▁Wall	-9447
▁Beach	-9448
▁monthly	-9449
purpose	-9450
23	-9451
igned	-9452
uality	-9453
▁lyrics	-9454
▁occasionally	-9455
му	-9456
iches	-9457
▁Carol	-9458
uilder	-9459
▁sandwich	-9460
▁camping	-9461
▁);	-9462
ivered	-9463
▁anger	-9464
▁elegant	-9465
[^	-9466
System	-9467
▁female	-9468
ahrenheit	-9469
Num	-9470
▁ot	-9471
fire	-9472
▁1);	-9473
Gener	-9474
▁sensation	-9475
ня	-9476
tight	-9477
▁Tour	-9478
▁balls	-9479
ologies	-9480
▁logging	-9481
▁vitamin	-9482
▁Unfortunately	-9483
ki	-9484
▁hay	-9485
▁remarkable	-9486
це	-9487
▁Club	-9488
▁ORDER	-9489
▁although	-9490
rus	-9491
▁tightly	-9492
▁Festival	-9493
▁iterating	-9494
пе	-9495
Fact	-9496
▁Thanks	-9497
▁imagine	-9498
▁Companies	-9499
▁Option	-9500
▁counseling	-9501
plicated	-9502
▁involving	-9503
▁nu	-9504
ptember	-9505
▁reactions	-9506
14	-9507
▁gam	-9508
▁GROUP	-9509
▁compan	-9510
▁Windows	-9511
▁June	-9512
lements	-9513
▁Client	-9514
▁houses	-9515
iens	-9516
▁Neg	-9517
Select	-9518
▁Evaluate	-9519
▁discussing	-9520
Out	-9521
rer	-9522
anas	-9523
▁delight	-9524
▁uncertainty	-9525
isl	-9526
▁surfaces	-9527
▁preparation	-9528
EM	-9529
▁Sant	-9530
▁August	-9531
▁tailor	-9532
▁Jo	-9533
ategory	-9534
fibonacci	-9535
▁ham	-9536
▁cohes	-9537
▁sleek	-9538
▁Ob	-9539
▁Capt	-9540
▁gene	-9541
▁recover	-9542
isher	-9543
▁loading	-9544
▁resilient	-9545
fic	-9546
hello	-9547
▁retire	-9548
`:	-9549
▁Psych	-9550
▁difficulties	-9551
vable	-9552
▁resonates	-9553
▁ingredient	-9554
▁Republic	-9555
▁remainder	-9556
▁з	-9557
boh	-9558
css	-9559
▁diabetes	-9560
▁landscapes	-9561
▁Salad	-9562
▁bills	-9563
▁fertil	-9564
▁Line	-9565
▁compete	-9566
▁harvest	-9567
▁artifacts	-9568
▁whitespace	-9569
▁buzz	-9570
▁pill	-9571
▁horse	-9572
▁energ	-9573
▁reaction	-9574
▁alternatives	-9575
isc	-9576
lie	-9577
▁Move	-9578
▁Comple	-9579
▁immediate	-9580
▁mic	-9581
▁defense	-9582
▁travelers	-9583
NN	-9584
▁utilized	-9585
▁worst	-9586
ivia	-9587
▁peak	-9588
▁Washington	-9589
▁UI	-9590
onents	-9591
▁returning	-9592
fry	-9593
▁towns	-9594
▁tested	-9595
▁insects	-9596
1`	-9597
PU	-9598
▁wouldn	-9599
▁accountability	-9600
▁AV	-9601
game	-9602
▁fits	-9603
▁refine	-9604
orph	-9605
▁grad	-9606
▁assigned	-9607
▁datetime	-9608
eted	-9609
▁("	-9610
ocols	-9611
▁planned	-9612
▁transparent	-9613
abit	-9614
vate	-9615
▁Map	-9616
onna	-9617
▁wheel	-9618
▁Contact	-9619
▁cameras	-9620
▁substance	-9621
▁collections	-9622
tag	-9623
▁teeth	-9624
▁Spread	-9625
▁operators	-9626
▁aroma	-9627
▁opinion	-9628
▁candidate	-9629
▁Ann	-9630
▁раз	-9631
▁Mont	-9632
Des	-9633
abc	-9634
▁35	-9635
inars	-9636
acific	-9637
▁permut	-9638
▁coastal	-9639
▁decades	-9640
container	-9641
ACK	-9642
alg	-9643
anum	-9644
▁evolve	-9645
▁fulfilling	-9646
▁ayud	-9647
▁casting	-9648
▁separated	-9649
==	-9650
▁conducting	-9651
▁ped	-9652
▁agreed	-9653
plant	-9654
account	-9655
▁utilize	-9656
▁incorporates	-9657
ober	-9658
▁adj	-9659
open	-9660
▁drain	-9661
abulary	-9662
eration	-9663
interest	-9664
▁politics	-9665
speed	-9666
▁bustling	-9667
bsite	-9668
▁sig	-9669
CTYPE	-9670
▁Game	-9671
▁Prompt	-9672
▁ranging	-9673
▁bacteria	-9674
▁tf	-9675
(?	-9676
▁Cong	-9677
▁Requ	-9678
ective	-9679
▁rivers	-9680
▁sacrific	-9681
DOCTYPE	-9682
▁winning	-9683
Inter	-9684
ecurity	-9685
▁drivers	-9686
▁photograph	-9687
▁Tex	-9688
▁actors	-9689
▁stations	-9690
Hand	-9691
▁ton	-9692
▁Hindu	-9693
▁administr	-9694
▁smoked	-9695
▁Foundation	-9696
mean	-9697
party	-9698
icians	-9699
▁wrote	-9700
ori	-9701
pects	-9702
▁alien	-9703
▁spoken	-9704
piece	-9705
▁losses	-9706
▁freshly	-9707
(*	-9708
▁Di	-9709
Please	-9710
▁Influ	-9711
▁cinem	-9712
▁damaged	-9713
▁templates	-9714
▁Age	-9715
▁Network	-9716
▁мож	-9717
bohyd	-9718
▁maps	-9719
▁nearly	-9720
▁memo	-9721
▁joined	-9722
▁disabilities	-9723
tuce	-9724
luded	-9725
▁constructor	-9726
osite	-9727
▁Taking	-9728
vi	-9729
aud	-9730
▁Kh	-9731
cers	-9732
vals	-9733
2]	-9734
AG	-9735
70	-9736
▁Yoga	-9737
▁pret	-9738
Request	-9739
▁Import	-9740
ca	-9741
mind	-9742
▁authors	-9743
▁portfolio	-9744
▁irrigation	-9745
="#	-9746
▁Ava	-9747
iform	-9748
boards	-9749
▁workforce	-9750
oT	-9751
▁multiply	-9752
▁chemicals	-9753
DF	-9754
▁Invalid	-9755
▁assumes	-9756
▁Customers	-9757
▁acts	-9758
▁agent	-9759
▁subtract	-9760
▁independence	-9761
▁restrictions	-9762
gency	-9763
ifting	-9764
▁controls	-9765
▁aesthetic	-9766
▁appliances	-9767
▁surg	-9768
▁ме	-9769
east	-9770
▁breast	-9771
enaissance	-9772
ropical	-9773
arser	-9774
▁Thus	-9775
▁youth	-9776
▁cluster	-9777
BA	-9778
▁26	-9779
▁Oct	-9780
▁Sign	-9781
▁Thai	-9782
▁ceremony	-9783
ты	-9784
perform	-9785
▁picked	-9786
▁Islamic	-9787
▁Children	-9788
icine	-9789
▁Vari	-9790
▁titles	-9791
steps	-9792
▁League	-9793
▁forgiveness	-9794
▁Mom	-9795
rowing	-9796
▁Given	-9797
▁lapt	-9798
▁Sweet	-9799
▁bonds	-9800
▁clubs	-9801
▁tooth	-9802
▁towel	-9803
▁Language	-9804
ESC	-9805
▁collaborations	-9806
▁icon	-9807
palindrome	-9808
▁lightly	-9809
▁observe	-9810
▁telling	-9811
▁wealthy	-9812
Let	-9813
Not	-9814
▁ore	-9815
▁cotton	-9816
▁proposal	-9817
▁elaborate	-9818
▁signature	-9819
yard	-9820
▁oats	-9821
▁Prime	-9822
▁overc	-9823
▁Materials	-9824
▁testimonial	-9825
${	-9826
bra	-9827
rames	-9828
▁10-15	-9829
▁casual	-9830
▁lentils	-9831
▁kale	-9832
▁uncon	-9833
▁classification	-9834
▁Low	-9835
▁genu	-9836
▁cubes	-9837
▁infect	-9838
ски	-9839
ione	-9840
undred	-9841
▁mathematical	-9842
ali	-9843
pet	-9844
nuts	-9845
▁hunt	-9846
▁April	-9847
anda	-9848
ovember	-9849
▁assistant	-9850
▁trim	-9851
binary	-9852
▁sweat	-9853
▁reveal	-9854
▁36	-9855
▁von	-9856
local	-9857
▁alike	-9858
▁outline	-9859
gie	-9860
▁suits	-9861
▁Renaissance	-9862
2>	-9863
вы	-9864
▁immense	-9865
▁protocols	-9866
break	-9867
▁Phil	-9868
▁architectural	-9869
▁bes	-9870
▁Peter	-9871
▁forgot	-9872
▁verify	-9873
▁observed	-9874
:00	-9875
▁codes	-9876
▁expanding	-9877
▁demonstrated	-9878
▁curric	-9879
▁squash	-9880
▁enforce	-9881
ungle	-9882
▁ratio	-9883
▁scheduling	-9884
izar	-9885
▁Latin	-9886
▁marin	-9887
▁dynamics	-9888
▁5]	-9889
▁Bu	-9890
gano	-9891
uary	-9892
ambién	-9893
▁smoke	-9894
▁investigate	-9895
arks	-9896
▁steam	-9897
▁premium	-9898
▁reminders	-9899
▁conversions	-9900
istical	-9901
▁Natural	-9902
▁rustling	-9903
▁reads	-9904
▁setbacks	-9905
▁supernatural	-9906
▁Total	-9907
▁grains	-9908
▁refuge	-9909
▁Mrs	-9910
▁aug	-9911
gress	-9912
▁Attend	-9913
ii	-9914
▁AD	-9915
▁journ	-9916
▁quotes	-9917
▁Hey	-9918
▁bench	-9919
▁mirror	-9920
▁federal	-9921
▁routines	-9922
▁Split	-9923
▁enemies	-9924
▁threads	-9925
▁tourist	-9926
▁Analysis	-9927
▁adjusting	-9928
▁hike	-9929
▁occurrence	-9930
▁[1	-9931
▁Positive	-9932
▁updating	-9933
▁caramel	-9934
▁directed	-9935
▁facility	-9936
obs	-9937
▁Gen	-9938
Point	-9939
▁Cir	-9940
▁Hen	-9941
▁asp	-9942
▁rum	-9943
▁attitude	-9944
-6	-9945
▁Sever	-9946
▁chees	-9947
▁Thomas	-9948
OP	-9949
inspired	-9950
ito	-9951
▁Party	-9952
▁batch	-9953
▁stuck	-9954
▁believes	-9955
▁curiosity	-9956
▁mythology	-9957
▁illustrate	-9958
▁2000	-9959
▁defeat	-9960
▁Who	-9961
▁nost	-9962
▁tape	-9963
▁banks	-9964
forward	-9965
▁vacation	-9966
▁versions	-9967
▁reliability	-9968
▁Sea	-9969
▁hub	-9970
▁tired	-9971
▁tranqu	-9972
▁Success	-9973
▁disappear	-9974
cat	-9975
▁Dra	-9976
arness	-9977
22	-9978
ami	-9979
▁claims	-9980
▁scroll	-9981
ician	-9982
average	-9983
ymakers	-9984
▁Ham	-9985
▁Card	-9986
▁Miss	-9987
▁March	-9988
▁conference	-9989
▁registration	-9990
▁ast	-9991
upper	-9992
▁rank	-9993
ancers	-9994
itan	-9995
Builder	-9996
▁completion	-9997
abled	-9998
▁absorb	-9999
▁Transport	-10000
▁Rock	-10001
▁acting	-10002
▁examine	-10003
▁trouble	-10004
▁globally	-10005
▁improves	-10006
▁basketball	-10007
request	-10008
▁director	-10009
▁cooling	-10010
▁functioning	-10011
'])	-10012
obe	-10013
hoot	-10014
▁meters	-10015
erly	-10016
umbs	-10017
▁drum	-10018
▁Creat	-10019
▁veter	-10020
▁unders	-10021
▁Meditation	-10022
ется	-10023
▁Chicken	-10024
DATE	-10025
idades	-10026
secutive	-10027
▁breathe	-10028
HT	-10029
▁Oper	-10030
▁army	-10031
▁mold	-10032
▁Scanner	-10033
▁haunted	-10034
▁Francisco	-10035
▁gravitational	-10036
heet	-10037
▁Bill	-10038
▁hosting	-10039
▁mistake	-10040
aid	-10041
▁pron	-10042
▁metab	-10043
▁Sche	-10044
▁println	-10045
▁quarter	-10046
▁sale	-10047
LowerCase	-10048
▁reasonable	-10049
half	-10050
▁asks	-10051
▁addressed	-10052
Up	-10053
▁roast	-10054
▁haven	-10055
▁assemb	-10056
▁Machine	-10057
jo	-10058
▁dividing	-10059
▁enhances	-10060
▁err	-10061
▁Point	-10062
▁adopting	-10063
bage	-10064
oriented	-10065
▁stom	-10066
▁subsequ	-10067
ige	-10068
elly	-10069
▁puzzle	-10070
ensional	-10071
▁exhibits	-10072
▁recording	-10073
▁Performance	-10074
▁(3	-10075
▁pic	-10076
▁pulled	-10077
▁saucepan	-10078
▁Py	-10079
▁Ryan	-10080
▁Tower	-10081
'],	-10082
▁70	-10083
▁LED	-10084
ushes	-10085
▁dairy	-10086
▁mechanics	-10087
ste	-10088
link	-10089
▁Enh	-10090
▁ein	-10091
▁mund	-10092
▁sist	-10093
ultane	-10094
▁Cross	-10095
▁contents	-10096
ottom	-10097
▁inquir	-10098
▁unpredict	-10099
▁visualize	-10100
cción	-10101
▁guides	-10102
rance	-10103
roller	-10104
▁panc	-10105
▁streamline	-10106
ett	-10107
▁gap	-10108
▁organisms	-10109
▁Sophia	-10110
▁Profess	-10111
▁samples	-10112
ao	-10113
cost	-10114
▁Wild	-10115
▁Environmental	-10116
▁pest	-10117
▁extracted	-10118
oma	-10119
▁Night	-10120
▁newsp	-10121
▁delivered	-10122
Be	-10123
bell	-10124
▁(200	-10125
▁airtight	-10126
▁14.	-10127
arest	-10128
▁Road	-10129
▁Task	-10130
▁soothing	-10131
▁traveled	-10132
▁antioxidants	-10133
yes	-10134
clus	-10135
▁breaths	-10136
▁congest	-10137
▁hunting	-10138
mt	-10139
inar	-10140
users	-10141
▁enum	-10142
▁bottles	-10143
▁expanded	-10144
▁presents	-10145
▁nest	-10146
asures	-10147
▁Asian	-10148
▁renown	-10149
▁wisdom	-10150
▁homeless	-10151
Aut	-10152
▁ASC	-10153
ittle	-10154
▁clues	-10155
▁struck	-10156
▁gravity	-10157
▁connectivity	-10158
false	-10159
▁Train	-10160
▁ears	-10161
▁wake	-10162
▁steak	-10163
▁mobility	-10164
▁Aqu	-10165
▁accum	-10166
factor	-10167
▁reflected	-10168
ushi	-10169
▁50%	-10170
▁Lemon	-10171
▁Spain	-10172
▁argue	-10173
▁drops	-10174
▁numpy	-10175
▁Regarding	-10176
})	-10177
▁pas	-10178
▁relaxed	-10179
▁geothermal	-10180
▁api	-10181
▁concaten	-10182
▁judgment	-10183
▁10;	-10184
▁mej	-10185
▁Jackson	-10186
▁Cy	-10187
▁FADE	-10188
scious	-10189
semble	-10190
▁slide	-10191
▁threshold	-10192
гу	-10193
SL	-10194
▁пе	-10195
alsamic	-10196
▁pueden	-10197
▁chatbots	-10198
▁clinical	-10199
▁importante	-10200
▁<-	-10201
▁qui	-10202
ptions	-10203
▁outfit	-10204
▁charged	-10205
▁harness	-10206
▁discussed	-10207
▁Rad	-10208
▁[];	-10209
▁bees	-10210
▁mail	-10211
versed	-10212
▁dirt	-10213
▁clock	-10214
▁renowned	-10215
charge	-10216
urious	-10217
▁extends	-10218
authorized	-10219
▁rewarding	-10220
▁ignore	-10221
rones	-10222
▁categor	-10223
dess	-10224
▁Android	-10225
▁subscription	-10226
rim	-10227
▁kil	-10228
▁liked	-10229
▁ownership	-10230
▁deployment	-10231
\.	-10232
-30	-10233
berg	-10234
▁Russia	-10235
▁Lin	-10236
▁fate	-10237
▁rememb	-10238
▁vocabulary	-10239
ui	-10240
▁enthusiasts	-10241
>();	-10242
iente	-10243
▁concrete	-10244
▁willingness	-10245
kins	-10246
▁eerie	-10247
▁roads	-10248
▁studied	-10249
▁isolated	-10250
▁motivate	-10251
▁weapon	-10252
▁combining	-10253
▁defend	-10254
▁Lord	-10255
▁Prep	-10256
digits	-10257
▁facial	-10258
▁studio	-10259
▁washing	-10260
IA	-10261
▁С	-10262
cii	-10263
illy	-10264
▁org	-10265
▁strand	-10266
▁пре	-10267
▁algun	-10268
▁Volunte	-10269
▁radiation	-10270
▁dad	-10271
aulif	-10272
▁Several	-10273
▁replacement	-10274
▁damp	-10275
▁perf	-10276
▁proof	-10277
▁Result	-10278
▁promotional	-10279
▁intellectual	-10280
▁Jenna	-10281
▁pursuing	-10282
BT	-10283
Su	-10284
▁Cast	-10285
▁Farm	-10286
▁feta	-10287
▁burden	-10288
▁episode	-10289
▁Financial	-10290
▁employers	-10291
▁Revolution	-10292
PA	-10293
ooked	-10294
▁2018	-10295
▁DESC	-10296
▁dipl	-10297
▁timely	-10298
WriteLine	-10299
auliflower	-10300
nn	-10301
▁Equ	-10302
▁batteries	-10303
▁streams	-10304
▁Exception	-10305
▁Du	-10306
player	-10307
▁Mobile	-10308
▁equival	-10309
▁experimenting	-10310
可以	-10311
▁climb	-10312
▁seasonal	-10313
▁leap	-10314
▁pupp	-10315
▁towering	-10316
▁hung	-10317
▁Student	-10318
▁urgency	-10319
Don	-10320
▁Rice	-10321
tree	-10322
▁encouragement	-10323
▁Lar	-10324
▁Mike	-10325
▁Sleep	-10326
▁proven	-10327
bohydrates	-10328
▁Fact	-10329
ocratic	-10330
▁customizable	-10331
CC	-10332
elsius	-10333
▁aircraft	-10334
eres	-10335
icago	-10336
▁Clear	-10337
▁neces	-10338
anumeric	-10339
▁stylish	-10340
▁planting	-10341
▁underground	-10342
▁23	-10343
▁32	-10344
days	-10345
Address	-10346
▁treating	-10347
▁breakdown	-10348
▁Ell	-10349
▁Slide	-10350
▁trips	-10351
ocker	-10352
▁magnetic	-10353
nament	-10354
▁cocoa	-10355
icksort	-10356
▁Eastern	-10357
▁erosion	-10358
▁placing	-10359
illas	-10360
▁$2	-10361
▁toll	-10362
▁ceremonies	-10363
▁Rose	-10364
▁mini	-10365
▁astronom	-10366
▁accomplishment	-10367
13	-10368
float	-10369
▁Page	-10370
▁cuts	-10371
ibrary	-10372
▁societal	-10373
▁Bow	-10374
▁integr	-10375
▁accommodate	-10376
Per	-10377
▁28	-10378
▁4)	-10379
card	-10380
▁earned	-10381
▁mashed	-10382
▁Extract	-10383
▁adopted	-10384
▁recommendation	-10385
edge	-10386
ista	-10387
▁dir	-10388
talk	-10389
▁rib	-10390
▁spat	-10391
▁careers	-10392
▁dressed	-10393
▁September	-10394
▁Saf	-10395
▁Phot	-10396
▁magaz	-10397
▁pinch	-10398
18	-10399
▁das	-10400
▁sne	-10401
▁profiles	-10402
▁abund	-10403
▁((	-10404
gets	-10405
▁toward	-10406
▁warming	-10407
▁exceptions	-10408
▁tom	-10409
acent	-10410
▁winds	-10411
▁exhibit	-10412
innerHTML	-10413
▁captures	-10414
arted	-10415
▁bits	-10416
▁lush	-10417
▁oregano	-10418
▁extremely	-10419
bersecurity	-10420
▁organizing	-10421
▁CSV	-10422
▁Exec	-10423
havior	-10424
▁outer	-10425
▁density	-10426
▁hanging	-10427
win	-10428
ный	-10429
aded	-10430
▁Chocolate	-10431
▁simultane	-10432
▁impression	-10433
oft	-10434
▁Dyn	-10435
▁Chat	-10436
atable	-10437
▁lettuce	-10438
▁playful	-10439
▁withstand	-10440
▁passengers	-10441
▁emotionally	-10442
UE	-10443
aron	-10444
heap	-10445
▁yeast	-10446
▁appreciated	-10447
▁т	-10448
▁esp	-10449
▁celebration	-10450
▁Alternatively	-10451
fish	-10452
oured	-10453
▁mouse	-10454
▁symbolism	-10455
▁Always	-10456
▁Random	-10457
▁personalize	-10458
▁'.	-10459
mother	-10460
▁animations	-10461
▁candidates	-10462
▁Engage	-10463
▁digest	-10464
▁therefore	-10465
▁emphasizing	-10466
▁20,	-10467
▁Den	-10468
▁din	-10469
lists	-10470
▁acquis	-10471
▁district	-10472
▁Н	-10473
Trans	-10474
▁Adam	-10475
▁stomach	-10476
Account	-10477
▁isPrime	-10478
▁adequate	-10479
mult	-10480
▁ven	-10481
Client	-10482
▁fluid	-10483
▁November	-10484
On	-10485
▁{"	-10486
▁2019	-10487
▁Roll	-10488
▁glue	-10489
Sm	-10490
▁Atl	-10491
▁Week	-10492
▁gray	-10493
▁Press	-10494
▁donations	-10495
enne	-10496
sharp	-10497
▁Load	-10498
▁hang	-10499
▁nose	-10500
▁harmon	-10501
▁Setting	-10502
▁ratings	-10503
▁symphony	-10504
pass	-10505
▁excessive	-10506
cap	-10507
▁dependencies	-10508
▁fon	-10509
▁Ur	-10510
ludes	-10511
ugging	-10512
▁traits	-10513
gettable	-10514
▁Increase	-10515
VAL	-10516
http	-10517
▁bun	-10518
▁tent	-10519
▁likes	-10520
▁neckl	-10521
▁Effective	-10522
▁sculptures	-10523
hem	-10524
enger	-10525
versal	-10526
▁thereby	-10527
▁experiments	-10528
cember	-10529
▁Celebr	-10530
▁aliens	-10531
▁referred	-10532
expression	-10533
▁sees	-10534
▁grief	-10535
duction	-10536
▁talented	-10537
▁overnight	-10538
▁jungle	-10539
▁compares	-10540
▁filtering	-10541
aje	-10542
bru	-10543
▁fox	-10544
jango	-10545
▁negoti	-10546
▁earthqu	-10547
▁establishing	-10548
66	-10549
LO	-10550
road	-10551
▁Cup	-10552
▁Por	-10553
▁leveraging	-10554
▁minimizing	-10555
▁dies	-10556
▁shore	-10557
▁listened	-10558
IF	-10559
мы	-10560
▁affili	-10561
▁workflow	-10562
aire	-10563
ranean	-10564
▁eight	-10565
▁depicted	-10566
▁Travel	-10567
▁signed	-10568
eded	-10569
▁coordination	-10570
▁Ven	-10571
▁async	-10572
▁Providing	-10573
▁бо	-10574
▁12,	-10575
▁Texas	-10576
longest	-10577
▁Olivia	-10578
▁finger	-10579
▁horror	-10580
aturally	-10581
▁enhanced	-10582
▁relative	-10583
▁discusses	-10584
uces	-10585
▁dele	-10586
▁Academy	-10587
▁feather	-10588
▁floating	-10589
▁simulate	-10590
▁striking	-10591
ptr	-10592
▁Coun	-10593
▁bless	-10594
▁metaphor	-10595
▁frustration	-10596
▁22	-10597
▁intim	-10598
▁Angeles	-10599
▁reminded	-10600
▁directions	-10601
▁5)	-10602
▁Pacific	-10603
▁letting	-10604
neg	-10605
irds	-10606
▁Ser	-10607
Start	-10608
stone	-10609
▁Ocean	-10610
▁shirt	-10611
▁disput	-10612
▁strike	-10613
▁pottery	-10614
ibl	-10615
erto	-10616
▁11,	-10617
▁Hom	-10618
▁steady	-10619
▁Testing	-10620
▁closest	-10621
toLowerCase	-10622
▁Developing	-10623
▁integrating	-10624
City	-10625
organ	-10626
allest	-10627
▁topping	-10628
▁namespace	-10629
▁Video	-10630
engu	-10631
▁Lee	-10632
shape	-10633
▁Free	-10634
▁timer	-10635
▁IS	-10636
▁seven	-10637
▁bigger	-10638
▁trusted	-10639
bye	-10640
iber	-10641
▁remembered	-10642
▁unforgettable	-10643
hero	-10644
▁vess	-10645
▁stated	-10646
▁Incorporating	-10647
ogg	-10648
▁neur	-10649
▁distribute	-10650
"{	-10651
adata	-10652
intage	-10653
▁cookie	-10654
▁drawbacks	-10655
For	-10656
▁sunset	-10657
▁curriculum	-10658
oj	-10659
deg	-10660
nes	-10661
see	-10662
▁CT	-10663
▁folk	-10664
▁mutual	-10665
▁Mindful	-10666
▁essence	-10667
hi	-10668
▁Ill	-10669
proof	-10670
▁amen	-10671
▁burnout	-10672
▁acceptance	-10673
▁Pack	-10674
▁heads	-10675
▁automate	-10676
▁consideration	-10677
opes	-10678
▁15.	-10679
abeth	-10680
▁General	-10681
▁prevention	-10682
zzles	-10683
▁fluff	-10684
▁sticks	-10685
▁seasons	-10686
▁accomplishments	-10687
zech	-10688
▁Lake	-10689
▁Lisa	-10690
▁Hello	-10691
ository	-10692
▁yields	-10693
tee	-10694
▁];	-10695
сь	-10696
▁Squ	-10697
▁coal	-10698
lambda	-10699
▁fried	-10700
eliness	-10701
▁df	-10702
▁Sau	-10703
NG	-10704
cus	-10705
floor	-10706
▁Dutch	-10707
▁Final	-10708
▁explo	-10709
▁pitch	-10710
▁sadness	-10711
▁squares	-10712
▁perception	-10713
▁г	-10714
▁jal	-10715
▁publish	-10716
▁engineers	-10717
-12	-10718
▁Turk	-10719
▁corruption	-10720
▁establishment	-10721
ynt	-10722
▁Kat	-10723
antity	-10724
▁knees	-10725
▁varied	-10726
▁Council	-10727
▁register	-10728
▁suggesting	-10729
Over	-10730
▁lid	-10731
▁majority	-10732
▁capability	-10733
▁conj	-10734
▁steep	-10735
▁modules	-10736
▁personnel	-10737
onym	-10738
▁mint	-10739
▁bravery	-10740
▁Validate	-10741
▁Bec	-10742
▁Las	-10743
▁Human	-10744
▁requested	-10745
▁congestion	-10746
pg	-10747
erry	-10748
▁cursor	-10749
▁prefix	-10750
▁instrumental	-10751
▁skip	-10752
▁convin	-10753
ela	-10754
▁ski	-10755
▁Cath	-10756
filename	-10757
▁Physical	-10758
rat	-10759
idal	-10760
▁bone	-10761
▁disad	-10762
▁fascinated	-10763
▁customization	-10764
rons	-10765
Model	-10766
double	-10767
▁joining	-10768
▁philosophy	-10769
▁accountable	-10770
▁Implementation	-10771
icht	-10772
▁Why	-10773
▁bin	-10774
anned	-10775
▁pets	-10776
▁forming	-10777
▁EXT	-10778
pattern	-10779
▁cursed	-10780
▁laughing	-10781
▁lifetime	-10782
▁opposite	-10783
inals	-10784
▁troubles	-10785
Row	-10786
▁drew	-10787
▁charming	-10788
▁achievable	-10789
▁Bang	-10790
otional	-10791
▁Assess	-10792
▁lighter	-10793
▁securely	-10794
▁dimension	-10795
UC	-10796
▁8:	-10797
covery	-10798
ampl	-10799
▁prove	-10800
▁awards	-10801
▁preval	-10802
▁Az	-10803
ching	-10804
▁Imag	-10805
▁regist	-10806
(3	-10807
▁fee	-10808
▁strawberries	-10809
▁vulnerability	-10810
▁Tri	-10811
ressing	-10812
▁194	-10813
▁tasty	-10814
▁hydrogen	-10815
onaut	-10816
▁theat	-10817
avering	-10818
▁sensations	-10819
.]	-10820
stic	-10821
▁dot	-10822
▁src	-10823
▁earthy	-10824
▁ow	-10825
foot	-10826
noon	-10827
▁laug	-10828
▁grain	-10829
▁mentor	-10830
▁converting	-10831
ún	-10832
▁lur	-10833
▁laughed	-10834
▁incentiv	-10835
▁PR	-10836
rier	-10837
▁battles	-10838
▁educate	-10839
▁Jac	-10840
phant	-10841
▁modes	-10842
▁charts	-10843
▁horizon	-10844
▁blending	-10845
▁nob	-10846
Child	-10847
▁Maybe	-10848
placement	-10849
▁frameworks	-10850
▁manufacturers	-10851
EST	-10852
Wor	-10853
▁Royal	-10854
plicity	-10855
▁hundred	-10856
iterranean	-10857
▁tie	-10858
▁Queen	-10859
▁bones	-10860
▁volcan	-10861
▁painted	-10862
▁threatened	-10863
▁Sustainable	-10864
8)	-10865
freq	-10866
▁Mean	-10867
▁boss	-10868
▁Though	-10869
▁clause	-10870
▁founded	-10871
▁overhead	-10872
▁il	-10873
▁Law	-10874
▁Yeah	-10875
itudes	-10876
▁facts	-10877
▁adversity	-10878
▁[3,	-10879
▁ses	-10880
tti	-10881
▁Block	-10882
▁heated	-10883
▁beloved	-10884
▁Recommend	-10885
▁dé	-10886
▁или	-10887
▁drama	-10888
▁guilt	-10889
▁Kingdom	-10890
tre	-10891
ção	-10892
uffle	-10893
▁edit	-10894
▁imagined	-10895
▁belonging	-10896
▁capturing	-10897
uffer	-10898
▁Mass	-10899
▁innoc	-10900
▁promising	-10901
▁Common	-10902
▁nurs	-10903
▁eliminate	-10904
asta	-10905
▁Global	-10906
▁divine	-10907
stra	-10908
ulent	-10909
▁bitwise	-10910
2);	-10911
▁Effect	-10912
▁evident	-10913
▁rectangle	-10914
▁compatible	-10915
Ste	-10916
▁thri	-10917
▁Implementing	-10918
▁spa	-10919
▁parking	-10920
▁Economic	-10921
how	-10922
bound	-10923
astics	-10924
uan	-10925
▁reserv	-10926
▁October	-10927
▁interpre	-10928
▁conferences	-10929
,”	-10930
site	-10931
▁Bud	-10932
files	-10933
▁Supp	-10934
▁loan	-10935
▁passwords	-10936
iger	-10937
▁surprised	-10938
▁prioritizing	-10939
▁motif	-10940
▁unwavering	-10941
щи	-10942
Book	-10943
Info	-10944
riage	-10945
▁Know	-10946
zone	-10947
ifice	-10948
▁Arctic	-10949
▁guarant	-10950
ersection	-10951
▁XML	-10952
▁Body	-10953
▁squee	-10954
▁Maggie	-10955
▁accessing	-10956
kyo	-10957
▁minds	-10958
▁obtained	-10959
▁Elizabeth	-10960
▁suffering	-10961
uum	-10962
▁killed	-10963
▁papers	-10964
▁Ban	-10965
▁evoke	-10966
▁victims	-10967
▁credentials	-10968
▁Dark	-10969
▁Save	-10970
▁girls	-10971
▁arrest	-10972
▁unlike	-10973
▁jumping	-10974
▁weekend	-10975
▁composed	-10976
▁tensions	-10977
▁Translate	-10978
▁priorities	-10979
Words	-10980
▁Hotel	-10981
mm	-10982
Att	-10983
ker	-10984
ummy	-10985
bruary	-10986
▁angry	-10987
asses	-10988
▁anch	-10989
▁elderly	-10990
▁taxes	-10991
itative	-10992
▁partition	-10993
▁coordinates	-10994
▁operational	-10995
▁IoT	-10996
▁transmit	-10997
Tree	-10998
▁tissue	-10999
▁inviting	-11000
▁fundraising	-11001
▁garnish	-11002
▁tirelessly	-11003
Min	-11004
▁'{	-11005
ighs	-11006
Stack	-11007
▁Track	-11008
▁cautious	-11009
▁meditations	-11010
▁modifications	-11011
has	-11012
ici	-11013
▁gases	-11014
▁worried	-11015
▁accompan	-11016
-1)	-11017
CHAR	-11018
▁captured	-11019
track	-11020
lication	-11021
▁concert	-11022
▁rosemary	-11023
imm	-11024
▁saus	-11025
▁wines	-11026
▁staring	-11027
▁Mic	-11028
▁ray	-11029
▁grip	-11030
▁infer	-11031
security	-11032
▁cort	-11033
▁stem	-11034
agrams	-11035
▁divisor	-11036
▁Sir	-11037
▁yield	-11038
▁Divide	-11039
▁naturally	-11040
▁Give	-11041
▁certific	-11042
▁simultaneously	-11043
▁AM	-11044
boarding	-11045
▁Nutrition	-11046
▁unauthorized	-11047
-25	-11048
Cell	-11049
▁Pen	-11050
Total	-11051
olves	-11052
vings	-11053
▁foam	-11054
iginal	-11055
▁Mediterranean	-11056
bi	-11057
ester	-11058
▁gluc	-11059
▁shots	-11060
▁ancest	-11061
▁workload	-11062
Area	-11063
▁hybrid	-11064
▁explained	-11065
odd	-11066
amboo	-11067
▁luxurious	-11068
omic	-11069
▁195	-11070
▁pig	-11071
delete	-11072
igraph	-11073
lywood	-11074
method	-11075
▁twice	-11076
▁rotation	-11077
▁Ep	-11078
forest	-11079
▁await	-11080
▁Assuming	-11081
▁differentiate	-11082
▁Blend	-11083
▁anxious	-11084
▁30,	-11085
▁tro	-11086
▁wore	-11087
▁gifts	-11088
▁polar	-11089
▁varying	-11090
▁limiting	-11091
▁Learn	-11092
ée	-11093
Def	-11094
▁Loop	-11095
▁households	-11096
annel	-11097
▁barely	-11098
▁delays	-11099
▁manipulation	-11100
▁raises	-11101
▁Secondly	-11102
▁birthday	-11103
▁Forest	-11104
▁accepted	-11105
▁recipient	-11106
▁formatted	-11107
▁suppliers	-11108
!/	-11109
fold	-11110
ithm	-11111
▁dos	-11112
othic	-11113
▁torn	-11114
▁hiding	-11115
▁climbing	-11116
▁К	-11117
▁как	-11118
▁agents	-11119
▁Americans	-11120
▁('	-11121
arte	-11122
▁Plant	-11123
▁salads	-11124
▁aligned	-11125
▁Vir	-11126
▁Visitors	-11127
▁fragrant	-11128
▁contribution	-11129
6)	-11130
rep	-11131
▁advis	-11132
▁voices	-11133
▁которы	-11134
▁practiced	-11135
mn	-11136
amber	-11137
urable	-11138
▁Chicago	-11139
▁Individual	-11140
▁Finn	-11141
▁Influenc	-11142
▁constructed	-11143
▁setup	-11144
▁pretty	-11145
▁restore	-11146
▁outdoors	-11147
▁dashboard	-11148
▁Hyd	-11149
chers	-11150
▁endl	-11151
▁grows	-11152
▁adaptations	-11153
▁Hub	-11154
▁July	-11155
▁mainly	-11156
▁dramatic	-11157
▁modeling	-11158
▁references	-11159
▁distinctive	-11160
17	-11161
▁logs	-11162
▁Priorit	-11163
▁Maintain	-11164
5%	-11165
erness	-11166
ulates	-11167
▁protective	-11168
ially	-11169
▁sere	-11170
server	-11171
▁indoor	-11172
▁caching	-11173
▁boards	-11174
▁plates	-11175
▁History	-11176
▁endurance	-11177
▁gardening	-11178
rogen	-11179
▁blur	-11180
adian	-11181
▁Fort	-11182
▁trick	-11183
▁affirm	-11184
▁unsure	-11185
▁prosper	-11186
▁credibility	-11187
enu	-11188
otta	-11189
▁imper	-11190
▁sprou	-11191
▁borrow	-11192
▁cherish	-11193
▁glowing	-11194
eness	-11195
randint	-11196
▁granted	-11197
Reg	-11198
charAt	-11199
▁passes	-11200
▁spreading	-11201
iendo	-11202
▁craw	-11203
athetic	-11204
▁stones	-11205
▁dissatisf	-11206
▁Ca	-11207
▁Czech	-11208
▁Jesus	-11209
▁proceed	-11210
▁analyzed	-11211
▁absolutely	-11212
anz	-11213
▁Feed	-11214
▁meats	-11215
▁Portug	-11216
▁treated	-11217
cut	-11218
▁Ok	-11219
IGHT	-11220
ieval	-11221
▁plus	-11222
omfort	-11223
ferencing	-11224
▁segments	-11225
▁amenities	-11226
PC	-11227
aro	-11228
lik	-11229
000,	-11230
▁blues	-11231
lasting	-11232
▁sufficient	-11233
▁discoveries	-11234
▁liv	-11235
▁Cream	-11236
▁Hawai	-11237
▁footage	-11238
▁purchased	-11239
bul	-11240
Word	-11241
▁diplom	-11242
▁raising	-11243
▁hesitant	-11244
vy	-11245
▁lip	-11246
▁wax	-11247
}'	-11248
Tra	-11249
▁27	-11250
▁actor	-11251
▁immig	-11252
(0	-11253
▁throws	-11254
▁January	-11255
▁solving	-11256
▁fulfillment	-11257
▁testimonials	-11258
EG	-11259
Ent	-11260
Yes	-11261
▁vulnerabilities	-11262
▁dol	-11263
▁Fill	-11264
bottom	-11265
▁scrap	-11266
▁Action	-11267
▁whipped	-11268
▁tropical	-11269
▁accidents	-11270
▁geometric	-11271
Arr	-11272
▁Proper	-11273
▁Regularly	-11274
bu	-11275
▁10:	-11276
▁Trail	-11277
▁pests	-11278
▁integrity	-11279
▁sights	-11280
▁indirect	-11281
▁consecutive	-11282
▁pin	-11283
▁mand	-11284
▁Valley	-11285
▁puzzles	-11286
▁announced	-11287
>>	-11288
▁na	-11289
▁compute	-11290
irs	-11291
▁recre	-11292
▁trains	-11293
▁beaches	-11294
▁accessed	-11295
▁president	-11296
▁#!/	-11297
▁Guide	-11298
▁composting	-11299
▁revolutionized	-11300
▁Spec	-11301
minute	-11302
vention	-11303
▁goddess	-11304
▁palette	-11305
▁trading	-11306
▁discomfort	-11307
ños	-11308
▁grades	-11309
▁releases	-11310
▁Governments	-11311
Test	-11312
▁XYZ	-11313
▁Korea	-11314
▁circul	-11315
▁overcoming	-11316
▁db	-11317
▁pd	-11318
alpha	-11319
▁speeds	-11320
press	-11321
▁kill	-11322
▁Simply	-11323
▁AWS	-11324
▁fabrics	-11325
wear	-11326
▁purple	-11327
▁flowing	-11328
▁Highlight	-11329
▁placeholder	-11330
▁:=	-11331
▁Garlic	-11332
▁recall	-11333
▁viewer	-11334
▁retreat	-11335
▁fostering	-11336
▁inclusive	-11337
▁retirement	-11338
]))	-11339
aset	-11340
ership	-11341
makers	-11342
▁Manager	-11343
asm	-11344
▁Everyone	-11345
ga	-11346
▁policymakers	-11347
DE	-11348
▁extent	-11349
▁explicitly	-11350
0-9	-11351
▁})	-11352
▁pix	-11353
▁headers	-11354
▁Healthcare	-11355
▁seamlessly	-11356
▁JESS	-11357
▁toler	-11358
▁listener	-11359
agus	-11360
▁unus	-11361
client	-11362
Character	-11363
▁equivalent	-11364
xim	-11365
▁sorce	-11366
▁Family	-11367
▁adaptation	-11368
▁spell	-11369
▁candles	-11370
▁decorations	-11371
▁innovations	-11372
izzes	-11373
keras	-11374
terior	-11375
▁Partner	-11376
▁Ess	-11377
aints	-11378
SELECT	-11379
▁financing	-11380
west	-11381
abases	-11382
inator	-11383
▁instinct	-11384
mos	-11385
▁Dev	-11386
▁Greece	-11387
▁floral	-11388
▁trials	-11389
▁datasets	-11390
▁meanings	-11391
▁whispers	-11392
▁ا	-11393
-1,	-11394
wall	-11395
▁poses	-11396
▁servers	-11397
▁attached	-11398
▁definition	-11399
▁simplicity	-11400
UB	-11401
▁VAR	-11402
header	-11403
▁loneliness	-11404
▁unpredictable	-11405
arella	-11406
student	-11407
department	-11408
▁Detective	-11409
▁intention	-11410
▁merch	-11411
▁Depending	-11412
▁Personalized	-11413
osc	-11414
▁Karen	-11415
▁destroyed	-11416
:")	-11417
apers	-11418
▁virt	-11419
Config	-11420
▁Where	-11421
▁opens	-11422
vation	-11423
▁warri	-11424
▁interns	-11425
▁matters	-11426
▁missions	-11427
▁societies	-11428
▁departments	-11429
ingly	-11430
sters	-11431
▁proc	-11432
giving	-11433
▁Software	-11434
Mat	-11435
elia	-11436
ifest	-11437
▁Config	-11438
▁Sprinkle	-11439
]`	-11440
па	-11441
▁lamp	-11442
▁riding	-11443
▁entering	-11444
▁sacrifice	-11445
поль	-11446
▁rab	-11447
ammat	-11448
▁Happy	-11449
integer	-11450
▁tokens	-11451
▁December	-11452
EventListener	-11453
limit	-11454
▁Deep	-11455
▁intrig	-11456
▁fut	-11457
▁Being	-11458
▁preprocess	-11459
▁demographic	-11460
▁preservation	-11461
▁surge	-11462
▁Writing	-11463
▁backpack	-11464
ERT	-11465
▁stur	-11466
▁pounding	-11467
▁Jon	-11468
▁summar	-11469
ammatory	-11470
▁Alg	-11471
▁mejor	-11472
▁frosting	-11473
away	-11474
▁peas	-11475
▁Martin	-11476
▁mining	-11477
▁strips	-11478
▁Special	-11479
seen	-11480
▁exch	-11481
lections	-11482
zzarella	-11483
pm	-11484
2))	-11485
Par	-11486
▁rolls	-11487
▁ticket	-11488
▁mapping	-11489
▁evolving	-11490
▁smoothly	-11491
Fi	-11492
igue	-11493
▁chill	-11494
▁torch	-11495
▁worse	-11496
ilation	-11497
▁scenic	-11498
▁browned	-11499
iffs	-11500
▁0.5	-11501
▁Sus	-11502
▁chia	-11503
▁acids	-11504
▁scratch	-11505
▁tickets	-11506
temp	-11507
▁Prem	-11508
Change	-11509
▁folder	-11510
▁timing	-11511
▁assessments	-11512
war	-11513
heast	-11514
▁este	-11515
▁panic	-11516
▁enroll	-11517
▁proport	-11518
IKE	-11519
cor	-11520
handle	-11521
itches	-11522
awareness	-11523
▁resonate	-11524
▁Eu	-11525
beat	-11526
gument	-11527
▁solely	-11528
▁cleaned	-11529
▁vintage	-11530
▁regulatory	-11531
▁freq	-11532
▁locate	-11533
▁soccer	-11534
▁travels	-11535
▁currency	-11536
▁Experience	-11537
90	-11538
сте	-11539
show	-11540
indrom	-11541
▁entities	-11542
▁determining	-11543
▁emit	-11544
▁chains	-11545
▁Turkish	-11546
▁designated	-11547
▁acquisition	-11548
bnb	-11549
infl	-11550
athan	-11551
otive	-11552
▁Shop	-11553
characters	-11554
▁Isra	-11555
▁forth	-11556
▁ejempl	-11557
▁Utilize	-11558
▁outreach	-11559
▁Gre	-11560
▁serene	-11561
MP	-11562
rices	-11563
▁sqrt	-11564
▁barrier	-11565
compassion	-11566
▁wonderful	-11567
▁controlling	-11568
Cal	-11569
esar	-11570
▁aids	-11571
vowels	-11572
▁nations	-11573
▁reinfor	-11574
dist	-11575
▁stayed	-11576
▁desserts	-11577
▁comprehension	-11578
roat	-11579
▁Seg	-11580
mount	-11581
▁correl	-11582
▁butterfly	-11583
cipl	-11584
▁hug	-11585
▁peer	-11586
itt	-11587
▁MO	-11588
▁ox	-11589
flies	-11590
rength	-11591
udding	-11592
▁Little	-11593
▁crowded	-11594
▁typical	-11595
agna	-11596
ston	-11597
▁"";	-11598
▁Jose	-11599
▁moral	-11600
▁doctors	-11601
CS	-11602
▁obl	-11603
▁Games	-11604
▁Tools	-11605
▁indul	-11606
▁objet	-11607
▁fourth	-11608
▁anymore	-11609
▁failures	-11610
▁calculating	-11611
LS	-11612
aghe	-11613
▁Sov	-11614
▁Van	-11615
▁trium	-11616
▁Eventually	-11617
squ	-11618
what	-11619
screen	-11620
▁glucose	-11621
▁lie	-11622
▁communicating	-11623
hire	-11624
▁Doe	-11625
▁сво	-11626
▁reset	-11627
▁pastry	-11628
block	-11629
▁irrit	-11630
▁venue	-11631
▁contam	-11632
Part	-11633
heat	-11634
▁cord	-11635
▁drizzle	-11636
▁comforting	-11637
cir	-11638
arer	-11639
ogen	-11640
▁Fre	-11641
▁Sky	-11642
First	-11643
▁Fund	-11644
ashes	-11645
▁alarm	-11646
▁maybe	-11647
▁transmission	-11648
pay	-11649
anto	-11650
▁fork	-11651
▁drives	-11652
▁shining	-11653
▁pineapple	-11654
banana	-11655
▁pyram	-11656
iratory	-11657
▁legisl	-11658
▁Society	-11659
▁footsteps	-11660
vity	-11661
Frame	-11662
layer	-11663
▁broke	-11664
▁covering	-11665
▁—	-11666
▁0.0	-11667
fits	-11668
imer	-11669
icting	-11670
▁Tyler	-11671
▁Internet	-11672
▁substant	-11673
textContent	-11674
▁ric	-11675
▁guys	-11676
▁toast	-11677
▁Campaign	-11678
▁Pu	-11679
▁Die	-11680
stick	-11681
thread	-11682
▁Double	-11683
▁betray	-11684
▁conson	-11685
▁resort	-11686
▁literacy	-11687
▁calculation	-11688
▁gru	-11689
aland	-11690
▁personas	-11691
▁Il	-11692
stop	-11693
Range	-11694
▁piano	-11695
▁chunks	-11696
▁Reduced	-11697
2`	-11698
▁twe	-11699
▁tear	-11700
ivos	-11701
elect	-11702
▁ASCII	-11703
▁Irish	-11704
aghetti	-11705
▁Modern	-11706
▁conserve	-11707
▁Lu	-11708
isons	-11709
ocity	-11710
▁muff	-11711
▁Tokyo	-11712
▁acknowledge	-11713
▁cybersecurity	-11714
7)	-11715
uer	-11716
▁reject	-11717
▁contest	-11718
dimensional	-11719
.'	-11720
iar	-11721
▁Cub	-11722
▁angles	-11723
▁displacement	-11724
ema	-11725
Year	-11726
▁blo	-11727
▁silk	-11728
Column	-11729
▁chapter	-11730
▁outputs	-11731
Mon	-11732
}</	-11733
▁`[	-11734
▁sail	-11735
▁inclu	-11736
▁protocol	-11737
▁timestamp	-11738
▁complements	-11739
▁simulations	-11740
addEventListener	-11741
▁clay	-11742
▁flew	-11743
▁texts	-11744
emption	-11745
▁bitter	-11746
▁filename	-11747
gic	-11748
rette	-11749
▁chir	-11750
▁hosts	-11751
▁1⁄	-11752
▁editor	-11753
▁fragrance	-11754
▁sli	-11755
aline	-11756
▁Sund	-11757
▁bowls	-11758
▁photograp	-11759
▁underwater	-11760
▁electronics	-11761
LT	-11762
▁15,	-11763
layers	-11764
▁Control	-11765
▁probability	-11766
vari	-11767
▁MAX	-11768
▁woke	-11769
▁recorded	-11770
▁lightning	-11771
▁Wi	-11772
▁ма	-11773
▁drained	-11774
▁satell	-11775
▁glasses	-11776
▁Cultural	-11777
▁smartphone	-11778
dra	-11779
▁Op	-11780
cussion	-11781
▁visits	-11782
menu	-11783
▁lying	-11784
▁charges	-11785
▁continu	-11786
▁grandmother	-11787
▁interpretation	-11788
▁^	-11789
Click	-11790
Average	-11791
▁Recipe	-11792
▁uniform	-11793
▁seasoned	-11794
ped	-11795
dered	-11796
igraphy	-11797
▁fusion	-11798
▁February	-11799
▁displaying	-11800
▁Mars	-11801
▁Airbnb	-11802
▁fiction	-11803
▁entailed	-11804
▁softened	-11805
jud	-11806
xml	-11807
▁Way	-11808
▁proj	-11809
▁tart	-11810
▁Website	-11811
▁brighter	-11812
▁cohesive	-11813
▁employed	-11814
hyd	-11815
▁Graph	-11816
▁spine	-11817
▁Integer	-11818
▁searched	-11819
Div	-11820
▁ин	-11821
onds	-11822
rowave	-11823
▁loans	-11824
▁announce	-11825
▁respected	-11826
▁calculations	-11827
▁profitability	-11828
ati	-11829
▁но	-11830
align	-11831
▁Warm	-11832
▁funny	-11833
▁sushi	-11834
atabase	-11835
▁Golden	-11836
▁difere	-11837
▁differently	-11838
ту	-11839
vance	-11840
▁designer	-11841
▁accommodations	-11842
nut	-11843
Head	-11844
ennis	-11845
▁blind	-11846
▁cider	-11847
▁Office	-11848
▁temples	-11849
ió	-11850
▁се	-11851
racy	-11852
▁Tele	-11853
▁Gradu	-11854
▁despair	-11855
▁startup	-11856
▁complicated	-11857
▁accomplished	-11858
End	-11859
▁го	-11860
▁fluffy	-11861
▁desires	-11862
▁empower	-11863
▁databases	-11864
▁necessarily	-11865
▁Close	-11866
▁schema	-11867
▁keyboard	-11868
──	-11869
▁tub	-11870
▁Hall	-11871
▁Treat	-11872
▁asset	-11873
▁Garden	-11874
▁typography	-11875
▁smartphones	-11876
rum	-11877
POST	-11878
▁remot	-11879
▁Industry	-11880
▁interrupt	-11881
▁placement	-11882
▁transported	-11883
88	-11884
▁Mid	-11885
▁loose	-11886
▁Butter	-11887
▁adoles	-11888
▁proved	-11889
▁accidentally	-11890
▁hobby	-11891
▁nights	-11892
▁treacher	-11893
▁corporate	-11894
▁Traditional	-11895
ani	-11896
▁elig	-11897
▁deter	-11898
section	-11899
▁collecting	-11900
bert	-11901
rely	-11902
▁brill	-11903
▁halves	-11904
ensitive	-11905
ometer	-11906
▁afternoon	-11907
▁î	-11908
▁blanket	-11909
▁reprodu	-11910
▁skincare	-11911
▁withdraw	-11912
▁terrifying	-11913
Me	-11914
onday	-11915
itical	-11916
▁ships	-11917
▁toile	-11918
▁assume	-11919
▁minimalist	-11920
▁descriptive	-11921
▁instability	-11922
▁CD	-11923
kind	-11924
igious	-11925
▁boxes	-11926
▁hearty	-11927
▁subsid	-11928
▁Measure	-11929
▁Transportation	-11930
[0].	-11931
▁Report	-11932
▁transit	-11933
▁sandwiches	-11934
▁Story	-11935
▁Voice	-11936
▁unity	-11937
▁Cooking	-11938
1;	-11939
comb	-11940
ulty	-11941
▁350	-11942
inaig	-11943
▁Henry	-11944
▁differ	-11945
ét	-11946
ICA	-11947
oul	-11948
ции	-11949
▁precious	-11950
Bl	-11951
▁Aff	-11952
▁Spot	-11953
▁seal	-11954
uct	-11955
▁empire	-11956
▁statistical	-11957
▁arrangements	-11958
▁compound	-11959
▁hopes	-11960
▁clicks	-11961
▁Arts	-11962
▁cable	-11963
▁hills	-11964
▁masks	-11965
▁Assistant	-11966
▁aged	-11967
▁Lucas	-11968
▁grants	-11969
lyn	-11970
idst	-11971
▁Send	-11972
▁singer	-11973
▁balsamic	-11974
▁symbolic	-11975
▁Organization	-11976
▁gig	-11977
▁rid	-11978
looking	-11979
▁conveys	-11980
▁gaining	-11981
▁producers	-11982
empo	-11983
graph	-11984
hover	-11985
▁beads	-11986
▁regards	-11987
▁welcoming	-11988
▁manageable	-11989
Can	-11990
▁[4,	-11991
▁apre	-11992
▁prest	-11993
inaigrette	-11994
(5	-11995
Cre	-11996
▁Kit	-11997
command	-11998
▁costumes	-11999
▁exponent	-12000
▁introducing	-12001
API	-12002
iest	-12003
country	-12004
▁coated	-12005
▁listeners	-12006
""	-12007
án	-12008
send	-12009
anche	-12010
▁entrance	-12011
jpg	-12012
▁Because	-12013
}`	-12014
▁Obs	-12015
▁nurt	-12016
▁contexts	-12017
▁referring	-12018
▁Australian	-12019
tn	-12020
са	-12021
75°	-12022
elesc	-12023
uting	-12024
▁Order	-12025
▁tuple	-12026
▁Soviet	-12027
▁alerts	-12028
▁perhaps	-12029
▁posture	-12030
▁Additional	-12031
▁measurements	-12032
EX	-12033
ILE	-12034
agen	-12035
▁cada	-12036
▁Linux	-12037
▁ceiling	-12038
▁unusual	-12039
▁simulation	-12040
▁hospitality	-12041
('/	-12042
▁allerg	-12043
▁crafts	-12044
▁Partners	-12045
▁installing	-12046
IZ	-12047
▁29	-12048
▁eine	-12049
children	-12050
▁astronaut	-12051
▁highlighted	-12052
65	-12053
▁да	-12054
▁Harry	-12055
▁doubt	-12056
▁triggers	-12057
▁Beautiful	-12058
▁accounting	-12059
▁wilderness	-12060
ARA	-12061
▁ci	-12062
▁cats	-12063
▁Jenny	-12064
▁coral	-12065
▁Korean	-12066
▁worship	-12067
▁adjacent	-12068
▁emphasized	-12069
aki	-12070
▁Ra	-12071
numeric	-12072
▁mozzarella	-12073
▁де	-12074
▁Cour	-12075
ayenne	-12076
▁Louis	-12077
convert	-12078
sharing	-12079
negative	-12080
▁passions	-12081
▁severity	-12082
via	-12083
hash	-12084
▁Sara	-12085
▁Innov	-12086
ouraging	-12087
▁Challeng	-12088
▁haunting	-12089
▁turmeric	-12090
▁perimeter	-12091
asty	-12092
▁shine	-12093
▁tense	-12094
▁quizzes	-12095
▁illnesses	-12096
▁universal	-12097
1"	-12098
▁DATE	-12099
▁rival	-12100
▁violent	-12101
Step	-12102
▁fonts	-12103
▁lined	-12104
▁Amelia	-12105
▁iPhone	-12106
▁parser	-12107
▁sturdy	-12108
▁ROI	-12109
▁Trump	-12110
▁candy	-12111
amiliar	-12112
▁Medical	-12113
NS	-12114
asant	-12115
▁fails	-12116
▁truck	-12117
itarian	-12118
▁weekly	-12119
▁reasoning	-12120
ude	-12121
born	-12122
▁5-10	-12123
▁perman	-12124
▁Explore	-12125
conscious	-12126
▁endpoint	-12127
▁treacherous	-12128
▁VARCHAR	-12129
▁remotely	-12130
▁Employees	-12131
▁predictive	-12132
▁seasonings	-12133
laim	-12134
▁gust	-12135
▁dating	-12136
▁mostly	-12137
▁offset	-12138
▁superhero	-12139
44	-12140
▁sway	-12141
abetic	-12142
▁decay	-12143
▁oneself	-12144
▁centered	-12145
▁translates	-12146
▁Tay	-12147
acerb	-12148
▁treats	-12149
irection	-12150
▁Looking	-12151
▁relation	-12152
▁quicksort	-12153
▁milestones	-12154
Che	-12155
▁datos	-12156
▁requiring	-12157
▁Interactive	-12158
GB	-12159
was	-12160
[0])	-12161
grades	-12162
▁artis	-12163
▁cowork	-12164
▁flatten	-12165
▁workshop	-12166
EC	-12167
}:	-12168
▁Dij	-12169
▁pier	-12170
▁jacket	-12171
▁peeled	-12172
▁shifted	-12173
]{	-12174
irms	-12175
▁tener	-12176
▁может	-12177
▁hurric	-12178
▁shooting	-12179
▁cauliflower	-12180
▁hues	-12181
▁campus	-12182
▁intelligent	-12183
gre	-12184
burg	-12185
▁ghosts	-12186
▁rolled	-12187
▁exacerb	-12188
▁fantastic	-12189
Dec	-12190
▁PM	-12191
▁Having	-12192
▁sout	-12193
▁colored	-12194
▁scenery	-12195
▁defining	-12196
▁medieval	-12197
▁reliance	-12198
▁criticism	-12199
▁commission	-12200
▁pag	-12201
▁Marcus	-12202
▁amazed	-12203
▁mentorship	-12204
▁13,	-12205
▁USA	-12206
links	-12207
▁lazy	-12208
▁orche	-12209
outer	-12210
▁rasp	-12211
▁sensor	-12212
▁corners	-12213
▁nearest	-12214
▁Dog	-12215
▁Ott	-12216
▁tod	-12217
▁responding	-12218
ho	-12219
paper	-12220
▁lens	-12221
uminum	-12222
▁parsed	-12223
▁Electric	-12224
▁beginner	-12225
▁connects	-12226
▁startups	-12227
LP	-12228
▁gem	-12229
▁Limited	-12230
▁supposed	-12231
▁discovering	-12232
ordan	-12233
▁ripe	-12234
▁vida	-12235
▁cakes	-12236
▁charm	-12237
▁shout	-12238
▁исполь	-12239
▁boiling	-12240
▁collective	-12241
▁realm	-12242
▁varies	-12243
▁viewed	-12244
▁airport	-12245
▁outlines	-12246
▁allocation	-12247
exc	-12248
▁reh	-12249
normal	-12250
▁defeated	-12251
▁interval	-12252
▁multiplication	-12253
▁Ter	-12254
▁ram	-12255
▁surf	-12256
▁Spring	-12257
бы	-12258
Dis	-12259
paragus	-12260
transform	-12261
▁Williams	-12262
▁carbohydrates	-12263
▁Wil	-12264
eties	-12265
▁Collect	-12266
▁Located	-12267
▁dipping	-12268
▁repeatedly	-12269
igma	-12270
▁Plus	-12271
▁loving	-12272
▁worlds	-12273
▁closure	-12274
▁neglect	-12275
ouns	-12276
▁CEO	-12277
▁tus	-12278
▁Third	-12279
▁misunder	-12280
▁galleries	-12281
loss	-12282
▁2016	-12283
▁mism	-12284
resistant	-12285
▁election	-12286
giene	-12287
▁fills	-12288
▁metric	-12289
▁nodded	-12290
XX	-12291
▁`<	-12292
▁Pred	-12293
▁bass	-12294
▁allev	-12295
▁originated	-12296
жа	-12297
ajo	-12298
orie	-12299
Empty	-12300
Order	-12301
▁Seek	-12302
▁bucket	-12303
▁gradient	-12304
▁maintained	-12305
▁subsequent	-12306
uv	-12307
▁auf	-12308
▁mad	-12309
="#">	-12310
oston	-12311
▁antib	-12312
▁también	-12313
▁Egyptian	-12314
('.	-12315
ство	-12316
▁roy	-12317
▁Iran	-12318
▁nour	-12319
▁Heart	-12320
Process	-12321
▁deadly	-12322
▁necklace	-12323
▁respiratory	-12324
Dig	-12325
▁hik	-12326
▁laid	-12327
▁Civil	-12328
▁groom	-12329
▁coaches	-12330
▁renewed	-12331
▁vertical	-12332
Fil	-12333
ben	-12334
ías	-12335
asks	-12336
▁fade	-12337
▁Gothic	-12338
▁colonial	-12339
▁ordinary	-12340
ictionaries	-12341
miss	-12342
rapeut	-12343
▁ruins	-12344
▁listed	-12345
▁donation	-12346
▁revealing	-12347
▁positivity	-12348
▁scalability	-12349
\\	-12350
▁bay	-12351
bread	-12352
▁pharm	-12353
imiento	-12354
▁checked	-12355
▁си	-12356
adequ	-12357
rieve	-12358
▁pero	-12359
▁slower	-12360
▁topped	-12361
▁`$	-12362
legal	-12363
▁Nike	-12364
▁donate	-12365
▁compens	-12366
▁sleeping	-12367
etary	-12368
▁Four	-12369
$/	-12370
▁‘	-12371
("%	-12372
Val	-12373
elle	-12374
▁numeric	-12375
▁Northern	-12376
▁motivations	-12377
OL	-12378
▁Gal	-12379
▁tar	-12380
commun	-12381
minded	-12382
▁lively	-12383
▁sesame	-12384
ynthesis	-12385
:]	-12386
зы	-12387
▁Git	-12388
▁Panel	-12389
▁orient	-12390
ithmetic	-12391
▁shelves	-12392
duplicates	-12393
▁concerned	-12394
▁retrieves	-12395
description	-12396
"));	-12397
space	-12398
▁hugged	-12399
▁Richard	-12400
▁flooding	-12401
▁Sie	-12402
▁chose	-12403
▁strive	-12404
▁detected	-12405
▁experimental	-12406
iki	-12407
▁''.	-12408
▁lou	-12409
Title	-12410
▁Prot	-12411
pering	-12412
▁Sports	-12413
▁unlock	-12414
▁Fu	-12415
▁pi	-12416
aret	-12417
watch	-12418
▁meta	-12419
istent	-12420
▁therm	-12421
▁flames	-12422
▁gameplay	-12423
png	-12424
▁25,	-12425
▁Feel	-12426
▁icons	-12427
▁inhabit	-12428
▁configure	-12429
▁attracting	-12430
ву	-12431
▁¿	-12432
URL	-12433
lat	-12434
task	-12435
▁undergo	-12436
▁numerical	-12437
uego	-12438
▁Hard	-12439
▁patch	-12440
▁Battle	-12441
▁Scient	-12442
Inst	-12443
That	-12444
axis	-12445
▁193	-12446
▁ware	-12447
▁skept	-12448
▁vacuum	-12449
breaking	-12450
catching	-12451
▁Transfer	-12452
▁3-4	-12453
▁memb	-12454
▁Jewish	-12455
▁advocate	-12456
▁successes	-12457
itas	-12458
▁axis	-12459
▁larg	-12460
▁Stone	-12461
▁seating	-12462
▁educators	-12463
▁relatable	-12464
`).	-12465
▁dear	-12466
▁vote	-12467
▁forums	-12468
▁fertility	-12469
/2	-12470
▁/>	-12471
▁tien	-12472
▁zones	-12473
▁Making	-12474
mel	-12475
Items	-12476
auses	-12477
icket	-12478
▁musician	-12479
ographical	-12480
1_	-12481
mail	-12482
▁north	-12483
▁sunny	-12484
▁diagnosis	-12485
ersion	-12486
▁Rinse	-12487
angular	-12488
▁Turkey	-12489
▁rebuild	-12490
▁hierarchy	-12491
▁aggressive	-12492
cs	-12493
▁Mot	-12494
▁Swed	-12495
▁canned	-12496
▁Current	-12497
▁Drizzle	-12498
▁Catholic	-12499
hop	-12500
мен	-12501
▁(5	-12502
▁Cho	-12503
▁norms	-12504
▁tensor	-12505
▁melting	-12506
plete	-12507
▁scales	-12508
ascii	-12509
ernel	-12510
▁Negative	-12511
▁useState	-12512
How	-12513
het	-12514
▁cer	-12515
▁blends	-12516
▁Zealand	-12517
▁whereas	-12518
▁textiles	-12519
87	-12520
▁merc	-12521
▁married	-12522
▁crumbled	-12523
▁champions	-12524
bits	-12525
▁Oil	-12526
12345	-12527
▁Ruby	-12528
▁kiss	-12529
efined	-12530
▁navig	-12531
▁buffer	-12532
▁genuine	-12533
▁recognizing	-12534
зу	-12535
Resp	-12536
▁foil	-12537
▁happens	-12538
▁neighbors	-12539
▁journaling	-12540
▁2021	-12541
▁bean	-12542
▁hacer	-12543
▁smoky	-12544
▁strengthe	-12545
▁continuing	-12546
▁certification	-12547
▁straightforward	-12548
(2)	-12549
affe	-12550
▁Mess	-12551
▁publ	-12552
writer	-12553
▁jumps	-12554
▁lifted	-12555
▁drought	-12556
▁coherent	-12557
▁infections	-12558
▁assignments	-12559
EL	-12560
▁2017	-12561
▁lingu	-12562
▁Insert	-12563
▁citrus	-12564
▁narrator	-12565
▁alleviate	-12566
Que	-12567
inite	-12568
lined	-12569
rible	-12570
▁cush	-12571
archment	-12572
▁satisfies	-12573
!("	-12574
▁Lib	-12575
▁grams	-12576
▁Slowly	-12577
▁Collaboration	-12578
3:	-12579
ouch	-12580
elfare	-12581
▁JESSICA	-12582
▁fatigue	-12583
▁teenagers	-12584
▁Indigenous	-12585
'),	-12586
call	-12587
olism	-12588
▁darker	-12589
▁sauces	-12590
▁Improve	-12591
▁granola	-12592
▁feathers	-12593
▁portable	-12594
▁synchron	-12595
▁tortilla	-12596
▁permutations	-12597
make	-12598
▁bak	-12599
estock	-12600
▁100%;	-12601
▁Activ	-12602
iro	-12603
pol	-12604
▁Job	-12605
▁cashe	-12606
▁dancers	-12607
▁rack	-12608
otherapy	-12609
▁Meanwhile	-12610
izard	-12611
arrant	-12612
▁goodbye	-12613
▁Scottish	-12614
сли	-12615
▁marg	-12616
▁flows	-12617
▁hydrated	-12618
▁randomly	-12619
▁Challenges	-12620
▁notification	-12621
yer	-12622
fill	-12623
▁Ken	-12624
▁Toss	-12625
▁hint	-12626
▁adren	-12627
▁Safety	-12628
▁claimed	-12629
▁deadline	-12630
▁association	-12631
acos	-12632
▁Trust	-12633
flowers	-12634
▁relate	-12635
▁Charles	-12636
▁cayenne	-12637
▁sourced	-12638
▁consuming	-12639
UN	-12640
▁sword	-12641
▁tones	-12642
▁marvel	-12643
▁augmented	-12644
▁Strategies	-12645
▁appointment	-12646
iltered	-12647
▁speaks	-12648
▁attended	-12649
Controller	-12650
▁'0	-12651
rise	-12652
▁Rain	-12653
▁Potential	-12654
enta	-12655
types	-12656
▁Taylor	-12657
▁resume	-12658
▁sprouts	-12659
▁nan	-12660
пи	-12661
cache	-12662
▁gang	-12663
▁outs	-12664
culator	-12665
▁Prepare	-12666
▁planets	-12667
▁Intellig	-12668
▁galaxies	-12669
gged	-12670
▁zest	-12671
▁buyers	-12672
▁¡	-12673
meal	-12674
▁Fro	-12675
▁swing	-12676
▁Budget	-12677
▁motifs	-12678
▁microwave	-12679
▁crackers	-12680
▁relie	-12681
▁intens	-12682
▁advertise	-12683
aurant	-12684
▁Month	-12685
▁genes	-12686
▁applies	-12687
▁generator	-12688
▁neighborhoods	-12689
Handler	-12690
ometers	-12691
▁institution	-12692
▁Ly	-12693
▁Jordan	-12694
toString	-12695
discovery	-12696
▁enforcement	-12697
rals	-12698
esity	-12699
▁Down	-12700
▁resid	-12701
▁picnic	-12702
▁silent	-12703
▁Feedback	-12704
▁allocate	-12705
En	-12706
hism	-12707
ovie	-12708
rous	-12709
▁10)	-12710
otics	-12711
▁decade	-12712
▁finely	-12713
fat	-12714
▁300	-12715
▁moderate	-12716
▁Definitely	-12717
▁frequencies	-12718
ceans	-12719
▁Sound	-12720
▁freezer	-12721
UI	-12722
eros	-12723
▁invas	-12724
▁stroke	-12725
▁Protein	-12726
▁absence	-12727
▁slicing	-12728
▁Mountain	-12729
▁Optional	-12730
▁behavioral	-12731
▁appropriately	-12732
▁mine	-12733
▁wins	-12734
father	-12735
hedral	-12736
orical	-12737
▁pregn	-12738
▁portal	-12739
▁grammat	-12740
▁replied	-12741
▁resolved	-12742
жно	-12743
▁scram	-12744
▁Corpor	-12745
▁comedy	-12746
▁blueberries	-12747
▁END	-12748
▁south	-12749
▁rounded	-12750
▁regression	-12751
bec	-12752
▁nutty	-12753
▁rotate	-12754
▁relevance	-12755
▁victorious	-12756
yr	-12757
adr	-12758
zip	-12759
▁[0,	-12760
oting	-12761
▁fake	-12762
▁royal	-12763
▁Master	-12764
▁encrypt	-12765
▁impressed	-12766
▁personalities	-12767
alt	-12768
▁Did	-12769
▁lady	-12770
▁walnuts	-12771
▁eggplant	-12772
▁balancing	-12773
▁attachment	-12774
uz	-12775
▁toes	-12776
▁tackle	-12777
▁ambiance	-12778
▁confidential	-12779
bel	-12780
▁$3	-12781
hens	-12782
▁seeks	-12783
▁worker	-12784
▁banking	-12785
▁impress	-12786
▁humidity	-12787
▁marriage	-12788
▁embracing	-12789
temperature	-12790
null	-12791
▁Draw	-12792
▁Consum	-12793
▁Nations	-12794
▁newNode	-12795
▁pressing	-12796
▁economies	-12797
▁biom	-12798
▁Lower	-12799
▁grant	-12800
▁Advert	-12801
▁stimulate	-12802
job	-12803
▁(4	-12804
▁Kn	-12805
▁reef	-12806
writing	-12807
▁Recogn	-12808
▁hashtag	-12809
▁Wear	-12810
pective	-12811
▁freeze	-12812
▁tiempo	-12813
▁adjusted	-12814
▁officers	-12815
▁recharge	-12816
iat	-12817
ным	-12818
iana	-12819
idas	-12820
impse	-12821
occur	-12822
▁brut	-12823
iander	-12824
▁traps	-12825
▁debate	-12826
datetime	-12827
▁gallery	-12828
▁Schedule	-12829
▁Breakfast	-12830
▁infographics	-12831
elled	-12832
▁Live	-12833
▁rend	-12834
▁scav	-12835
iblings	-12836
▁plugin	-12837
▁monster	-12838
▁phenomen	-12839
▁thrilled	-12840
▁seriously	-12841
▁Stress	-12842
▁pursuit	-12843
▁devastating	-12844
▁Д	-12845
▁jam	-12846
▁unst	-12847
ocracy	-12848
▁depths	-12849
▁sexual	-12850
▁viewing	-12851
▁дру	-12852
entry	-12853
▁melt	-12854
▁aging	-12855
▁scoop	-12856
▁toxic	-12857
▁superior	-12858
RI	-12859
ims	-12860
ects	-12861
idays	-12862
▁salty	-12863
fficiency	-12864
▁athletic	-12865
▁digestion	-12866
pi	-12867
Rep	-12868
▁$5	-12869
▁Dar	-12870
verted	-12871
▁Limit	-12872
ologists	-12873
▁',	-12874
iden	-12875
▁CRM	-12876
▁nit	-12877
▁wise	-12878
which	-12879
▁mere	-12880
▁arrive	-12881
▁Quality	-12882
▁estimate	-12883
▁sensitivity	-12884
MM	-12885
▁dece	-12886
▁Platform	-12887
▁shifting	-12888
▁navigating	-12889
77	-12890
вля	-12891
▁Flask	-12892
▁laptop	-12893
▁crunchy	-12894
▁relying	-12895
▁spacecraft	-12896
▁ya	-12897
ques	-12898
▁eru	-12899
▁sklearn	-12900
▁discipline	-12901
▁ве	-12902
▁Dub	-12903
▁Fore	-12904
▁hire	-12905
▁lave	-12906
▁Think	-12907
▁Women	-12908
decimal	-12909
▁principle	-12910
▁varieties	-12911
▁workspace	-12912
▁insecurity	-12913
▁countryside	-12914
▁exhibitions	-12915
Soup	-12916
trim	-12917
▁aplic	-12918
▁distingu	-12919
▁suffered	-12920
▁troubleshoot	-12921
▁Ire	-12922
▁Pass	-12923
aining	-12924
▁2019,	-12925
imation	-12926
▁hunger	-12927
▁performers	-12928
▁revolutionize	-12929
9)	-12930
▁III	-12931
inery	-12932
▁Mill	-12933
▁lungs	-12934
▁screws	-12935
▁Sincerely	-12936
▁principal	-12937
▁frustrated	-12938
inflammatory	-12939
▁affirmations	-12940
▁administration	-12941
▁interconnected	-12942
▁representatives	-12943
ться	-12944
Token	-12945
▁APIs	-12946
▁gaps	-12947
▁Roast	-12948
▁glimpse	-12949
▁massage	-12950
▁receives	-12951
▁shortest	-12952
чно	-12953
▁EM	-12954
▁Put	-12955
▁cob	-12956
▁poet	-12957
▁stabil	-12958
▁optional	-12959
▁permissions	-12960
▁Sit	-12961
▁zip	-12962
▁Smooth	-12963
▁Account	-12964
▁Avocado	-12965
FL	-12966
bro	-12967
▁dur	-12968
▁Flor	-12969
likely	-12970
▁scored	-12971
▁theore	-12972
▁rankings	-12973
But	-12974
▁Three	-12975
▁Boston	-12976
▁winner	-12977
▁clicking	-12978
▁lavender	-12979
▁therapies	-12980
/4	-12981
1',	-12982
Net	-12983
shaped	-12984
▁exotic	-12985
employee	-12986
▁expresses	-12987
▁parchment	-12988
▁evaluating	-12989
▁raz	-12990
apore	-12991
▁disag	-12992
▁rides	-12993
▁serial	-12994
▁exceeds	-12995
▁lasagna	-12996
▁biological	-12997
idos	-12998
▁1960	-12999
issors	-13000
▁hygiene	-13001
▁domestic	-13002
▁podcasts	-13003
▁specializes	-13004
▁£	-13005
sen	-13006
▁"\	-13007
▁sits	-13008
csharp	-13009
▁judge	-13010
▁Cheese	-13011
▁largely	-13012
▁welfare	-13013
factorial	-13014
▁Individuals	-13015
йте	-13016
▁Ari	-13017
oster	-13018
▁trap	-13019
▁loves	-13020
▁Programs	-13021
▁marinade	-13022
▁inquiries	-13023
▁everywhere	-13024
▁illustrations	-13025
swift	-13026
▁succ	-13027
▁swaps	-13028
discipl	-13029
▁Future	-13030
▁apolog	-13031
▁Express	-13032
▁photographs	-13033
▁vinaigrette	-13034
dings	-13035
▁cues	-13036
rences	-13037
▁Board	-13038
▁Stack	-13039
▁ranges	-13040
▁advocacy	-13041
▁promptly	-13042
amom	-13043
▁rug	-13044
▁oldest	-13045
▁feeding	-13046
FT	-13047
▁pel	-13048
▁yarn	-13049
▁crash	-13050
▁emerge	-13051
▁distort	-13052
▁flights	-13053
▁lob	-13054
paced	-13055
▁Meas	-13056
usters	-13057
▁forma	-13058
▁stays	-13059
▁Engaging	-13060
▁pleasure	-13061
▁rainfall	-13062
▁automatic	-13063
▁repetition	-13064
▁mathematics	-13065
(_	-13066
▁"<	-13067
▁Bh	-13068
▁ca	-13069
▁km	-13070
ented	-13071
▁100,	-13072
umatic	-13073
havioral	-13074
week	-13075
▁Lack	-13076
▁lamb	-13077
▁sausage	-13078
▁compatibility	-13079
▁2]	-13080
neys	-13081
sung	-13082
▁AVG	-13083
adium	-13084
▁trab	-13085
▁weigh	-13086
▁originally	-13087
▁Professional	-13088
DA	-13089
auth	-13090
eared	-13091
▁Swap	-13092
▁otros	-13093
▁shimmer	-13094
Component	-13095
▁diferent	-13096
ENT	-13097
Rem	-13098
adec	-13099
athon	-13100
▁MySQL	-13101
▁raced	-13102
amiento	-13103
execute	-13104
▁measured	-13105
▁proactive	-13106
obic	-13107
matic	-13108
onder	-13109
▁Satur	-13110
▁Systems	-13111
▁credits	-13112
▁Na	-13113
ABLE	-13114
▁flick	-13115
▁saves	-13116
▁Minister	-13117
▁promised	-13118
▁trailing	-13119
Pl	-13120
ajor	-13121
Grade	-13122
Query	-13123
World	-13124
imedia	-13125
▁Indones	-13126
▁stranger	-13127
▁accompanied	-13128
[::	-13129
aba	-13130
▁1980	-13131
▁knee	-13132
access	-13133
▁Quick	-13134
▁draft	-13135
▁degrad	-13136
▁undert	-13137
▁circles	-13138
background	-13139
▁replacing	-13140
▁Encouraging	-13141
Hel	-13142
▁bananas	-13143
▁wonders	-13144
▁perceived	-13145
%,	-13146
▁Tor	-13147
▁Never	-13148
▁Coconut	-13149
▁collapse	-13150
▁sticking	-13151
▁decorated	-13152
Do	-13153
van	-13154
IMIT	-13155
▁120	-13156
▁gut	-13157
▁counting	-13158
Box	-13159
▁caps	-13160
▁appet	-13161
location	-13162
бе	-13163
▁hill	-13164
▁Daniel	-13165
▁thriving	-13166
▁detective	-13167
▁Commission	-13168
▁suspicious	-13169
Press	-13170
umbling	-13171
▁pollut	-13172
▁electro	-13173
▁attraction	-13174
▁newsletter	-13175
venue	-13176
▁curve	-13177
▁compact	-13178
▁thanked	-13179
▁thunder	-13180
▁Audience	-13181
▁Canadian	-13182
▁stretches	-13183
(*)	-13184
isure	-13185
▁sink	-13186
market	-13187
▁dil	-13188
green	-13189
▁adorn	-13190
ishment	-13191
database	-13192
▁calligraphy	-13193
>`	-13194
ima	-13195
▁onclick	-13196
=1	-13197
YY	-13198
▁cm	-13199
▁fif	-13200
чески	-13201
▁mamm	-13202
themed	-13203
▁buses	-13204
▁Listen	-13205
Property	-13206
▁compression	-13207
▁requirement	-13208
▁feas	-13209
Format	-13210
▁functionalities	-13211
sche	-13212
encil	-13213
▁span	-13214
domain	-13215
▁relies	-13216
▁mechanical	-13217
oval	-13218
Submit	-13219
▁tastes	-13220
▁thrown	-13221
▁ejemplo	-13222
▁foreach	-13223
▁license	-13224
▁horizont	-13225
▁corrected	-13226
▁Continuous	-13227
▁installations	-13228
ran	-13229
▁Sin	-13230
▁Fold	-13231
▁byte	-13232
nested	-13233
▁spells	-13234
economic	-13235
▁redirect	-13236
▁anticipation	-13237
▁че	-13238
▁Foot	-13239
arroll	-13240
▁cheer	-13241
▁escal	-13242
bean	-13243
diff	-13244
<>();	-13245
ogram	-13246
return	-13247
▁Jones	-13248
▁queen	-13249
onnaise	-13250
▁factory	-13251
▁operates	-13252
▁Integration	-13253
Hash	-13254
▁Hill	-13255
▁Scot	-13256
Stream	-13257
▁hiring	-13258
▁bedroom	-13259
▁inherit	-13260
▁wrapped	-13261
▁partnering	-13262
BS	-13263
prise	-13264
▁chef	-13265
Source	-13266
▁wound	-13267
odegrad	-13268
▁liking	-13269
▁surgery	-13270
▁assistants	-13271
loat	-13272
▁boots	-13273
▁unfold	-13274
▁Reverse	-13275
▁browsing	-13276
cn	-13277
aky	-13278
aple	-13279
Regex	-13280
▁Mand	-13281
▁preg	-13282
HO	-13283
core	-13284
orse	-13285
▁hue	-13286
▁Bell	-13287
▁lands	-13288
▁safer	-13289
▁Section	-13290
▁therapeut	-13291
▁3]	-13292
star	-13293
flower	-13294
▁Honey	-13295
▁bikes	-13296
▁landed	-13297
▁Ads	-13298
▁Assign	-13299
▁Palace	-13300
▁overflow	-13301
▁headphones	-13302
▁EU	-13303
oggle	-13304
▁Okay	-13305
▁Stat	-13306
▁deleg	-13307
▁faint	-13308
▁python	-13309
contains	-13310
cm	-13311
▁KE	-13312
flix	-13313
oque	-13314
▁mim	-13315
▁tied	-13316
▁Author	-13317
▁equally	-13318
recursive	-13319
▁Reducing	-13320
▁aluminum	-13321
▁timeless	-13322
▁dependent	-13323
▁psychology	-13324
(`	-13325
mond	-13326
▁Tal	-13327
▁[5,	-13328
▁Virgin	-13329
▁lowest	-13330
▁dictionaries	-13331
▁intersection	-13332
FA	-13333
ря	-13334
nda	-13335
▁-2	-13336
icul	-13337
▁Moon	-13338
▁theories	-13339
▁scheduled	-13340
▁scientist	-13341
▁Fahrenheit	-13342
DP	-13343
oen	-13344
hell	-13345
params	-13346
▁prize	-13347
▁fallen	-13348
▁Agricult	-13349
▁utilizes	-13350
▁disruptions	-13351
+1]	-13352
strong	-13353
▁shelf	-13354
▁Parent	-13355
▁origins	-13356
▁arranged	-13357
▁architects	-13358
▁Dom	-13359
▁LUC	-13360
asser	-13361
▁Adobe	-13362
▁Dijon	-13363
▁nutmeg	-13364
adecimal	-13365
▁Character	-13366
hour	-13367
▁1970	-13368
▁whom	-13369
▁cafes	-13370
▁rigor	-13371
▁bamboo	-13372
▁contrad	-13373
▁Strategy	-13374
El	-13375
об	-13376
olly	-13377
▁adapting	-13378
▁advances	-13379
▁wireless	-13380
▁brainstorm	-13381
▁Dead	-13382
▁chedd	-13383
▁suffer	-13384
▁coating	-13385
▁occasions	-13386
healthy	-13387
▁Ireland	-13388
▁circuit	-13389
▁heights	-13390
▁ordered	-13391
▁prolong	-13392
▁bathroom	-13393
hib	-13394
ulo	-13395
orses	-13396
▁sheets	-13397
▁chop	-13398
▁cure	-13399
▁tribe	-13400
▁locked	-13401
▁pandas	-13402
Elements	-13403
▁cheddar	-13404
▁ArrayList	-13405
anny	-13406
default	-13407
▁candle	-13408
▁classify	-13409
▁medications	-13410
▁golf	-13411
▁Award	-13412
quantity	-13413
▁athlete	-13414
▁contracts	-13415
▁observations	-13416
▁ú	-13417
(10	-13418
вле	-13419
▁Lo	-13420
duce	-13421
00,000	-13422
▁rocky	-13423
▁Finnish	-13424
▁livestock	-13425
▁substantial	-13426
iasm	-13427
plate	-13428
results	-13429
▁tribes	-13430
▁siblings	-13431
"),	-13432
osph	-13433
enter	-13434
▁Conc	-13435
ussels	-13436
▁leaks	-13437
▁trace	-13438
▁asleep	-13439
▁floods	-13440
▁smells	-13441
▁teaches	-13442
▁terminal	-13443
Palindrome	-13444
▁captivating	-13445
▁couch	-13446
▁oceans	-13447
dictionary	-13448
Ed	-13449
NO	-13450
▁scra	-13451
▁twists	-13452
document	-13453
▁dominant	-13454
▁Collaborate	-13455
▁masterpiece	-13456
aph	-13457
ckets	-13458
▁Works	-13459
▁stove	-13460
▁autumn	-13461
▁uncovered	-13462
▁Techniques	-13463
▁celebrations	-13464
▁Т	-13465
▁Wed	-13466
▁Upon	-13467
▁suited	-13468
▁tricks	-13469
ICE	-13470
▁Cas	-13471
▁MAR	-13472
▁jog	-13473
fruit	-13474
orian	-13475
otype	-13476
urous	-13477
▁Series	-13478
▁crafted	-13479
▁inadequ	-13480
▁extracts	-13481
▁thrilling	-13482
▁neighboring	-13483
1]	-13484
=0	-13485
you	-13486
alog	-13487
▁1990	-13488
▁Breat	-13489
▁possibly	-13490
▁scalable	-13491
▁researching	-13492
▁BB	-13493
From	-13494
blem	-13495
ighest	-13496
udents	-13497
▁drove	-13498
weetened	-13499
▁Gratitude	-13500
▁territory	-13501
▁Justification	-13502
cium	-13503
▁Egg	-13504
ensed	-13505
ensus	-13506
parts	-13507
▁conoc	-13508
▁biking	-13509
▁exterior	-13510
▁convinced	-13511
▁executing	-13512
▁repeating	-13513
▁restoration	-13514
▁dissatisfaction	-13515
)"	-13516
olen	-13517
▁plag	-13518
atches	-13519
▁prayer	-13520
▁diamond	-13521
▁shaking	-13522
▁leftover	-13523
worthy	-13524
▁fairy	-13525
▁metall	-13526
fortable	-13527
▁Creative	-13528
▁Features	-13529
▁Southern	-13530
▁maintains	-13531
▁Prioritize	-13532
▁separately	-13533
▁Below	-13534
▁audit	-13535
▁usual	-13536
▁Agency	-13537
▁Buddhism	-13538
⠀⠀	-13539
iply	-13540
▁Ram	-13541
▁Marg	-13542
Context	-13543
▁imaging	-13544
▁phenomenon	-13545
▁publication	-13546
Fe	-13547
oons	-13548
aping	-13549
emory	-13550
▁pant	-13551
▁Years	-13552
reversed	-13553
▁parsing	-13554
▁observing	-13555
▁autonomous	-13556
aza	-13557
tica	-13558
5,000	-13559
▁cube	-13560
▁Reach	-13561
▁Right	-13562
▁Trello	-13563
▁Imagine	-13564
consuming	-13565
▁Singapore	-13566
▁occasional	-13567
▁authenticity	-13568
save	-13569
ycle	-13570
irrel	-13571
▁hips	-13572
chools	-13573
▁Quant	-13574
▁Snack	-13575
▁reass	-13576
▁Muslim	-13577
▁acquire	-13578
▁venture	-13579
▁<?	-13580
uits	-13581
▁20%	-13582
▁chip	-13583
▁Gather	-13584
ceptions	-13585
▁talents	-13586
SA	-13587
Act	-13588
▁lí	-13589
▁под	-13590
▁2010	-13591
liament	-13592
▁petals	-13593
35	-13594
boy	-13595
onde	-13596
▁так	-13597
▁Flex	-13598
Primes	-13599
▁newly	-13600
▁reign	-13601
▁Celsius	-13602
▁annually	-13603
▁Blockchain	-13604
▁compassionate	-13605
Car	-13606
про	-13607
▁PC	-13608
exist	-13609
▁portra	-13610
Selector	-13611
▁Advanced	-13612
▁formatting	-13613
aka	-13614
dem	-13615
shadow	-13616
starch	-13617
▁breasts	-13618
▁touched	-13619
▁worries	-13620
▁regarded	-13621
▁ll	-13622
iser	-13623
oder	-13624
positive	-13625
▁Government	-13626
cons	-13627
door	-13628
▁jars	-13629
▁profic	-13630
▁concerts	-13631
▁chemistry	-13632
▁bicy	-13633
▁grape	-13634
▁smoking	-13635
68	-13636
azing	-13637
▁Subst	-13638
▁impair	-13639
▁vendor	-13640
▁Florida	-13641
▁obesity	-13642
▁correlation	-13643
▁breakthrough	-13644
itz	-13645
apor	-13646
▁enorm	-13647
▁perse	-13648
ventory	-13649
▁permit	-13650
▁traged	-13651
Argument	-13652
▁suspense	-13653
▁â	-13654
▁Les	-13655
▁fres	-13656
▁rings	-13657
▁senior	-13658
▁surreal	-13659
▁registered	-13660
▁transforming	-13661
▁BeautifulSoup	-13662
2_	-13663
▁ou	-13664
REATE	-13665
▁sends	-13666
▁derived	-13667
▁adrenaline	-13668
▁bedtime	-13669
▁hospitals	-13670
odegradable	-13671
iy	-13672
▁Bul	-13673
alted	-13674
▁storms	-13675
▁Samsung	-13676
▁persona	-13677
▁rhythms	-13678
▁weaving	-13679
▁intermed	-13680
▁Engagement	-13681
▁demonstrating	-13682
](	-13683
▁oct	-13684
electric	-13685
▁Practicing	-13686
▁coordinate	-13687
▁enthusiasm	-13688
▁á	-13689
▁Deb	-13690
▁Hay	-13691
▁needle	-13692
▁arrival	-13693
▁spaghetti	-13694
▁challenged	-13695
зи	-13696
▁9:	-13697
▁Fun	-13698
subject	-13699
▁Celebrate	-13700
▁digestive	-13701
▁150	-13702
espan	-13703
falls	-13704
▁Only	-13705
▁Push	-13706
▁bark	-13707
▁injured	-13708
▁clearing	-13709
▁mu	-13710
urse	-13711
▁Boo	-13712
equal	-13713
▁Ethan	-13714
▁Friday	-13715
ications	-13716
▁crushed	-13717
character	-13718
▁Olympics	-13719
▁webinars	-13720
▁structural	-13721
IO	-13722
ubble	-13723
▁tune	-13724
module	-13725
▁Moroc	-13726
▁vertex	-13727
▁Players	-13728
▁faculty	-13729
[0-9	-13730
▁Son	-13731
▁Compar	-13732
▁unlikely	-13733
▁representative	-13734
sers	-13735
wing	-13736
rowth	-13737
▁bomb	-13738
affeine	-13739
▁staple	-13740
▁breadcr	-13741
▁reputable	-13742
▁supplement	-13743
RA	-13744
}\	-13745
vens	-13746
▁sug	-13747
▁Dream	-13748
▁penal	-13749
▁stops	-13750
isalpha	-13751
▁shifts	-13752
▁counsel	-13753
▁baseball	-13754
▁cellular	-13755
▁reminding	-13756
aine	-13757
▁bind	-13758
▁hover	-13759
▁socio	-13760
▁Advent	-13761
▁teachings	-13762
▁31	-13763
ropy	-13764
▁Syd	-13765
shine	-13766
▁kidn	-13767
▁aspir	-13768
▁Monday	-13769
▁Promote	-13770
aa	-13771
kt	-13772
și	-13773
Each	-13774
▁Tes	-13775
▁für	-13776
▁могу	-13777
▁Price	-13778
▁gestures	-13779
--;	-13780
icon	-13781
▁Army	-13782
Filter	-13783
oneous	-13784
▁Square	-13785
▁sacred	-13786
▁coriander	-13787
ASE	-13788
▁ho	-13789
▁Viet	-13790
▁persu	-13791
▁decomp	-13792
category	-13793
▁privile	-13794
▁pudding	-13795
▁Relations	-13796
▁PT	-13797
umpl	-13798
▁123	-13799
roduct	-13800
▁fries	-13801
▁blades	-13802
▁solace	-13803
▁Complex	-13804
▁Welcome	-13805
▁conquer	-13806
▁shallow	-13807
▁checkout	-13808
▁SSL	-13809
▁fault	-13810
contact	-13811
▁Library	-13812
▁pointed	-13813
▁triumph	-13814
▁producer	-13815
mi	-13816
hou	-13817
▁Gall	-13818
scores	-13819
▁scrub	-13820
▁Anc	-13821
liness	-13822
▁rounds	-13823
ér	-13824
▁2015	-13825
▁375°	-13826
▁revel	-13827
▁Compet	-13828
▁phones	-13829
▁telesc	-13830
нь	-13831
peror	-13832
▁inhib	-13833
▁Michel	-13834
▁bounce	-13835
▁automotive	-13836
▁insulation	-13837
▁regulating	-13838
tage	-13839
▁NIGHT	-13840
▁Congress	-13841
▁executive	-13842
▁iterations	-13843
▁similarities	-13844
aria	-13845
▁190	-13846
iable	-13847
▁2020,	-13848
▁juicy	-13849
▁pairing	-13850
▁mayonnaise	-13851
▁mitigating	-13852
▁adventurous	-13853
idx	-13854
▁'/	-13855
▁Amy	-13856
apsed	-13857
static	-13858
▁agreements	-13859
Term	-13860
akespe	-13861
▁Goals	-13862
▁Level	-13863
▁chamber	-13864
▁labeled	-13865
▁thermal	-13866
▁compounds	-13867
▁cucumbers	-13868
▁qualified	-13869
ko	-13870
enes	-13871
▁ash	-13872
▁intr	-13873
▁odds	-13874
▁counc	-13875
urchase	-13876
▁specifications	-13877
bling	-13878
▁brid	-13879
Americ	-13880
▁Quinoa	-13881
akespeare	-13882
▁disposal	-13883
PN	-13884
TH	-13885
▁RE	-13886
mers	-13887
▁16.	-13888
▁unt	-13889
▁News	-13890
▁corrupt	-13891
▁daunting	-13892
eur	-13893
[-1]	-13894
▁deck	-13895
▁knot	-13896
achers	-13897
▁Phone	-13898
ologist	-13899
▁dollars	-13900
гра	-13901
▁Merge	-13902
▁lucky	-13903
▁Better	-13904
▁Netflix	-13905
▁adverse	-13906
▁Challenge	-13907
▁companions	-13908
ор	-13909
cos	-13910
sts	-13911
ymes	-13912
▁-->	-13913
hetics	-13914
▁loaded	-13915
▁pounds	-13916
▁statue	-13917
▁exhausted	-13918
▁otherworld	-13919
▁continually	-13920
▁picturesque	-13921
chi	-13922
▁bol	-13923
▁Corn	-13924
people	-13925
▁Large	-13926
▁invite	-13927
▁stating	-13928
▁developer	-13929
▁indicators	-13930
▁Identifying	-13931
iza	-13932
acam	-13933
arcity	-13934
▁Along	-13935
▁grounds	-13936
▁warrant	-13937
▁plastics	-13938
[$	-13939
=$(	-13940
nod	-13941
relu	-13942
▁-1,	-13943
heric	-13944
ouses	-13945
vious	-13946
▁Drop	-13947
▁embed	-13948
▁Sunday	-13949
▁albums	-13950
▁administrative	-13951
PR	-13952
▁ви	-13953
▁-1;	-13954
▁lad	-13955
▁Caesar	-13956
▁invited	-13957
▁tissues	-13958
▁Businesses	-13959
▁determines	-13960
cin	-13961
igan	-13962
ifted	-13963
orithm	-13964
▁downs	-13965
▁midst	-13966
▁essays	-13967
▁traverse	-13968
▁predicted	-13969
▁ст	-13970
▁Tea	-13971
▁Snow	-13972
▁thrill	-13973
▁satellite	-13974
▁cornstarch	-13975
▁tournament	-13976
▁disappeared	-13977
▁collaborating	-13978
bet	-13979
Call	-13980
▁Beat	-13981
▁Chatb	-13982
▁asparagus	-13983
CL	-13984
▁tank	-13985
▁Dance	-13986
▁Mongo	-13987
Student	-13988
acamole	-13989
▁biology	-13990
▁desarroll	-13991
▁dependence	-13992
▁percussion	-13993
▁bee	-13994
▁brace	-13995
▁witch	-13996
▁revenge	-13997
▁unsalted	-13998
BM	-13999
aya	-14000
omy	-14001
AVING	-14002
▁duty	-14003
▁ling	-14004
▁Products	-14005
PL	-14006
orns	-14007
▁bron	-14008
▁capac	-14009
inis	-14010
▁Days	-14011
▁tale	-14012
▁Style	-14013
▁exhibition	-14014
▁opposition	-14015
▁*=	-14016
amos	-14017
inth	-14018
▁currents	-14019
▁explains	-14020
▁metadata	-14021
▁Early	-14022
▁Short	-14023
▁farms	-14024
nextInt	-14025
▁outlined	-14026
▁Shakespeare	-14027
▁unconventional	-14028
(0)	-14029
▁'__	-14030
gered	-14031
energy	-14032
▁learns	-14033
▁puedes	-14034
▁encoding	-14035
▁encounters	-14036
▁excellence	-14037
85	-14038
▁PDF	-14039
epend	-14040
▁Steve	-14041
▁Animal	-14042
▁Eating	-14043
▁stitch	-14044
▁adolesc	-14045
▁brilliant	-14046
▁dynamically	-14047
▁communications	-14048
opol	-14049
▁esta	-14050
▁browse	-14051
▁District	-14052
▁hundreds	-14053
▁releasing	-14054
▁infectious	-14055
.</	-14056
▁?>	-14057
▁Walk	-14058
▁knock	-14059
▁builds	-14060
▁explos	-14061
▁Charlie	-14062
▁printer	-14063
▁simpler	-14064
▁mushroom	-14065
▁Artificial	-14066
elta	-14067
uras	-14068
▁Gate	-14069
▁league	-14070
▁rugged	-14071
ordinary	-14072
▁enduring	-14073
▁perfection	-14074
▁vegetation	-14075
▁advancement	-14076
▁comparisons	-14077
▁photosynthesis	-14078
aux	-14079
sur	-14080
▁JACK	-14081
▁comed	-14082
▁Response	-14083
▁therapeutic	-14084
rades	-14085
▁demons	-14086
▁darkest	-14087
▁elegance	-14088
▁finances	-14089
▁complaints	-14090
Te	-14091
Exp	-14092
ний	-14093
▁'';	-14094
▁Boy	-14095
▁tum	-14096
▁podr	-14097
▁Simple	-14098
▁confir	-14099
▁google	-14100
products	-14101
▁suspect	-14102
▁dropdown	-14103
▁aftermath	-14104
Du	-14105
food	-14106
▁sch	-14107
agonal	-14108
levant	-14109
▁sorcerer	-14110
▁terrible	-14111
▁incentivize	-14112
▁complementary	-14113
▁rope	-14114
▁Coast	-14115
▁Index	-14116
▁consp	-14117
dataset	-14118
▁guarantee	-14119
▁controvers	-14120
▁outstanding	-14121
atar	-14122
▁Pak	-14123
aways	-14124
idery	-14125
▁Drive	-14126
written	-14127
▁cooler	-14128
▁recruit	-14129
ifference	-14130
▁sparkling	-14131
vised	-14132
▁Such	-14133
▁dissol	-14134
▁Baroque	-14135
▁prosperity	-14136
.";	-14137
▁бу	-14138
▁mango	-14139
▁physi	-14140
▁Disney	-14141
▁cocktail	-14142
▁particle	-14143
▁unemploy	-14144
▁wondered	-14145
▁experimentation	-14146
anna	-14147
▁http	-14148
▁mart	-14149
▁tong	-14150
▁пере	-14151
▁Court	-14152
▁Sydney	-14153
▁insertion	-14154
ih	-14155
6789	-14156
ynchron	-14157
▁Filter	-14158
▁throwing	-14159
▁instincts	-14160
▁seemingly	-14161
▁governance	-14162
hex	-14163
oro	-14164
▁ja	-14165
fare	-14166
mart	-14167
square	-14168
▁Study	-14169
▁soups	-14170
▁awarded	-14171
▁roasting	-14172
▁witnessed	-14173
▁Automation	-14174
▁unsweetened	-14175
▁competitions	-14176
zo	-14177
ecd	-14178
lot	-14179
sey	-14180
▁Bon	-14181
▁Georg	-14182
▁theft	-14183
▁deleted	-14184
ного	-14185
▁fal	-14186
▁momentum	-14187
▁afterlife	-14188
GC	-14189
▁лю	-14190
atal	-14191
▁Luna	-14192
▁fles	-14193
▁Drain	-14194
▁Remote	-14195
▁fluctu	-14196
▁inserted	-14197
▁richness	-14198
▁impactful	-14199
▁multimedia	-14200
▁identification	-14201
ifer	-14202
▁Optim	-14203
▁shiny	-14204
▁Walking	-14205
web	-14206
attr	-14207
▁Jeff	-14208
▁Nick	-14209
▁cual	-14210
▁delet	-14211
▁confused	-14212
▁assignment	-14213
Eng	-14214
Tag	-14215
▁binding	-14216
▁gateway	-14217
▁civilizations	-14218
▁Э	-14219
non	-14220
▁10%	-14221
▁Watch	-14222
▁anecd	-14223
▁tempt	-14224
▁Claire	-14225
▁lifting	-14226
lowercase	-14227
▁desperate	-14228
▁explaining	-14229
▁measurement	-14230
Det	-14231
▁Bowl	-14232
volent	-14233
▁Israel	-14234
▁Joseph	-14235
▁balloon	-14236
▁profits	-14237
▁forgotten	-14238
▁thickness	-14239
▁ma	-14240
issa	-14241
▁Sep	-14242
▁gel	-14243
effect	-14244
▁uncom	-14245
▁dances	-14246
▁retailer	-14247
igs	-14248
▁NAS	-14249
Create	-14250
aluable	-14251
▁deaths	-14252
▁Alexander	-14253
▁impacting	-14254
▁Lind	-14255
▁Soup	-14256
▁Town	-14257
▁satisfy	-14258
▁hormones	-14259
▁intimate	-14260
phr	-14261
▁GPS	-14262
▁SARA	-14263
▁ties	-14264
Action	-14265
▁20-25	-14266
▁owned	-14267
▁seats	-14268
ailable	-14269
filtered	-14270
▁Therapy	-14271
ethe	-14272
ilty	-14273
ulus	-14274
Level	-14275
ainer	-14276
▁2014	-14277
▁Kate	-14278
▁compr	-14279
▁Stream	-14280
▁fibers	-14281
ís	-14282
ova	-14283
▁Sel	-14284
scape	-14285
▁ward	-14286
▁bloom	-14287
▁embar	-14288
▁Argent	-14289
▁blended	-14290
▁officer	-14291
udo	-14292
safe	-14293
cycle	-14294
pless	-14295
render	-14296
▁15-20	-14297
▁stolen	-14298
▁homeown	-14299
▁hormone	-14300
▁outlook	-14301
▁arrangement	-14302
▁prestigious	-14303
▁disappointment	-14304
jar	-14305
▁Wars	-14306
ersonal	-14307
▁lifespan	-14308
▁realizes	-14309
▁variation	-14310
▁earthquake	-14311
▁appointments	-14312
▁conventional	-14313
▁otherworldly	-14314
kl	-14315
▁17,	-14316
▁Arm	-14317
▁Jam	-14318
eller	-14319
inance	-14320
itutes	-14321
▁draws	-14322
▁extens	-14323
▁pocket	-14324
-01	-14325
uven	-14326
▁Saint	-14327
▁Tesla	-14328
▁freel	-14329
▁breach	-14330
▁olives	-14331
▁rebels	-14332
▁smiling	-14333
▁Para	-14334
▁fatty	-14335
▁crowds	-14336
▁relied	-14337
▁accepting	-14338
▁inflation	-14339
▁contrasting	-14340
49	-14341
▁Cab	-14342
▁Han	-14343
▁fry	-14344
▁Merc	-14345
▁Tony	-14346
▁Secret	-14347
▁neurons	-14348
▁Bible	-14349
▁mayor	-14350
▁crimes	-14351
▁shells	-14352
▁intervals	-14353
▁similarity	-14354
▁М	-14355
вет	-14356
Queue	-14357
▁Outro	-14358
▁Champions	-14359
▁excluding	-14360
▁permission	-14361
querySelector	-14362
-%	-14363
▁Lent	-14364
▁booth	-14365
▁mundo	-14366
▁landmark	-14367
BI	-14368
▁1-	-14369
cies	-14370
▁bulk	-14371
▁drones	-14372
▁tragic	-14373
▁democratic	-14374
▁directories	-14375
▁presentations	-14376
▁Carl	-14377
▁Excel	-14378
▁regex	-14379
onymous	-14380
▁Strong	-14381
▁roller	-14382
▁accused	-14383
▁assembly	-14384
▁prospects	-14385
▁specialize	-14386
▁".	-14387
aven	-14388
▁BBQ	-14389
▁Sci	-14390
erves	-14391
▁boys	-14392
▁buddy	-14393
▁rinse	-14394
▁Memory	-14395
▁gloves	-14396
▁repairs	-14397
▁chirping	-14398
▁Eve	-14399
Employ	-14400
▁INTER	-14401
success	-14402
▁relent	-14403
▁Counter	-14404
▁negotiations	-14405
>(	-14406
doub	-14407
stro	-14408
▁pile	-14409
▁embro	-14410
▁kinds	-14411
▁Victoria	-14412
▁scarcity	-14413
+1):	-14414
iley	-14415
▁rod	-14416
▁chairs	-14417
▁Persian	-14418
▁pulling	-14419
▁Intelligence	-14420
200	-14421
ipt	-14422
iler	-14423
unes	-14424
▁Gro	-14425
▁Pic	-14426
tails	-14427
▁Vitam	-14428
▁Skills	-14429
▁regret	-14430
▁leisure	-14431
▁graduate	-14432
▁Measuring	-14433
▁persistence	-14434
dam	-14435
Load	-14436
▁5-7	-14437
annah	-14438
oenix	-14439
▁snap	-14440
linear	-14441
▁switching	-14442
▁intentions	-14443
---	-14444
corn	-14445
love	-14446
▁Ash	-14447
abella	-14448
▁allies	-14449
▁cardio	-14450
▁solved	-14451
▁Schools	-14452
parameters	-14453
▁mysteries	-14454
▁permanent	-14455
▁describing	-14456
▁observation	-14457
Pal	-14458
visor	-14459
▁Jacob	-14460
▁moistur	-14461
▁nostalg	-14462
▁Location	-14463
imary	-14464
▁Spin	-14465
▁hook	-14466
▁shoe	-14467
Friend	-14468
olester	-14469
▁Olympic	-14470
▁Storage	-14471
▁oranges	-14472
▁Whenever	-14473
ды	-14474
ART	-14475
▁URLs	-14476
▁wool	-14477
▁trait	-14478
▁equity	-14479
▁graphs	-14480
▁unfamiliar	-14481
Equ	-14482
▁NO	-14483
onal	-14484
tech	-14485
▁View	-14486
Default	-14487
dropdown	-14488
▁brewing	-14489
▁exhilar	-14490
▁mortality	-14491
▁Influencer	-14492
▁segmentation	-14493
oty	-14494
__':	-14495
▁Term	-14496
▁bask	-14497
▁bugs	-14498
special	-14499
irections	-14500
▁sab	-14501
▁rays	-14502
sample	-14503
▁flesh	-14504
▁summon	-14505
▁entries	-14506
▁membership	-14507
CM	-14508
zero	-14509
▁ank	-14510
▁bug	-14511
▁ink	-14512
▁LIKE	-14513
depend	-14514
▁TABLE	-14515
▁lovers	-14516
▁organs	-14517
lessness	-14518
▁Emotional	-14519
▁extraordinary	-14520
▁nú	-14521
Task	-14522
erman	-14523
▁heroes	-14524
Response	-14525
uppercase	-14526
▁metallic	-14527
▁procedure	-14528
Co	-14529
▁vs	-14530
▁Mur	-14531
▁reun	-14532
▁blogs	-14533
▁immun	-14534
▁outlets	-14535
▁retrieval	-14536
▁harvesting	-14537
Lar	-14538
▁'-	-14539
▁Hi	-14540
FILE	-14541
▁Sat	-14542
swith	-14543
chnology	-14544
▁coworkers	-14545
▁arithmetic	-14546
▁repository	-14547
▁Participants	-14548
"],	-14549
itious	-14550
▁renov	-14551
▁rubber	-14552
▁holidays	-14553
▁Hollywood	-14554
▁certificate	-14555
-]+	-14556
^2)	-14557
anship	-14558
▁Arabic	-14559
▁emergence	-14560
Tw	-14561
}>	-14562
▁shy	-14563
lihood	-14564
utical	-14565
▁pesto	-14566
▁shook	-14567
▁embark	-14568
▁hazards	-14569
▁embraced	-14570
▁waterfall	-14571
arts	-14572
verb	-14573
▁Blog	-14574
saving	-14575
▁calcium	-14576
olesterol	-14577
▁whispered	-14578
▁nucle	-14579
roughts	-14580
▁galaxy	-14581
▁nowhere	-14582
▁rainbow	-14583
▁wondering	-14584
▁instructor	-14585
▁Matt	-14586
▁donors	-14587
▁frames	-14588
▁franch	-14589
▁thinly	-14590
▁unclear	-14591
▁attempting	-14592
▁interfaces	-14593
▁THE	-14594
▁doubts	-14595
▁infinite	-14596
▁simplify	-14597
(25	-14598
een	-14599
сле	-14600
▁și	-14601
▁kay	-14602
slice	-14603
▁Hosp	-14604
places	-14605
profile	-14606
▁amidst	-14607
▁costly	-14608
▁morale	-14609
▁Britain	-14610
▁elastic	-14611
▁mentally	-14612
▁Pub	-14613
▁fav	-14614
▁Cool	-14615
▁cols	-14616
▁unic	-14617
adores	-14618
▁Following	-14619
▁demanding	-14620
▁secondary	-14621
▁attributed	-14622
сно	-14623
▁ups	-14624
▁mane	-14625
heated	-14626
▁Admin	-14627
▁caring	-14628
▁powered	-14629
▁settled	-14630
▁Choosing	-14631
Lay	-14632
rag	-14633
oric	-14634
brush	-14635
iracy	-14636
ropol	-14637
▁Area	-14638
▁propag	-14639
▁conform	-14640
Day	-14641
dog	-14642
▁Stan	-14643
▁quot	-14644
▁grasp	-14645
▁intimid	-14646
▁reforms	-14647
▁absorbed	-14648
▁información	-14649
▁realization	-14650
▁Christianity	-14651
fff	-14652
prom	-14653
grain	-14654
▁slip	-14655
▁2018,	-14656
▁guilty	-14657
▁sticky	-14658
▁carries	-14659
▁circulation	-14660
▁entertaining	-14661
tags	-14662
inson	-14663
▁liver	-14664
▁Coffee	-14665
▁5;	-14666
▁CPU	-14667
▁nue	-14668
Module	-14669
celona	-14670
autions	-14671
orestation	-14672
▁sequences	-14673
▁tennis	-14674
▁adorned	-14675
▁Continue	-14676
connection	-14677
▁Advertising	-14678
dp	-14679
стве	-14680
eland	-14681
▁HAVING	-14682
▁Winter	-14683
▁urgent	-14684
aceutical	-14685
▁Brussels	-14686
▁squirrel	-14687
▁synthetic	-14688
▁Ha	-14689
▁По	-14690
sign	-14691
▁aster	-14692
▁pilot	-14693
▁cabbage	-14694
▁islands	-14695
▁attitudes	-14696
▁marketplace	-14697
▁trem	-14698
▁excel	-14699
▁Castle	-14700
changing	-14701
▁clicked	-14702
▁spotted	-14703
▁touches	-14704
ji	-14705
ке	-14706
▁Mer	-14707
Check	-14708
▁disk	-14709
▁pale	-14710
Failed	-14711
▁Birth	-14712
▁rustic	-14713
▁cushion	-14714
▁vectors	-14715
▁Firebase	-14716
▁greenery	-14717
▁rigorous	-14718
dest	-14719
veill	-14720
Function	-14721
▁existed	-14722
▁ghostly	-14723
▁catching	-14724
▁diferentes	-14725
▁Corporation	-14726
▁irre	-14727
▁pond	-14728
▁Solution	-14729
▁acquired	-14730
▁robotics	-14731
▁presenting	-14732
▁Kim	-14733
▁oat	-14734
balls	-14735
▁deer	-14736
▁goat	-14737
arnish	-14738
▁puree	-14739
▁duties	-14740
▁farmer	-14741
▁floors	-14742
▁schemes	-14743
▁empathetic	-14744
▁thoughtful	-14745
icide	-14746
react	-14747
hearted	-14748
requent	-14749
▁exceed	-14750
▁cheaper	-14751
▁vessels	-14752
▁magazine	-14753
▁searches	-14754
▁prediction	-14755
(?=	-14756
▁Box	-14757
▁gad	-14758
arios	-14759
ailand	-14760
fitting	-14761
▁Changes	-14762
▁incoming	-14763
▁interacting	-14764
▁participated	-14765
▁rins	-14766
ensing	-14767
▁complexities	-14768
uda	-14769
▁Li	-14770
▁Mit	-14771
▁кон	-14772
▁bytes	-14773
extract	-14774
▁Active	-14775
▁episodes	-14776
▁organizational	-14777
28	-14778
'];	-14779
("\	-14780
▁4]	-14781
▁`'	-14782
▁bears	-14783
▁blade	-14784
▁Technical	-14785
▁rendering	-14786
▁specifies	-14787
▁alphanumeric	-14788
alo	-14789
Pool	-14790
olid	-14791
quet	-14792
gends	-14793
▁Cand	-14794
▁Role	-14795
▁brick	-14796
▁mommy	-14797
▁poets	-14798
▁climbed	-14799
▁posting	-14800
▁hydration	-14801
▁practition	-14802
▁scholarship	-14803
idget	-14804
▁Pain	-14805
▁spic	-14806
▁Julia	-14807
Scanner	-14808
lighten	-14809
▁cooker	-14810
▁Mountains	-14811
▁granulated	-14812
▁$(	-14813
▁Eco	-14814
▁SUM	-14815
merge	-14816
rants	-14817
redit	-14818
ungen	-14819
▁Brush	-14820
▁Others	-14821
▁spreads	-14822
▁resistant	-14823
▁strangers	-14824
▁rabbit	-14825
▁incidents	-14826
▁compromise	-14827
▁laboratory	-14828
▁qualifications	-14829
func	-14830
nels	-14831
▁Sym	-14832
▁csv	-14833
[...]
